{
  "version": "1.0",
  "truncation": null,
  "padding": null,
  "added_tokens": [
    {
      "id": 0,
      "content": "[PAD]",
      "single_word": false,
      "lstrip": false,
      "rstrip": false,
      "normalized": false,
      "special": true
    },
    {
      "id": 1,
      "content": "[UNK]",
      "single_word": false,
      "lstrip": false,
      "rstrip": false,
      "normalized": false,
      "special": true
    }
  ],
  "normalizer": null,
  "pre_tokenizer": {
    "type": "Whitespace"
  },
  "post_processor": null,
  "decoder": null,
  "model": {
    "type": "BPE",
    "dropout": null,
    "unk_token": null,
    "continuing_subword_prefix": null,
    "end_of_word_suffix": null,
    "fuse_unk": false,
    "byte_fallback": false,
    "vocab": {
      "[PAD]": 0,
      "[UNK]": 1,
      "a": 2,
      "b": 3,
      "c": 4,
      "d": 5,
      "e": 6,
      "f": 7,
      "g": 8,
      "h": 9,
      "i": 10,
      "j": 11,
      "k": 12,
      "l": 13,
      "m": 14,
      "n": 15,
      "o": 16,
      "p": 17,
      "q": 18,
      "r": 19,
      "s": 20,
      "t": 21,
      "u": 22,
      "v": 23,
      "w": 24,
      "x": 25,
      "y": 26,
      "z": 27,
      "×": 28,
      "ß": 29,
      "à": 30,
      "á": 31,
      "â": 32,
      "ã": 33,
      "ä": 34,
      "å": 35,
      "æ": 36,
      "ç": 37,
      "è": 38,
      "é": 39,
      "ê": 40,
      "ë": 41,
      "ì": 42,
      "í": 43,
      "î": 44,
      "ï": 45,
      "ð": 46,
      "ñ": 47,
      "ò": 48,
      "ó": 49,
      "ô": 50,
      "õ": 51,
      "ö": 52,
      "ø": 53,
      "ù": 54,
      "ú": 55,
      "û": 56,
      "ü": 57,
      "ý": 58,
      "þ": 59,
      "en": 60,
      "er": 61,
      "an": 62,
      "in": 63,
      "ch": 64,
      "st": 65,
      "de": 66,
      "on": 67,
      "le": 68,
      "ar": 69,
      "re": 70,
      "at": 71,
      "it": 72,
      "or": 73,
      "al": 74,
      "is": 75,
      "un": 76,
      "es": 77,
      "ro": 78,
      "th": 79,
      "ie": 80,
      "la": 81,
      "et": 82,
      "om": 83,
      "il": 84,
      "se": 85,
      "der": 86,
      "ra": 87,
      "po": 88,
      "li": 89,
      "ur": 90,
      "el": 91,
      "as": 92,
      "the": 93,
      "ent": 94,
      "na": 95,
      "sk": 96,
      "ed": 97,
      "and": 98,
      "ou": 99,
      "au": 100,
      "ion": 101,
      "te": 102,
      "ov": 103,
      "ing": 104,
      "ce": 105,
      "ol": 106,
      "den": 107,
      "ge": 108,
      "ní": 109,
      "ne": 110,
      "qu": 111,
      "av": 112,
      "ic": 113,
      "ut": 114,
      "be": 115,
      "of": 116,
      "des": 117,
      "ist": 118,
      "und": 119,
      "och": 120,
      "ter": 121,
      "ig": 122,
      "am": 123,
      "to": 124,
      "die": 125,
      "em": 126,
      "im": 127,
      "ver": 128,
      "us": 129,
      "pro": 130,
      "ta": 131,
      "ho": 132,
      "ör": 133,
      "ich": 134,
      "les": 135,
      "je": 136,
      "ein": 137,
      "ka": 138,
      "ma": 139,
      "pr": 140,
      "od": 141,
      "iv": 142,
      "är": 143,
      "ob": 144,
      "me": 145,
      "sch": 146,
      "ot": 147,
      "ik": 148,
      "par": 149,
      "ir": 150,
      "fr": 151,
      "by": 152,
      "id": 153,
      "for": 154,
      "um": 155,
      "gen": 156,
      "som": 157,
      "lo": 158,
      "ab": 159,
      "ck": 160,
      "ant": 161,
      "pe": 162,
      "du": 163,
      "per": 164,
      "pa": 165,
      "ul": 166,
      "ten": 167,
      "so": 168,
      "ci": 169,
      "res": 170,
      "di": 171,
      "för": 172,
      "che": 173,
      "än": 174,
      "que": 175,
      "do": 176,
      "ill": 177,
      "ct": 178,
      "hr": 179,
      "con": 180,
      "ak": 181,
      "ans": 182,
      "ly": 183,
      "da": 184,
      "men": 185,
      "ation": 186,
      "det": 187,
      "tr": 188,
      "ve": 189,
      "ze": 190,
      "mo": 191,
      "ung": 192,
      "pra": 193,
      "ber": 194,
      "att": 195,
      "man": 196,
      "ná": 197,
      "co": 198,
      "lan": 199,
      "sa": 200,
      "lig": 201,
      "su": 202,
      "are": 203,
      "med": 204,
      "sv": 205,
      "land": 206,
      "ex": 207,
      "kon": 208,
      "no": 209,
      "com": 210,
      "gr": 211,
      "ých": 212,
      "son": 213,
      "we": 214,
      "vy": 215,
      "up": 216,
      "br": 217,
      "chen": 218,
      "jí": 219,
      "till": 220,
      "str": 221,
      "kt": 222,
      "bo": 223,
      "ment": 224,
      "var": 225,
      "he": 226,
      "das": 227,
      "pl": 228,
      "ier": 229,
      "za": 230,
      "zu": 231,
      "let": 232,
      "kr": 233,
      "von": 234,
      "lu": 235,
      "ad": 236,
      "ick": 237,
      "ví": 238,
      "ph": 239,
      "og": 240,
      "len": 241,
      "si": 242,
      "ské": 243,
      "als": 244,
      "né": 245,
      "est": 246,
      "mit": 247,
      "ku": 248,
      "sy": 249,
      "dem": 250,
      "ser": 251,
      "fran": 252,
      "ska": 253,
      "ler": 254,
      "på": 255,
      "sou": 256,
      "ate": 257,
      "deut": 258,
      "sen": 259,
      "mon": 260,
      "ån": 261,
      "ff": 262,
      "vo": 263,
      "gu": 264,
      "ky": 265,
      "har": 266,
      "fin": 267,
      "vi": 268,
      "aus": 269,
      "op": 270,
      "át": 271,
      "mi": 272,
      "une": 273,
      "por": 274,
      "ste": 275,
      "ti": 276,
      "lit": 277,
      "ger": 278,
      "sam": 279,
      "va": 280,
      "auf": 281,
      "del": 282,
      "ha": 283,
      "rom": 284,
      "ia": 285,
      "pod": 286,
      "ind": 287,
      "ty": 288,
      "ja": 289,
      "ben": 290,
      "cer": 291,
      "deutsch": 292,
      "kan": 293,
      "dé": 294,
      "sta": 295,
      "cí": 296,
      "kter": 297,
      "mar": 298,
      "ces": 299,
      "ál": 300,
      "all": 301,
      "ien": 302,
      "ele": 303,
      "form": 304,
      "iska": 305,
      "ké": 306,
      "fü": 307,
      "zá": 308,
      "her": 309,
      "ení": 310,
      "fa": 311,
      "ost": 312,
      "ts": 313,
      "vý": 314,
      "té": 315,
      "olog": 316,
      "ire": 317,
      "ale": 318,
      "tre": 319,
      "äl": 320,
      "ud": 321,
      "pí": 322,
      "tra": 323,
      "dans": 324,
      "ke": 325,
      "sto": 326,
      "eu": 327,
      "under": 328,
      "dr": 329,
      "wer": 330,
      "was": 331,
      "ät": 332,
      "pu": 333,
      "sich": 334,
      "can": 335,
      "nor": 336,
      "os": 337,
      "dan": 338,
      "eine": 339,
      "ett": 340,
      "ré": 341,
      "cent": 342,
      "sp": 343,
      "lad": 344,
      "tu": 345,
      "ges": 346,
      "ning": 347,
      "ven": 348,
      "lé": 349,
      "ith": 350,
      "if": 351,
      "mil": 352,
      "ová": 353,
      "ib": 354,
      "ischen": 355,
      "led": 356,
      "kom": 357,
      "lá": 358,
      "pos": 359,
      "got": 360,
      "ins": 361,
      "lat": 362,
      "wh": 363,
      "ala": 364,
      "mu": 365,
      "min": 366,
      "ther": 367,
      "ition": 368,
      "nej": 369,
      "sl": 370,
      "dy": 371,
      "roz": 372,
      "ive": 373,
      "ga": 374,
      "ové": 375,
      "hn": 376,
      "jak": 377,
      "år": 378,
      "ým": 379,
      "with": 380,
      "ise": 381,
      "my": 382,
      "bet": 383,
      "zem": 384,
      "ine": 385,
      "ique": 386,
      "las": 387,
      "qui": 388,
      "nat": 389,
      "lich": 390,
      "icht": 391,
      "ac": 392,
      "war": 393,
      "urs": 394,
      "vel": 395,
      "ér": 396,
      "ny": 397,
      "ko": 398,
      "pt": 399,
      "bar": 400,
      "end": 401,
      "rop": 402,
      "lem": 403,
      "dur": 404,
      "vá": 405,
      "spo": 406,
      "vis": 407,
      "ba": 408,
      "ies": 409,
      "that": 410,
      "ave": 411,
      "gan": 412,
      "vol": 413,
      "bli": 414,
      "eng": 415,
      "pre": 416,
      "ell": 417,
      "wor": 418,
      "ens": 419,
      "ství": 420,
      "relig": 421,
      "auch": 422,
      "gott": 423,
      "col": 424,
      "jed": 425,
      "mer": 426,
      "és": 427,
      "mat": 428,
      "cho": 429,
      "mé": 430,
      "sed": 431,
      "für": 432,
      "mot": 433,
      "iel": 434,
      "ped": 435,
      "wur": 436,
      "jo": 437,
      "val": 438,
      "vní": 439,
      "ina": 440,
      "not": 441,
      "chr": 442,
      "char": 443,
      "aux": 444,
      "ap": 445,
      "ím": 446,
      "mus": 447,
      "ji": 448,
      "sur": 449,
      "ure": 450,
      "sti": 451,
      "reg": 452,
      "part": 453,
      "pour": 454,
      "ii": 455,
      "wie": 456,
      "wa": 457,
      "hu": 458,
      "nach": 459,
      "sig": 460,
      "ions": 461,
      "ous": 462,
      "oder": 463,
      "pi": 464,
      "vr": 465,
      "fo": 466,
      "jako": 467,
      "ft": 468,
      "isch": 469,
      "out": 470,
      "vor": 471,
      "från": 472,
      "ag": 473,
      "wir": 474,
      "zn": 475,
      "vod": 476,
      "kar": 477,
      "ande": 478,
      "ang": 479,
      "dies": 480,
      "über": 481,
      "sie": 482,
      "bre": 483,
      "ds": 484,
      "fe": 485,
      "franç": 486,
      "hist": 487,
      "ige": 488,
      "polit": 489,
      "zna": 490,
      "int": 491,
      "så": 492,
      "langu": 493,
      "gra": 494,
      "klad": 495,
      "ern": 496,
      "stav": 497,
      "vä": 498,
      "ble": 499,
      "don": 500,
      "isk": 501,
      "kra": 502,
      "pas": 503,
      "ity": 504,
      "upp": 505,
      "seele": 506,
      "äm": 507,
      "bes": 508,
      "lin": 509,
      "mel": 510,
      "ques": 511,
      "spr": 512,
      "euro": 513,
      "gre": 514,
      "frança": 515,
      "pla": 516,
      "ken": 517,
      "ev": 518,
      "lie": 519,
      "án": 520,
      "igen": 521,
      "bn": 522,
      "dom": 523,
      "fol": 524,
      "hl": 525,
      "lon": 526,
      "ren": 527,
      "bei": 528,
      "plus": 529,
      "lar": 530,
      "durch": 531,
      "tur": 532,
      "aut": 533,
      "vt": 534,
      "ers": 535,
      "emp": 536,
      "elle": 537,
      "jen": 538,
      "pat": 539,
      "ite": 540,
      "brit": 541,
      "lez": 542,
      "tem": 543,
      "dra": 544,
      "its": 545,
      "ische": 546,
      "fig": 547,
      "roce": 548,
      "fil": 549,
      "ni": 550,
      "ally": 551,
      "cr": 552,
      "dob": 553,
      "fra": 554,
      "sty": 555,
      "cancer": 556,
      "vid": 557,
      "roku": 558,
      "hen": 559,
      "ord": 560,
      "hö": 561,
      "nicht": 562,
      "wik": 563,
      "inc": 564,
      "ps": 565,
      "ance": 566,
      "from": 567,
      "vil": 568,
      "geist": 569,
      "sin": 570,
      "publi": 571,
      "eller": 572,
      "ner": 573,
      "öt": 574,
      "stat": 575,
      "mí": 576,
      "ité": 577,
      "met": 578,
      "pres": 579,
      "sol": 580,
      "ish": 581,
      "zi": 582,
      "unter": 583,
      "ský": 584,
      "sion": 585,
      "tro": 586,
      "histor": 587,
      "bil": 588,
      "ann": 589,
      "cht": 590,
      "act": 591,
      "vat": 592,
      "port": 593,
      "kul": 594,
      "zd": 595,
      "ním": 596,
      "gne": 597,
      "art": 598,
      "ors": 599,
      "wird": 600,
      "fö": 601,
      "fer": 602,
      "hy": 603,
      "ux": 604,
      "elt": 605,
      "oval": 606,
      "ru": 607,
      "ické": 608,
      "het": 609,
      "byl": 610,
      "stor": 611,
      "ön": 612,
      "stát": 613,
      "ici": 614,
      "ju": 615,
      "län": 616,
      "wo": 617,
      "rod": 618,
      "wurde": 619,
      "ht": 620,
      "tid": 621,
      "ca": 622,
      "slez": 623,
      "ée": 624,
      "deb": 625,
      "vers": 626,
      "dis": 627,
      "spe": 628,
      "mal": 629,
      "mes": 630,
      "gro": 631,
      "ld": 632,
      "bab": 633,
      "ster": 634,
      "christ": 635,
      "nov": 636,
      "ander": 637,
      "mensch": 638,
      "cel": 639,
      "car": 640,
      "bor": 641,
      "letí": 642,
      "net": 643,
      "dal": 644,
      "fter": 645,
      "sten": 646,
      "nu": 647,
      "ská": 648,
      "ys": 649,
      "ence": 650,
      "nom": 651,
      "pul": 652,
      "dern": 653,
      "jahr": 654,
      "dar": 655,
      "inte": 656,
      "även": 657,
      "sont": 658,
      "one": 659,
      "ket": 660,
      "isbn": 661,
      "off": 662,
      "ses": 663,
      "uni": 664,
      "ologie": 665,
      "sein": 666,
      "hé": 667,
      "other": 668,
      "vin": 669,
      "ích": 670,
      "ard": 671,
      "ních": 672,
      "ilo": 673,
      "einer": 674,
      "comme": 675,
      "kor": 676,
      "liv": 677,
      "jet": 678,
      "ice": 679,
      "star": 680,
      "sven": 681,
      "hal": 682,
      "sver": 683,
      "pol": 684,
      "hor": 685,
      "pet": 686,
      "esk": 687,
      "van": 688,
      "eské": 689,
      "pen": 690,
      "which": 691,
      "fre": 692,
      "století": 693,
      "cy": 694,
      "person": 695,
      "ade": 696,
      "ide": 697,
      "evrop": 698,
      "göt": 699,
      "jsou": 700,
      "spra": 701,
      "ého": 702,
      "lag": 703,
      "kol": 704,
      "wasser": 705,
      "sind": 706,
      "ures": 707,
      "lou": 708,
      "nes": 709,
      "ry": 710,
      "talet": 711,
      "syst": 712,
      "kal": 713,
      "itu": 714,
      "deutschland": 715,
      "ili": 716,
      "nebo": 717,
      "pan": 718,
      "union": 719,
      "han": 720,
      "zen": 721,
      "lichen": 722,
      "dí": 723,
      "ns": 724,
      "tech": 725,
      "ved": 726,
      "ated": 727,
      "français": 728,
      "mor": 729,
      "sel": 730,
      "ents": 731,
      "zí": 732,
      "stí": 733,
      "best": 734,
      "ction": 735,
      "nen": 736,
      "tin": 737,
      "lav": 738,
      "such": 739,
      "ple": 740,
      "stal": 741,
      "soci": 742,
      "liga": 743,
      "lema": 744,
      "bu": 745,
      "ban": 746,
      "teil": 747,
      "langue": 748,
      "iz": 749,
      "vent": 750,
      "ont": 751,
      "gt": 752,
      "chocol": 753,
      "cre": 754,
      "jor": 755,
      "produ": 756,
      "genom": 757,
      "exemp": 758,
      "ère": 759,
      "dass": 760,
      "sted": 761,
      "män": 762,
      "ines": 763,
      "jeho": 764,
      "eck": 765,
      "ism": 766,
      "ks": 767,
      "které": 768,
      "lemagne": 769,
      "hat": 770,
      "jan": 771,
      "ue": 772,
      "ident": 773,
      "ling": 774,
      "má": 775,
      "zur": 776,
      "organ": 777,
      "ských": 778,
      "religion": 779,
      "dition": 780,
      "ations": 781,
      "has": 782,
      "inter": 783,
      "charlemagne": 784,
      "stu": 785,
      "sko": 786,
      "mellan": 787,
      "gar": 788,
      "have": 789,
      "zum": 790,
      "ach": 791,
      "chocolate": 792,
      "kör": 793,
      "ical": 794,
      "dá": 795,
      "ès": 796,
      "liche": 797,
      "werden": 798,
      "age": 799,
      "gh": 800,
      "ungen": 801,
      "andra": 802,
      "také": 803,
      "bel": 804,
      "ém": 805,
      "byla": 806,
      "slov": 807,
      "exist": 808,
      "king": 809,
      "anim": 810,
      "weit": 811,
      "tat": 812,
      "vän": 813,
      "över": 814,
      "einen": 815,
      "arch": 816,
      "körper": 817,
      "zv": 818,
      "prá": 819,
      "england": 820,
      "ního": 821,
      "cul": 822,
      "dre": 823,
      "rik": 824,
      "pag": 825,
      "ského": 826,
      "reich": 827,
      "europe": 828,
      "wiki": 829,
      "mn": 830,
      "this": 831,
      "ding": 832,
      "ian": 833,
      "vie": 834,
      "stand": 835,
      "also": 836,
      "bis": 837,
      "där": 838,
      "oli": 839,
      "svt": 840,
      "grund": 841,
      "sverige": 842,
      "welt": 843,
      "fl": 844,
      "ker": 845,
      "used": 846,
      "ende": 847,
      "tex": 848,
      "jin": 849,
      "tor": 850,
      "tal": 851,
      "hre": 852,
      "cheque": 853,
      "zw": 854,
      "ká": 855,
      "bylo": 856,
      "ål": 857,
      "podle": 858,
      "avec": 859,
      "ast": 860,
      "ons": 861,
      "tak": 862,
      "vär": 863,
      "figures": 864,
      "iss": 865,
      "dn": 866,
      "ün": 867,
      "ými": 868,
      "coun": 869,
      "stup": 870,
      "pou": 871,
      "some": 872,
      "ient": 873,
      "most": 874,
      "babi": 875,
      "diff": 876,
      "nur": 877,
      "jící": 878,
      "kultur": 879,
      "cle": 880,
      "fun": 881,
      "hla": 882,
      "ihr": 883,
      "kou": 884,
      "plat": 885,
      "efter": 886,
      "stra": 887,
      "wn": 888,
      "zy": 889,
      "inclu": 890,
      "ury": 891,
      "milli": 892,
      "hra": 893,
      "kat": 894,
      "psy": 895,
      "antik": 896,
      "dun": 897,
      "dru": 898,
      "ek": 899,
      "mst": 900,
      "ätt": 901,
      "sh": 902,
      "sm": 903,
      "sil": 904,
      "rov": 905,
      "low": 906,
      "cou": 907,
      "sí": 908,
      "vlá": 909,
      "mais": 910,
      "praha": 911,
      "but": 912,
      "cet": 913,
      "pes": 914,
      "kem": 915,
      "republi": 916,
      "bra": 917,
      "tom": 918,
      "tim": 919,
      "sub": 920,
      "ile": 921,
      "oby": 922,
      "cé": 923,
      "cor": 924,
      "may": 925,
      "ain": 926,
      "bud": 927,
      "ital": 928,
      "ismus": 929,
      "nit": 930,
      "rel": 931,
      "ils": 932,
      "propag": 933,
      "hel": 934,
      "rå": 935,
      "gem": 936,
      "viol": 937,
      "språ": 938,
      "öl": 939,
      "stan": 940,
      "stör": 941,
      "dire": 942,
      "zná": 943,
      "ême": 944,
      "last": 945,
      "go": 946,
      "který": 947,
      "fir": 948,
      "hin": 949,
      "nou": 950,
      "använ": 951,
      "system": 952,
      "dam": 953,
      "neu": 954,
      "první": 955,
      "stru": 956,
      "rá": 957,
      "vak": 958,
      "lik": 959,
      "pad": 960,
      "heit": 961,
      "cu": 962,
      "hol": 963,
      "non": 964,
      "ss": 965,
      "ily": 966,
      "pay": 967,
      "itet": 968,
      "anda": 969,
      "bec": 970,
      "bas": 971,
      "cal": 972,
      "nation": 973,
      "ton": 974,
      "use": 975,
      "ange": 976,
      "rou": 977,
      "string": 978,
      "stá": 979,
      "ování": 980,
      "alo": 981,
      "ution": 982,
      "lish": 983,
      "leben": 984,
      "thes": 985,
      "einem": 986,
      "aber": 987,
      "deutsche": 988,
      "deutschen": 989,
      "cen": 990,
      "dig": 991,
      "ok": 992,
      "konom": 993,
      "boen": 994,
      "zemí": 995,
      "åg": 996,
      "were": 997,
      "hunder": 998,
      "their": 999,
      "akt": 1000,
      "eff": 1001,
      "leur": 1002,
      "lau": 1003,
      "new": 1004,
      "begr": 1005,
      "náboen": 1006,
      "král": 1007,
      "io": 1008,
      "pak": 1009,
      "ligt": 1010,
      "get": 1011,
      "gegen": 1012,
      "význa": 1013,
      "jahrhunder": 1014,
      "ila": 1015,
      "äg": 1016,
      "sprache": 1017,
      "wen": 1018,
      "zo": 1019,
      "mark": 1020,
      "natur": 1021,
      "cas": 1022,
      "kun": 1023,
      "mas": 1024,
      "ock": 1025,
      "style": 1026,
      "svenska": 1027,
      "sem": 1028,
      "fram": 1029,
      "jes": 1030,
      "zent": 1031,
      "entre": 1032,
      "certa": 1033,
      "bur": 1034,
      "ekonom": 1035,
      "fon": 1036,
      "rat": 1037,
      "inst": 1038,
      "skou": 1039,
      "ovan": 1040,
      "latin": 1041,
      "vom": 1042,
      "inom": 1043,
      "stell": 1044,
      "cons": 1045,
      "trans": 1046,
      "bör": 1047,
      "gel": 1048,
      "ika": 1049,
      "ita": 1050,
      "führ": 1051,
      "hand": 1052,
      "set": 1053,
      "etwa": 1054,
      "media": 1055,
      "menschen": 1056,
      "götter": 1057,
      "hab": 1058,
      "jär": 1059,
      "popul": 1060,
      "mezi": 1061,
      "zeit": 1062,
      "nost": 1063,
      "region": 1064,
      "propaganda": 1065,
      "gé": 1066,
      "kam": 1067,
      "tent": 1068,
      "kann": 1069,
      "ální": 1070,
      "position": 1071,
      "bý": 1072,
      "tí": 1073,
      "ear": 1074,
      "nosti": 1075,
      "roman": 1076,
      "kl": 1077,
      "kte": 1078,
      "ary": 1079,
      "ments": 1080,
      "också": 1081,
      "bland": 1082,
      "oc": 1083,
      "pon": 1084,
      "tv": 1085,
      "uje": 1086,
      "procent": 1087,
      "byly": 1088,
      "more": 1089,
      "národ": 1090,
      "igt": 1091,
      "prim": 1092,
      "vál": 1093,
      "any": 1094,
      "able": 1095,
      "many": 1096,
      "samt": 1097,
      "osti": 1098,
      "före": 1099,
      "dl": 1100,
      "kir": 1101,
      "sku": 1102,
      "ovat": 1103,
      "wes": 1104,
      "dat": 1105,
      "fen": 1106,
      "mis": 1107,
      "world": 1108,
      "wil": 1109,
      "detta": 1110,
      "religi": 1111,
      "exempel": 1112,
      "hou": 1113,
      "defin": 1114,
      "red": 1115,
      "bez": 1116,
      "gs": 1117,
      "sim": 1118,
      "ded": 1119,
      "atom": 1120,
      "iert": 1121,
      "finns": 1122,
      "bi": 1123,
      "fas": 1124,
      "nik": 1125,
      "relat": 1126,
      "main": 1127,
      "gener": 1128,
      "cest": 1129,
      "been": 1130,
      "pré": 1131,
      "mehr": 1132,
      "která": 1133,
      "cess": 1134,
      "wä": 1135,
      "ited": 1136,
      "common": 1137,
      "olika": 1138,
      "mov": 1139,
      "même": 1140,
      "pie": 1141,
      "rit": 1142,
      "sky": 1143,
      "ict": 1144,
      "kön": 1145,
      "sever": 1146,
      "nad": 1147,
      "test": 1148,
      "hran": 1149,
      "fait": 1150,
      "wurden": 1151,
      "diese": 1152,
      "play": 1153,
      "cette": 1154,
      "då": 1155,
      "fest": 1156,
      "när": 1157,
      "ées": 1158,
      "cheques": 1159,
      "dune": 1160,
      "iff": 1161,
      "zt": 1162,
      "iny": 1163,
      "cept": 1164,
      "iga": 1165,
      "bro": 1166,
      "div": 1167,
      "gl": 1168,
      "ham": 1169,
      "ný": 1170,
      "sat": 1171,
      "sym": 1172,
      "velop": 1173,
      "spojen": 1174,
      "sprá": 1175,
      "bl": 1176,
      "ial": 1177,
      "pli": 1178,
      "lex": 1179,
      "ret": 1180,
      "util": 1181,
      "spolen": 1182,
      "ced": 1183,
      "hig": 1184,
      "nis": 1185,
      "ität": 1186,
      "jej": 1187,
      "zeich": 1188,
      "ec": 1189,
      "kdy": 1190,
      "tel": 1191,
      "soph": 1192,
      "cie": 1193,
      "kov": 1194,
      "française": 1195,
      "ait": 1196,
      "dist": 1197,
      "ires": 1198,
      "km": 1199,
      "pom": 1200,
      "pic": 1201,
      "bal": 1202,
      "dol": 1203,
      "mån": 1204,
      "ym": 1205,
      "iet": 1206,
      "gottes": 1207,
      "zwischen": 1208,
      "tvo": 1209,
      "cher": 1210,
      "ating": 1211,
      "ikt": 1212,
      "parte": 1213,
      "sö": 1214,
      "erat": 1215,
      "ingen": 1216,
      "hm": 1217,
      "kina": 1218,
      "été": 1219,
      "alle": 1220,
      "over": 1221,
      "west": 1222,
      "philo": 1223,
      "tradition": 1224,
      "orig": 1225,
      "uss": 1226,
      "try": 1227,
      "veck": 1228,
      "moder": 1229,
      "voj": 1230,
      "hade": 1231,
      "dav": 1232,
      "andre": 1233,
      "quel": 1234,
      "dessa": 1235,
      "ants": 1236,
      "ách": 1237,
      "åt": 1238,
      "öst": 1239,
      "dopra": 1240,
      "bru": 1241,
      "english": 1242,
      "länder": 1243,
      "cur": 1244,
      "sé": 1245,
      "leg": 1246,
      "they": 1247,
      "verb": 1248,
      "debate": 1249,
      "tit": 1250,
      "vzn": 1251,
      "onen": 1252,
      "ely": 1253,
      "píklad": 1254,
      "nord": 1255,
      "ech": 1256,
      "hom": 1257,
      "erst": 1258,
      "cket": 1259,
      "zákon": 1260,
      "gle": 1261,
      "nme": 1262,
      "pér": 1263,
      "anci": 1264,
      "there": 1265,
      "fler": 1266,
      "hav": 1267,
      "ip": 1268,
      "tes": 1269,
      "vz": 1270,
      "mak": 1271,
      "century": 1272,
      "mater": 1273,
      "vilket": 1274,
      "these": 1275,
      "ned": 1276,
      "aussi": 1277,
      "romantik": 1278,
      "minist": 1279,
      "nejvt": 1280,
      "univers": 1281,
      "hlavní": 1282,
      "first": 1283,
      "náboenství": 1284,
      "philosoph": 1285,
      "aff": 1286,
      "hum": 1287,
      "ár": 1288,
      "ür": 1289,
      "siè": 1290,
      "renes": 1291,
      "erna": 1292,
      "trä": 1293,
      "bí": 1294,
      "fär": 1295,
      "mj": 1296,
      "pé": 1297,
      "sn": 1298,
      "zení": 1299,
      "folk": 1300,
      "králov": 1301,
      "clas": 1302,
      "gor": 1303,
      "hem": 1304,
      "pal": 1305,
      "era": 1306,
      "bezeich": 1307,
      "violin": 1308,
      "vznik": 1309,
      "ute": 1310,
      "prin": 1311,
      "cour": 1312,
      "europeiska": 1313,
      "eg": 1314,
      "hör": 1315,
      "ates": 1316,
      "cep": 1317,
      "german": 1318,
      "napíklad": 1319,
      "mö": 1320,
      "mno": 1321,
      "sit": 1322,
      "tout": 1323,
      "than": 1324,
      "skil": 1325,
      "ument": 1326,
      "dalí": 1327,
      "nombre": 1328,
      "pel": 1329,
      "ral": 1330,
      "who": 1331,
      "arna": 1332,
      "roy": 1333,
      "medel": 1334,
      "praze": 1335,
      "ningen": 1336,
      "louis": 1337,
      "psych": 1338,
      "ix": 1339,
      "ium": 1340,
      "js": 1341,
      "tis": 1342,
      "území": 1343,
      "ligen": 1344,
      "obje": 1345,
      "when": 1346,
      "choklad": 1347,
      "far": 1348,
      "rö": 1349,
      "diale": 1350,
      "dock": 1351,
      "häl": 1352,
      "erg": 1353,
      "inne": 1354,
      "autres": 1355,
      "weiter": 1356,
      "ron": 1357,
      "vé": 1358,
      "develop": 1359,
      "aller": 1360,
      "seel": 1361,
      "paris": 1362,
      "peop": 1363,
      "ktion": 1364,
      "vari": 1365,
      "sens": 1366,
      "rich": 1367,
      "onder": 1368,
      "aten": 1369,
      "sedan": 1370,
      "amer": 1371,
      "bon": 1372,
      "jmé": 1373,
      "tou": 1374,
      "deux": 1375,
      "rem": 1376,
      "iskt": 1377,
      "coco": 1378,
      "vzd": 1379,
      "vara": 1380,
      "france": 1381,
      "patí": 1382,
      "hål": 1383,
      "lö": 1384,
      "py": 1385,
      "äu": 1386,
      "être": 1387,
      "utveck": 1388,
      "ibt": 1389,
      "hmen": 1390,
      "zel": 1391,
      "ena": 1392,
      "språk": 1393,
      "din": 1394,
      "ful": 1395,
      "noch": 1396,
      "ßen": 1397,
      "log": 1398,
      "syn": 1399,
      "ång": 1400,
      "besonder": 1401,
      "vatel": 1402,
      "obyvatel": 1403,
      "ihre": 1404,
      "mun": 1405,
      "nar": 1406,
      "num": 1407,
      "pis": 1408,
      "ri": 1409,
      "lam": 1410,
      "její": 1411,
      "kraj": 1412,
      "dit": 1413,
      "gör": 1414,
      "há": 1415,
      "klas": 1416,
      "sei": 1417,
      "ova": 1418,
      "dens": 1419,
      "sign": 1420,
      "jahrhundert": 1421,
      "cocoa": 1422,
      "ect": 1423,
      "ement": 1424,
      "dle": 1425,
      "united": 1426,
      "seit": 1427,
      "cem": 1428,
      "geb": 1429,
      "oft": 1430,
      "iva": 1431,
      "blev": 1432,
      "mt": 1433,
      "vlast": 1434,
      "will": 1435,
      "ences": 1436,
      "sek": 1437,
      "denna": 1438,
      "quil": 1439,
      "modern": 1440,
      "landet": 1441,
      "film": 1442,
      "people": 1443,
      "dou": 1444,
      "asi": 1445,
      "indiv": 1446,
      "partic": 1447,
      "cultu": 1448,
      "cit": 1449,
      "fy": 1450,
      "iza": 1451,
      "ück": 1452,
      "stän": 1453,
      "ied": 1454,
      "ogra": 1455,
      "jejich": 1456,
      "vet": 1457,
      "iser": 1458,
      "unt": 1459,
      "ových": 1460,
      "stran": 1461,
      "heil": 1462,
      "více": 1463,
      "nå": 1464,
      "ong": 1465,
      "ause": 1466,
      "keit": 1467,
      "puis": 1468,
      "jedoch": 1469,
      "unionen": 1470,
      "iques": 1471,
      "alt": 1472,
      "crit": 1473,
      "nmeck": 1474,
      "bin": 1475,
      "bol": 1476,
      "oh": 1477,
      "alla": 1478,
      "lid": 1479,
      "jazy": 1480,
      "charles": 1481,
      "ainsi": 1482,
      "fam": 1483,
      "fall": 1484,
      "kno": 1485,
      "sor": 1486,
      "sing": 1487,
      "into": 1488,
      "ofta": 1489,
      "ného": 1490,
      "jose": 1491,
      "langues": 1492,
      "významn": 1493,
      "gleich": 1494,
      "cap": 1495,
      "njí": 1496,
      "dess": 1497,
      "peut": 1498,
      "stora": 1499,
      "animaux": 1500,
      "många": 1501,
      "eben": 1502,
      "jem": 1503,
      "ll": 1504,
      "ných": 1505,
      "pá": 1506,
      "annat": 1507,
      "obla": 1508,
      "bert": 1509,
      "mycket": 1510,
      "gram": 1511,
      "siècle": 1512,
      "fur": 1513,
      "kin": 1514,
      "nut": 1515,
      "alter": 1516,
      "proti": 1517,
      "hos": 1518,
      "peri": 1519,
      "vech": 1520,
      "gesch": 1521,
      "bild": 1522,
      "gemein": 1523,
      "jer": 1524,
      "nas": 1525,
      "plan": 1526,
      "sj": 1527,
      "sá": 1528,
      "inf": 1529,
      "chod": 1530,
      "pozd": 1531,
      "ník": 1532,
      "monar": 1533,
      "speci": 1534,
      "svensk": 1535,
      "nic": 1536,
      "oire": 1537,
      "vit": 1538,
      "ille": 1539,
      "nap": 1540,
      "senát": 1541,
      "hög": 1542,
      "bank": 1543,
      "rough": 1544,
      "mjöl": 1545,
      "eur": 1546,
      "ves": 1547,
      "letech": 1548,
      "thé": 1549,
      "scha": 1550,
      "idu": 1551,
      "ween": 1552,
      "europa": 1553,
      "grek": 1554,
      "psob": 1555,
      "begriff": 1556,
      "wick": 1557,
      "ats": 1558,
      "aly": 1559,
      "proje": 1560,
      "près": 1561,
      "krit": 1562,
      "samma": 1563,
      "dieser": 1564,
      "dor": 1565,
      "had": 1566,
      "nt": 1567,
      "ozna": 1568,
      "between": 1569,
      "två": 1570,
      "tan": 1571,
      "ég": 1572,
      "ené": 1573,
      "iní": 1574,
      "stud": 1575,
      "omen": 1576,
      "ským": 1577,
      "bedeut": 1578,
      "ický": 1579,
      "ském": 1580,
      "waren": 1581,
      "public": 1582,
      "ej": 1583,
      "fatt": 1584,
      "ote": 1585,
      "ran": 1586,
      "tet": 1587,
      "uli": 1588,
      "athé": 1589,
      "lade": 1590,
      "områ": 1591,
      "dro": 1592,
      "kre": 1593,
      "lä": 1594,
      "lor": 1595,
      "instr": 1596,
      "skr": 1597,
      "isten": 1598,
      "iger": 1599,
      "about": 1600,
      "státní": 1601,
      "jesus": 1602,
      "flera": 1603,
      "fes": 1604,
      "lov": 1605,
      "sci": 1606,
      "ough": 1607,
      "eines": 1608,
      "john": 1609,
      "pression": 1610,
      "ada": 1611,
      "hlá": 1612,
      "well": 1613,
      "zer": 1614,
      "ular": 1615,
      "sowie": 1616,
      "europ": 1617,
      "osob": 1618,
      "music": 1619,
      "království": 1620,
      "ase": 1621,
      "hjär": 1622,
      "oper": 1623,
      "refer": 1624,
      "through": 1625,
      "sour": 1626,
      "ická": 1627,
      "here": 1628,
      "utilis": 1629,
      "cis": 1630,
      "gab": 1631,
      "jar": 1632,
      "kla": 1633,
      "ox": 1634,
      "vu": 1635,
      "väl": 1636,
      "ßer": 1637,
      "allem": 1638,
      "ovala": 1639,
      "iciel": 1640,
      "toho": 1641,
      "verk": 1642,
      "prozent": 1643,
      "fort": 1644,
      "literat": 1645,
      "formation": 1646,
      "základ": 1647,
      "angli": 1648,
      "mediawiki": 1649,
      "bb": 1650,
      "cam": 1651,
      "giv": 1652,
      "jm": 1653,
      "lt": 1654,
      "mut": 1655,
      "mich": 1656,
      "vra": 1657,
      "ín": 1658,
      "tag": 1659,
      "obdob": 1660,
      "grö": 1661,
      "podob": 1662,
      "géné": 1663,
      "kop": 1664,
      "pin": 1665,
      "zalo": 1666,
      "often": 1667,
      "första": 1668,
      "ostat": 1669,
      "kommer": 1670,
      "mots": 1671,
      "britán": 1672,
      "värl": 1673,
      "bit": 1674,
      "blo": 1675,
      "gg": 1676,
      "kän": 1677,
      "zde": 1678,
      "ative": 1679,
      "ets": 1680,
      "radi": 1681,
      "ings": 1682,
      "term": 1683,
      "premi": 1684,
      "time": 1685,
      "afr": 1686,
      "pf": 1687,
      "pvod": 1688,
      "sla": 1689,
      "tvr": 1690,
      "alth": 1691,
      "rap": 1692,
      "inger": 1693,
      "utan": 1694,
      "iges": 1695,
      "scho": 1696,
      "iky": 1697,
      "large": 1698,
      "jména": 1699,
      "jon": 1700,
      "kde": 1701,
      "mod": 1702,
      "nung": 1703,
      "rä": 1704,
      "chem": 1705,
      "prés": 1706,
      "berg": 1707,
      "své": 1708,
      "exam": 1709,
      "lui": 1710,
      "vím": 1711,
      "allt": 1712,
      "ift": 1713,
      "nejvtí": 1714,
      "glich": 1715,
      "mä": 1716,
      "nan": 1717,
      "pit": 1718,
      "vir": 1719,
      "stou": 1720,
      "demo": 1721,
      "alen": 1722,
      "bere": 1723,
      "volution": 1724,
      "ihrer": 1725,
      "wesen": 1726,
      "human": 1727,
      "schaft": 1728,
      "rum": 1729,
      "liam": 1730,
      "ass": 1731,
      "entwick": 1732,
      "geor": 1733,
      "utí": 1734,
      "trin": 1735,
      "temper": 1736,
      "exemple": 1737,
      "lingu": 1738,
      "ually": 1739,
      "indi": 1740,
      "chá": 1741,
      "arbet": 1742,
      "ativ": 1743,
      "ica": 1744,
      "phon": 1745,
      "since": 1746,
      "include": 1747,
      "religious": 1748,
      "kung": 1749,
      "nä": 1750,
      "nich": 1751,
      "zav": 1752,
      "étu": 1753,
      "stä": 1754,
      "lement": 1755,
      "alis": 1756,
      "ente": 1757,
      "nás": 1758,
      "cours": 1759,
      "autor": 1760,
      "haben": 1761,
      "bezeichnet": 1762,
      "seelen": 1763,
      "hov": 1764,
      "hän": 1765,
      "two": 1766,
      "tzv": 1767,
      "ura": 1768,
      "enz": 1769,
      "chan": 1770,
      "during": 1771,
      "karl": 1772,
      "kraft": 1773,
      "damit": 1774,
      "individu": 1775,
      "cat": 1776,
      "dv": 1777,
      "gas": 1778,
      "nie": 1779,
      "vých": 1780,
      "wel": 1781,
      "indu": 1782,
      "stäl": 1783,
      "atis": 1784,
      "skul": 1785,
      "prob": 1786,
      "issance": 1787,
      "princi": 1788,
      "ted": 1789,
      "selon": 1790,
      "nest": 1791,
      "kaka": 1792,
      "pede": 1793,
      "selb": 1794,
      "práv": 1795,
      "drei": 1796,
      "cir": 1797,
      "cha": 1798,
      "lek": 1799,
      "arist": 1800,
      "associ": 1801,
      "import": 1802,
      "major": 1803,
      "prä": 1804,
      "grand": 1805,
      "herr": 1806,
      "heter": 1807,
      "officiel": 1808,
      "sc": 1809,
      "ást": 1810,
      "stad": 1811,
      "alist": 1812,
      "seine": 1813,
      "ktiv": 1814,
      "kejs": 1815,
      "known": 1816,
      "lj": 1817,
      "mier": 1818,
      "msta": 1819,
      "atur": 1820,
      "lení": 1821,
      "jour": 1822,
      "vrch": 1823,
      "evropy": 1824,
      "period": 1825,
      "pedevím": 1826,
      "éta": 1827,
      "ari": 1828,
      "prmy": 1829,
      "främ": 1830,
      "byli": 1831,
      "peu": 1832,
      "zahl": 1833,
      "fois": 1834,
      "vody": 1835,
      "domin": 1836,
      "korun": 1837,
      "including": 1838,
      "období": 1839,
      "gin": 1840,
      "zwe": 1841,
      "post": 1842,
      "macht": 1843,
      "trib": 1844,
      "svta": 1845,
      "sondern": 1846,
      "vyí": 1847,
      "elezn": 1848,
      "religions": 1849,
      "politik": 1850,
      "dont": 1851,
      "handel": 1852,
      "millionen": 1853,
      "cla": 1854,
      "hier": 1855,
      "lung": 1856,
      "slav": 1857,
      "tar": 1858,
      "tím": 1859,
      "ík": 1860,
      "ón": 1861,
      "pov": 1862,
      "them": 1863,
      "zejména": 1864,
      "icky": 1865,
      "alement": 1866,
      "danmark": 1867,
      "anderen": 1868,
      "cyper": 1869,
      "získ": 1870,
      "republiky": 1871,
      "origin": 1872,
      "romantiken": 1873,
      "východ": 1874,
      "fem": 1875,
      "gibt": 1876,
      "hus": 1877,
      "où": 1878,
      "inv": 1879,
      "teur": 1880,
      "ress": 1881,
      "accoun": 1882,
      "premier": 1883,
      "wort": 1884,
      "dále": 1885,
      "glau": 1886,
      "jam": 1887,
      "uk": 1888,
      "ád": 1889,
      "itel": 1890,
      "thom": 1891,
      "tour": 1892,
      "osof": 1893,
      "filosof": 1894,
      "babie": 1895,
      "funktion": 1896,
      "tisí": 1897,
      "god": 1898,
      "rhé": 1899,
      "slu": 1900,
      "tz": 1901,
      "ali": 1902,
      "skup": 1903,
      "uses": 1904,
      "proto": 1905,
      "mag": 1906,
      "sche": 1907,
      "tens": 1908,
      "sup": 1909,
      "vyso": 1910,
      "ology": 1911,
      "spä": 1912,
      "ningar": 1913,
      "männ": 1914,
      "belie": 1915,
      "bå": 1916,
      "band": 1917,
      "cell": 1918,
      "line": 1919,
      "tres": 1920,
      "tän": 1921,
      "vikt": 1922,
      "wis": 1923,
      "ásti": 1924,
      "energ": 1925,
      "laut": 1926,
      "lim": 1927,
      "tod": 1928,
      "contin": 1929,
      "svar": 1930,
      "spre": 1931,
      "iii": 1932,
      "donc": 1933,
      "vater": 1934,
      "called": 1935,
      "bod": 1936,
      "fly": 1937,
      "his": 1938,
      "kur": 1939,
      "allow": 1940,
      "very": 1941,
      "open": 1942,
      "tysk": 1943,
      "západ": 1944,
      "while": 1945,
      "wohl": 1946,
      "selbst": 1947,
      "rhétor": 1948,
      "after": 1949,
      "bien": 1950,
      "gal": 1951,
      "sä": 1952,
      "where": 1953,
      "zus": 1954,
      "allen": 1955,
      "rad": 1956,
      "old": 1957,
      "ival": 1958,
      "weise": 1959,
      "sible": 1960,
      "senare": 1961,
      "kyr": 1962,
      "bety": 1963,
      "nature": 1964,
      "velké": 1965,
      "vissa": 1966,
      "mén": 1967,
      "trou": 1968,
      "univer": 1969,
      "seiner": 1970,
      "relativ": 1971,
      "mjölk": 1972,
      "hau": 1973,
      "ante": 1974,
      "pose": 1975,
      "gemen": 1976,
      "hod": 1977,
      "due": 1978,
      "nées": 1979,
      "fast": 1980,
      "réf": 1981,
      "place": 1982,
      "figure": 1983,
      "znám": 1984,
      "bun": 1985,
      "kle": 1986,
      "klá": 1987,
      "mind": 1988,
      "ným": 1989,
      "rie": 1990,
      "ères": 1991,
      "ory": 1992,
      "tho": 1993,
      "thod": 1994,
      "list": 1995,
      "först": 1996,
      "krat": 1997,
      "cích": 1998,
      "milion": 1999,
      "joh": 2000,
      "press": 2001,
      "större": 2002,
      "kteí": 2003,
      "währ": 2004,
      "hur": 2005,
      "lut": 2006,
      "xe": 2007,
      "ané": 2008,
      "secon": 2009,
      "tek": 2010,
      "ovou": 2011,
      "nem": 2012,
      "avo": 2013,
      "ics": 2014,
      "cog": 2015,
      "ieren": 2016,
      "delar": 2017,
      "iens": 2018,
      "gage": 2019,
      "betra": 2020,
      "lemp": 2021,
      "väx": 2022,
      "london": 2023,
      "slezska": 2024,
      "kingdom": 2025,
      "national": 2026,
      "být": 2027,
      "pozdji": 2028,
      "industr": 2029,
      "doch": 2030,
      "gjor": 2031,
      "tun": 2032,
      "öster": 2033,
      "inner": 2034,
      "only": 2035,
      "elles": 2036,
      "nam": 2037,
      "process": 2038,
      "prend": 2039,
      "sous": 2040,
      "differ": 2041,
      "stellt": 2042,
      "kirche": 2043,
      "linguist": 2044,
      "rhétorique": 2045,
      "bla": 2046,
      "här": 2047,
      "pur": 2048,
      "slag": 2049,
      "vliv": 2050,
      "äck": 2051,
      "öm": 2052,
      "ano": 2053,
      "postav": 2054,
      "ami": 2055,
      "sohn": 2056,
      "const": 2057,
      "core": 2058,
      "suc": 2059,
      "ických": 2060,
      "mittel": 2061,
      "kolem": 2062,
      "aktiv": 2063,
      "dau": 2064,
      "krom": 2065,
      "lors": 2066,
      "nové": 2067,
      "sär": 2068,
      "imm": 2069,
      "max": 2070,
      "idé": 2071,
      "pereur": 2072,
      "respe": 2073,
      "krie": 2074,
      "franco": 2075,
      "défin": 2076,
      "drá": 2077,
      "incre": 2078,
      "vlády": 2079,
      "budd": 2080,
      "národní": 2081,
      "ií": 2082,
      "pp": 2083,
      "year": 2084,
      "ème": 2085,
      "erade": 2086,
      "inde": 2087,
      "lev": 2088,
      "point": 2089,
      "entum": 2090,
      "ske": 2091,
      "made": 2092,
      "lands": 2093,
      "steht": 2094,
      "urspr": 2095,
      "doby": 2096,
      "míst": 2097,
      "present": 2098,
      "debating": 2099,
      "différ": 2100,
      "används": 2101,
      "besondere": 2102,
      "izace": 2103,
      "cs": 2104,
      "cation": 2105,
      "eigen": 2106,
      "kines": 2107,
      "zk": 2108,
      "ichte": 2109,
      "einfl": 2110,
      "byz": 2111,
      "quest": 2112,
      "pract": 2113,
      "ením": 2114,
      "way": 2115,
      "intel": 2116,
      "cancers": 2117,
      "group": 2118,
      "eská": 2119,
      "techn": 2120,
      "stellung": 2121,
      "cré": 2122,
      "ged": 2123,
      "kvin": 2124,
      "mol": 2125,
      "pun": 2126,
      "rent": 2127,
      "rätt": 2128,
      "situ": 2129,
      "üd": 2130,
      "inu": 2131,
      "ches": 2132,
      "like": 2133,
      "skill": 2134,
      "tele": 2135,
      "ight": 2136,
      "less": 2137,
      "soit": 2138,
      "heute": 2139,
      "ific": 2140,
      "temps": 2141,
      "text": 2142,
      "hrad": 2143,
      "während": 2144,
      "bib": 2145,
      "mem": 2146,
      "san": 2147,
      "slo": 2148,
      "trop": 2149,
      "équ": 2150,
      "üs": 2151,
      "leurs": 2152,
      "iti": 2153,
      "beit": 2154,
      "ign": 2155,
      "pris": 2156,
      "frü": 2157,
      "socie": 2158,
      "veej": 2159,
      "strun": 2160,
      "finan": 2161,
      "stehen": 2162,
      "vají": 2163,
      "typ": 2164,
      "slut": 2165,
      "kultu": 2166,
      "slezsko": 2167,
      "eský": 2168,
      "italien": 2169,
      "största": 2170,
      "bat": 2171,
      "bou": 2172,
      "lle": 2173,
      "lus": 2174,
      "mid": 2175,
      "pau": 2176,
      "sal": 2177,
      "tá": 2178,
      "uro": 2179,
      "ují": 2180,
      "zes": 2181,
      "ersch": 2182,
      "alog": 2183,
      "see": 2184,
      "sehr": 2185,
      "ammen": 2186,
      "ivo": 2187,
      "cts": 2188,
      "voir": 2189,
      "sicht": 2190,
      "british": 2191,
      "william": 2192,
      "number": 2193,
      "cypern": 2194,
      "clo": 2195,
      "gi": 2196,
      "gov": 2197,
      "msto": 2198,
      "oz": 2199,
      "pè": 2200,
      "risk": 2201,
      "sent": 2202,
      "tant": 2203,
      "enda": 2204,
      "onom": 2205,
      "ities": 2206,
      "ilt": 2207,
      "poj": 2208,
      "inge": 2209,
      "dessen": 2210,
      "iker": 2211,
      "mos": 2212,
      "serv": 2213,
      "tiden": 2214,
      "cír": 2215,
      "spir": 2216,
      "pedag": 2217,
      "väte": 2218,
      "kraje": 2219,
      "halb": 2220,
      "organis": 2221,
      "burg": 2222,
      "kirchen": 2223,
      "high": 2224,
      "oblasti": 2225,
      "monark": 2226,
      "skulle": 2227,
      "az": 2228,
      "leb": 2229,
      "ato": 2230,
      "skot": 2231,
      "ovi": 2232,
      "ices": 2233,
      "uten": 2234,
      "imo": 2235,
      "usually": 2236,
      "trat": 2237,
      "wieder": 2238,
      "four": 2239,
      "sveriges": 2240,
      "studi": 2241,
      "pouze": 2242,
      "lempire": 2243,
      "pedagog": 2244,
      "ages": 2245,
      "völ": 2246,
      "íe": 2247,
      "chy": 2248,
      "stel": 2249,
      "olf": 2250,
      "endant": 2251,
      "pedia": 2252,
      "stedov": 2253,
      "ecké": 2254,
      "archite": 2255,
      "platon": 2256,
      "strings": 2257,
      "wenn": 2258,
      "mission": 2259,
      "également": 2260,
      "après": 2261,
      "fte": 2262,
      "mr": 2263,
      "mand": 2264,
      "rund": 2265,
      "sak": 2266,
      "åter": 2267,
      "anatom": 2268,
      "issu": 2269,
      "islam": 2270,
      "lage": 2271,
      "gew": 2272,
      "qual": 2273,
      "imed": 2274,
      "prote": 2275,
      "hrt": 2276,
      "phys": 2277,
      "gue": 2278,
      "stock": 2279,
      "eských": 2280,
      "social": 2281,
      "countr": 2282,
      "certains": 2283,
      "philosophie": 2284,
      "später": 2285,
      "ace": 2286,
      "fi": 2287,
      "jäm": 2288,
      "lom": 2289,
      "må": 2290,
      "nko": 2291,
      "rè": 2292,
      "zak": 2293,
      "ástí": 2294,
      "stin": 2295,
      "alli": 2296,
      "poli": 2297,
      "aspe": 2298,
      "tement": 2299,
      "mají": 2300,
      "pac": 2301,
      "page": 2302,
      "daher": 2303,
      "sons": 2304,
      "bow": 2305,
      "gesam": 2306,
      "geistes": 2307,
      "effect": 2308,
      "certain": 2309,
      "popular": 2310,
      "klär": 2311,
      "partei": 2312,
      "vzdlá": 2313,
      "ales": 2314,
      "bá": 2315,
      "bed": 2316,
      "gö": 2317,
      "jud": 2318,
      "ktr": 2319,
      "äre": 2320,
      "eno": 2321,
      "encore": 2322,
      "poz": 2323,
      "postup": 2324,
      "augu": 2325,
      "gehör": 2326,
      "using": 2327,
      "para": 2328,
      "formen": 2329,
      "uments": 2330,
      "pace": 2331,
      "moc": 2332,
      "exter": 2333,
      "kontro": 2334,
      "ností": 2335,
      "grie": 2336,
      "side": 2337,
      "posit": 2338,
      "evropské": 2339,
      "funk": 2340,
      "early": 2341,
      "ární": 2342,
      "specif": 2343,
      "särskil": 2344,
      "bö": 2345,
      "bzw": 2346,
      "him": 2347,
      "jus": 2348,
      "kes": 2349,
      "klar": 2350,
      "pam": 2351,
      "roj": 2352,
      "then": 2353,
      "ieurs": 2354,
      "polo": 2355,
      "termin": 2356,
      "howe": 2357,
      "cké": 2358,
      "krá": 2359,
      "kring": 2360,
      "krist": 2361,
      "samman": 2362,
      "poslan": 2363,
      "tidig": 2364,
      "dalích": 2365,
      "eského": 2366,
      "instrument": 2367,
      "présent": 2368,
      "example": 2369,
      "however": 2370,
      "asto": 2371,
      "dj": 2372,
      "eli": 2373,
      "each": 2374,
      "gam": 2375,
      "glie": 2376,
      "hans": 2377,
      "hous": 2378,
      "ihn": 2379,
      "ène": 2380,
      "ana": 2381,
      "arab": 2382,
      "reger": 2383,
      "atel": 2384,
      "rodu": 2385,
      "amment": 2386,
      "versch": 2387,
      "mach": 2388,
      "mez": 2389,
      "ike": 2390,
      "dabei": 2391,
      "prahy": 2392,
      "skap": 2393,
      "alex": 2394,
      "insbesondere": 2395,
      "colle": 2396,
      "artic": 2397,
      "andere": 2398,
      "morav": 2399,
      "svtové": 2400,
      "síd": 2401,
      "semble": 2402,
      "symbol": 2403,
      "europä": 2404,
      "account": 2405,
      "thomas": 2406,
      "byzant": 2407,
      "aby": 2408,
      "cro": 2409,
      "går": 2410,
      "sna": 2411,
      "tt": 2412,
      "lehre": 2413,
      "recht": 2414,
      "law": 2415,
      "sex": 2416,
      "poet": 2417,
      "quelle": 2418,
      "provi": 2419,
      "sound": 2420,
      "concer": 2421,
      "model": 2422,
      "lang": 2423,
      "exp": 2424,
      "konst": 2425,
      "jím": 2426,
      "výra": 2427,
      "této": 2428,
      "ätta": 2429,
      "fore": 2430,
      "ischer": 2431,
      "histoire": 2432,
      "väst": 2433,
      "nice": 2434,
      "ovali": 2435,
      "kallas": 2436,
      "renesan": 2437,
      "josef": 2438,
      "govern": 2439,
      "countries": 2440,
      "bau": 2441,
      "dict": 2442,
      "fle": 2443,
      "hlas": 2444,
      "kv": 2445,
      "kli": 2446,
      "nous": 2447,
      "pho": 2448,
      "sans": 2449,
      "enligt": 2450,
      "chil": 2451,
      "atta": 2452,
      "eln": 2453,
      "ovem": 2454,
      "ists": 2455,
      "forma": 2456,
      "très": 2457,
      "prav": 2458,
      "svob": 2459,
      "via": 2460,
      "elektr": 2461,
      "vání": 2462,
      "jedná": 2463,
      "plusieurs": 2464,
      "solen": 2465,
      "gött": 2466,
      "animal": 2467,
      "kunde": 2468,
      "británie": 2469,
      "school": 2470,
      "cka": 2471,
      "kové": 2472,
      "mimo": 2473,
      "nm": 2474,
      "spor": 2475,
      "smy": 2476,
      "isen": 2477,
      "unden": 2478,
      "ould": 2479,
      "genann": 2480,
      "ctions": 2481,
      "dagen": 2482,
      "konce": 2483,
      "commun": 2484,
      "souvent": 2485,
      "mili": 2486,
      "kommen": 2487,
      "minut": 2488,
      "bara": 2489,
      "vratis": 2490,
      "voda": 2491,
      "fils": 2492,
      "vatten": 2493,
      "tryck": 2494,
      "particular": 2495,
      "culture": 2496,
      "théor": 2497,
      "tänkan": 2498,
      "mindre": 2499,
      "dö": 2500,
      "ihm": 2501,
      "lí": 2502,
      "ore": 2503,
      "redu": 2504,
      "reform": 2505,
      "orient": 2506,
      "rok": 2507,
      "limit": 2508,
      "quent": 2509,
      "being": 2510,
      "forme": 2511,
      "langage": 2512,
      "ktur": 2513,
      "both": 2514,
      "souas": 2515,
      "treat": 2516,
      "prez": 2517,
      "pedstav": 2518,
      "found": 2519,
      "ließ": 2520,
      "följ": 2521,
      "speak": 2522,
      "petr": 2523,
      "spolenosti": 2524,
      "class": 2525,
      "dim": 2526,
      "hlen": 2527,
      "kö": 2528,
      "obec": 2529,
      "sho": 2530,
      "spar": 2531,
      "tum": 2532,
      "tvar": 2533,
      "uí": 2534,
      "eny": 2535,
      "ere": 2536,
      "alors": 2537,
      "unge": 2538,
      "liber": 2539,
      "proces": 2540,
      "umní": 2541,
      "hren": 2542,
      "gren": 2543,
      "jích": 2544,
      "great": 2545,
      "follow": 2546,
      "actors": 2547,
      "jahrhunderts": 2548,
      "války": 2549,
      "renesance": 2550,
      "människ": 2551,
      "prezident": 2552,
      "aire": 2553,
      "dc": 2554,
      "dne": 2555,
      "hoch": 2556,
      "hung": 2557,
      "ml": 2558,
      "mär": 2559,
      "nal": 2560,
      "nkteré": 2561,
      "put": 2562,
      "uel": 2563,
      "wör": 2564,
      "yt": 2565,
      "iná": 2566,
      "information": 2567,
      "stala": 2568,
      "ley": 2569,
      "lades": 2570,
      "verbre": 2571,
      "tain": 2572,
      "contre": 2573,
      "zahran": 2574,
      "krig": 2575,
      "hard": 2576,
      "ties": 2577,
      "nya": 2578,
      "volu": 2579,
      "jedno": 2580,
      "notamment": 2581,
      "trois": 2582,
      "halten": 2583,
      "tats": 2584,
      "because": 2585,
      "exempelvis": 2586,
      "größ": 2587,
      "násled": 2588,
      "problem": 2589,
      "tedy": 2590,
      "linguistique": 2591,
      "cov": 2592,
      "gung": 2593,
      "lån": 2594,
      "näm": 2595,
      "pil": 2596,
      "yor": 2597,
      "zam": 2598,
      "ersten": 2599,
      "roi": 2600,
      "edu": 2601,
      "usa": 2602,
      "obchod": 2603,
      "mann": 2604,
      "sad": 2605,
      "ickou": 2606,
      "ausge": 2607,
      "japan": 2608,
      "ostra": 2609,
      "méta": 2610,
      "appe": 2611,
      "long": 2612,
      "frage": 2613,
      "druhé": 2614,
      "holm": 2615,
      "effet": 2616,
      "definition": 2617,
      "können": 2618,
      "spolenost": 2619,
      "influ": 2620,
      "bus": 2621,
      "dautres": 2622,
      "jn": 2623,
      "kus": 2624,
      "keine": 2625,
      "ola": 2626,
      "pd": 2627,
      "ule": 2628,
      "vas": 2629,
      "zä": 2630,
      "itt": 2631,
      "deren": 2632,
      "urg": 2633,
      "audi": 2634,
      "neben": 2635,
      "ava": 2636,
      "top": 2637,
      "mains": 2638,
      "iken": 2639,
      "fri": 2640,
      "abil": 2641,
      "resul": 2642,
      "chez": 2643,
      "content": 2644,
      "concept": 2645,
      "sax": 2646,
      "soud": 2647,
      "harmon": 2648,
      "stech": 2649,
      "staat": 2650,
      "miljon": 2651,
      "notes": 2652,
      "znamen": 2653,
      "státu": 2654,
      "groß": 2655,
      "sprachen": 2656,
      "unionens": 2657,
      "sloven": 2658,
      "texte": 2659,
      "david": 2660,
      "andrej": 2661,
      "ått": 2662,
      "ulier": 2663,
      "francophon": 2664,
      "ades": 2665,
      "bot": 2666,
      "dva": 2667,
      "finger": 2668,
      "ière": 2669,
      "ric": 2670,
      "sar": 2671,
      "tous": 2672,
      "úad": 2673,
      "ani": 2674,
      "ink": 2675,
      "change": 2676,
      "ete": 2677,
      "edon": 2678,
      "quer": 2679,
      "began": 2680,
      "moins": 2681,
      "sure": 2682,
      "varit": 2683,
      "tique": 2684,
      "types": 2685,
      "fact": 2686,
      "nejvyí": 2687,
      "based": 2688,
      "states": 2689,
      "history": 2690,
      "instit": 2691,
      "själ": 2692,
      "grekiska": 2693,
      "främst": 2694,
      "univerz": 2695,
      "adu": 2696,
      "aga": 2697,
      "civ": 2698,
      "cord": 2699,
      "fli": 2700,
      "fick": 2701,
      "fäl": 2702,
      "ogen": 2703,
      "cham": 2704,
      "aro": 2705,
      "itá": 2706,
      "ismu": 2707,
      "espè": 2708,
      "geben": 2709,
      "nement": 2710,
      "bewe": 2711,
      "territ": 2712,
      "imes": 2713,
      "vertre": 2714,
      "provo": 2715,
      "tail": 2716,
      "parla": 2717,
      "los": 2718,
      "losti": 2719,
      "ctes": 2720,
      "hrá": 2721,
      "contra": 2722,
      "lighet": 2723,
      "hela": 2724,
      "phra": 2725,
      "vibr": 2726,
      "ture": 2727,
      "geset": 2728,
      "jednot": 2729,
      "juli": 2730,
      "jorden": 2731,
      "janu": 2732,
      "clear": 2733,
      "tvoí": 2734,
      "university": 2735,
      "områden": 2736,
      "peuvent": 2737,
      "zusammen": 2738,
      "different": 2739,
      "stellen": 2740,
      "fu": 2741,
      "fann": 2742,
      "nkter": 2743,
      "tch": 2744,
      "tam": 2745,
      "viv": 2746,
      "vud": 2747,
      "viel": 2748,
      "chst": 2749,
      "ison": 2750,
      "esku": 2751,
      "robert": 2752,
      "poát": 2753,
      "utom": 2754,
      "tage": 2755,
      "priv": 2756,
      "ird": 2757,
      "frie": 2758,
      "brid": 2759,
      "mitglie": 2760,
      "ategor": 2761,
      "podá": 2762,
      "norra": 2763,
      "posled": 2764,
      "ward": 2765,
      "grad": 2766,
      "temperatur": 2767,
      "cirka": 2768,
      "glauben": 2769,
      "kinesiska": 2770,
      "cin": 2771,
      "cause": 2772,
      "date": 2773,
      "dlou": 2774,
      "dnes": 2775,
      "kas": 2776,
      "lång": 2777,
      "sina": 2778,
      "sätt": 2779,
      "vs": 2780,
      "lehn": 2781,
      "beis": 2782,
      "befolk": 2783,
      "sow": 2784,
      "bern": 2785,
      "berlin": 2786,
      "saint": 2787,
      "vytvo": 2788,
      "monde": 2789,
      "tyska": 2790,
      "výro": 2791,
      "tude": 2792,
      "hnutí": 2793,
      "huvud": 2794,
      "wikimed": 2795,
      "slezsku": 2796,
      "christian": 2797,
      "polov": 2798,
      "ideolog": 2799,
      "systém": 2800,
      "stední": 2801,
      "význam": 2802,
      "träd": 2803,
      "ohne": 2804,
      "james": 2805,
      "wikimedia": 2806,
      "bul": 2807,
      "celle": 2808,
      "fal": 2809,
      "gån": 2810,
      "hled": 2811,
      "ider": 2812,
      "nent": 2813,
      "tier": 2814,
      "zte": 2815,
      "ází": 2816,
      "anna": 2817,
      "inför": 2818,
      "stre": 2819,
      "ath": 2820,
      "ités": 2821,
      "team": 2822,
      "ovy": 2823,
      "hob": 2824,
      "cker": 2825,
      "zeu": 2826,
      "medan": 2827,
      "compar": 2828,
      "frank": 2829,
      "ostro": 2830,
      "licher": 2831,
      "aca": 2832,
      "voll": 2833,
      "work": 2834,
      "besch": 2835,
      "cri": 2836,
      "tidigt": 2837,
      "kolon": 2838,
      "viele": 2839,
      "standen": 2840,
      "simil": 2841,
      "södra": 2842,
      "pépin": 2843,
      "utveckling": 2844,
      "vrchol": 2845,
      "zwei": 2846,
      "sowjet": 2847,
      "fot": 2848,
      "git": 2849,
      "jim": 2850,
      "jmen": 2851,
      "mist": 2852,
      "mans": 2853,
      "oise": 2854,
      "pav": 2855,
      "sport": 2856,
      "vre": 2857,
      "wide": 2858,
      "erste": 2859,
      "erklär": 2860,
      "rale": 2861,
      "teurs": 2862,
      "bem": 2863,
      "meisten": 2864,
      "ligger": 2865,
      "medlem": 2866,
      "come": 2867,
      "ierte": 2868,
      "frankr": 2869,
      "span": 2870,
      "possible": 2871,
      "partie": 2872,
      "introdu": 2873,
      "väder": 2874,
      "folgen": 2875,
      "patr": 2876,
      "ovalo": 2877,
      "rodní": 2878,
      "pouí": 2879,
      "kultury": 2880,
      "payments": 2881,
      "början": 2882,
      "religiö": 2883,
      "science": 2884,
      "avoir": 2885,
      "ursprung": 2886,
      "cus": 2887,
      "djin": 2888,
      "ey": 2889,
      "fs": 2890,
      "få": 2891,
      "ften": 2892,
      "ius": 2893,
      "någ": 2894,
      "vier": 2895,
      "win": 2896,
      "zie": 2897,
      "úsp": 2898,
      "ane": 2899,
      "legen": 2900,
      "real": 2901,
      "atre": 2902,
      "lais": 2903,
      "laire": 2904,
      "lic": 2905,
      "lika": 2906,
      "ový": 2907,
      "denen": 2908,
      "ican": 2909,
      "ically": 2910,
      "hodn": 2911,
      "mest": 2912,
      "schr": 2913,
      "absol": 2914,
      "nos": 2915,
      "phy": 2916,
      "souástí": 2917,
      "vice": 2918,
      "indung": 2919,
      "velmi": 2920,
      "gang": 2921,
      "jours": 2922,
      "jií": 2923,
      "britain": 2924,
      "ovaly": 2925,
      "hatte": 2926,
      "existenz": 2927,
      "eftersom": 2928,
      "struct": 2929,
      "rám": 2930,
      "simple": 2931,
      "makedon": 2932,
      "kinas": 2933,
      "fession": 2934,
      "aristote": 2935,
      "did": 2936,
      "eit": 2937,
      "even": 2938,
      "opak": 2939,
      "piel": 2940,
      "russ": 2941,
      "sett": 2942,
      "yp": 2943,
      "ära": 2944,
      "aní": 2945,
      "delen": 2946,
      "leit": 2947,
      "rech": 2948,
      "ata": 2949,
      "org": 2950,
      "ald": 2951,
      "thre": 2952,
      "dence": 2953,
      "utgör": 2954,
      "beau": 2955,
      "verw": 2956,
      "provin": 2957,
      "program": 2958,
      "jean": 2959,
      "antes": 2960,
      "pers": 2961,
      "conna": 2962,
      "dag": 2963,
      "day": 2964,
      "grän": 2965,
      "née": 2966,
      "martin": 2967,
      "normal": 2968,
      "dyna": 2969,
      "spolu": 2970,
      "wahr": 2971,
      "mort": 2972,
      "består": 2973,
      "subje": 2974,
      "direct": 2975,
      "framför": 2976,
      "population": 2977,
      "správní": 2978,
      "möglich": 2979,
      "royau": 2980,
      "röm": 2981,
      "äufig": 2982,
      "klass": 2983,
      "radio": 2984,
      "både": 2985,
      "tyskland": 2986,
      "haupt": 2987,
      "intelligen": 2988,
      "kvinnor": 2989,
      "särskilt": 2990,
      "wörter": 2991,
      "parlament": 2992,
      "bé": 2993,
      "fä": 2994,
      "gent": 2995,
      "hle": 2996,
      "kau": 2997,
      "kost": 2998,
      "lát": 2999,
      "okol": 3000,
      "pier": 3001,
      "ration": 3002,
      "sum": 3003,
      "ware": 3004,
      "writ": 3005,
      "územ": 3006,
      "ústav": 3007,
      "ená": 3008,
      "enbar": 3009,
      "state": 3010,
      "rome": 3011,
      "eter": 3012,
      "derna": 3013,
      "lidí": 3014,
      "nade": 3015,
      "autre": 3016,
      "teh": 3017,
      "iment": 3018,
      "ives": 3019,
      "ables": 3020,
      "anti": 3021,
      "litté": 3022,
      "same": 3023,
      "romer": 3024,
      "forms": 3025,
      "drich": 3026,
      "létude": 3027,
      "minst": 3028,
      "engel": 3029,
      "jedin": 3030,
      "motion": 3031,
      "lieu": 3032,
      "sinne": 3033,
      "fert": 3034,
      "christentum": 3035,
      "stark": 3036,
      "dings": 3037,
      "rovn": 3038,
      "býval": 3039,
      "spojené": 3040,
      "weitere": 3041,
      "geschichte": 3042,
      "micha": 3043,
      "trinität": 3044,
      "continu": 3045,
      "cognit": 3046,
      "svobod": 3047,
      "miljoner": 3048,
      "aka": 3049,
      "bär": 3050,
      "bhem": 3051,
      "cing": 3052,
      "ef": 3053,
      "ep": 3054,
      "gäl": 3055,
      "jord": 3056,
      "kní": 3057,
      "ply": 3058,
      "uved": 3059,
      "eras": 3060,
      "stån": 3061,
      "stop": 3062,
      "dek": 3063,
      "leib": 3064,
      "lac": 3065,
      "labor": 3066,
      "eten": 3067,
      "ras": 3068,
      "olym": 3069,
      "geogra": 3070,
      "verwen": 3071,
      "schon": 3072,
      "ford": 3073,
      "pev": 3074,
      "padu": 3075,
      "pays": 3076,
      "lettres": 3077,
      "krä": 3078,
      "tige": 3079,
      "podí": 3080,
      "áln": 3081,
      "north": 3082,
      "ibland": 3083,
      "back": 3084,
      "coll": 3085,
      "ielt": 3086,
      "emplo": 3087,
      "carol": 3088,
      "vlád": 3089,
      "testam": 3090,
      "satz": 3091,
      "bedeutung": 3092,
      "endast": 3093,
      "stockholm": 3094,
      "government": 3095,
      "clu": 3096,
      "eth": 3097,
      "gång": 3098,
      "kvt": 3099,
      "lze": 3100,
      "mein": 3101,
      "ring": 3102,
      "rät": 3103,
      "richt": 3104,
      "élé": 3105,
      "övr": 3106,
      "chur": 3107,
      "ieden": 3108,
      "pole": 3109,
      "name": 3110,
      "andid": 3111,
      "pru": 3112,
      "suiv": 3113,
      "monarch": 3114,
      "staaten": 3115,
      "rozí": 3116,
      "zemdl": 3117,
      "agro": 3118,
      "mít": 3119,
      "celé": 3120,
      "peter": 3121,
      "bestimm": 3122,
      "view": 3123,
      "ihren": 3124,
      "stále": 3125,
      "börja": 3126,
      "snmov": 3127,
      "cependant": 3128,
      "richard": 3129,
      "vlastní": 3130,
      "anglick": 3131,
      "those": 3132,
      "society": 3133,
      "völker": 3134,
      "appear": 3135,
      "around": 3136,
      "rámci": 3137,
      "egen": 3138,
      "fut": 3139,
      "fund": 3140,
      "ior": 3141,
      "kos": 3142,
      "låg": 3143,
      "mund": 3144,
      "mör": 3145,
      "mul": 3146,
      "nte": 3147,
      "sdc": 3148,
      "vill": 3149,
      "stie": 3150,
      "stam": 3151,
      "stod": 3152,
      "statt": 3153,
      "atmos": 3154,
      "espe": 3155,
      "esko": 3156,
      "lakt": 3157,
      "etc": 3158,
      "raum": 3159,
      "außer": 3160,
      "cela": 3161,
      "gele": 3162,
      "neg": 3163,
      "quà": 3164,
      "einz": 3165,
      "makt": 3166,
      "objet": 3167,
      "ligne": 3168,
      "note": 3169,
      "ném": 3170,
      "samarbet": 3171,
      "typic": 3172,
      "stage": 3173,
      "former": 3174,
      "faire": 3175,
      "norr": 3176,
      "iell": 3177,
      "pij": 3178,
      "turk": 3179,
      "styr": 3180,
      "vilka": 3181,
      "status": 3182,
      "historia": 3183,
      "ického": 3184,
      "just": 3185,
      "wohn": 3186,
      "discours": 3187,
      "organizace": 3188,
      "country": 3189,
      "vláda": 3190,
      "språket": 3191,
      "ministerst": 3192,
      "något": 3193,
      "några": 3194,
      "athén": 3195,
      "source": 3196,
      "prmysl": 3197,
      "gjorde": 3198,
      "architekt": 3199,
      "tidigare": 3200,
      "någon": 3201,
      "typically": 3202,
      "dý": 3203,
      "gau": 3204,
      "hon": 3205,
      "hro": 3206,
      "hip": 3207,
      "jou": 3208,
      "kil": 3209,
      "kten": 3210,
      "kval": 3211,
      "lun": 3212,
      "nun": 3213,
      "ow": 3214,
      "rzn": 3215,
      "sul": 3216,
      "ting": 3217,
      "would": 3218,
      "xi": 3219,
      "zvan": 3220,
      "inse": 3221,
      "ders": 3222,
      "pochá": 3223,
      "lii": 3224,
      "austr": 3225,
      "auff": 3226,
      "einige": 3227,
      "making": 3228,
      "meist": 3229,
      "method": 3230,
      "bero": 3231,
      "upph": 3232,
      "ström": 3233,
      "syd": 3234,
      "podnik": 3235,
      "elect": 3236,
      "milit": 3237,
      "diesem": 3238,
      "political": 3239,
      "folge": 3240,
      "mín": 3241,
      "jahren": 3242,
      "flor": 3243,
      "million": 3244,
      "pieux": 3245,
      "dolo": 3246,
      "palá": 3247,
      "psychologie": 3248,
      "heiligen": 3249,
      "changes": 3250,
      "bundes": 3251,
      "second": 3252,
      "intelligence": 3253,
      "bü": 3254,
      "cm": 3255,
      "flo": 3256,
      "fung": 3257,
      "gut": 3258,
      "hit": 3259,
      "hud": 3260,
      "häufig": 3261,
      "já": 3262,
      "kod": 3263,
      "krop": 3264,
      "ms": 3265,
      "nob": 3266,
      "rud": 3267,
      "sov": 3268,
      "tion": 3269,
      "ual": 3270,
      "zab": 3271,
      "zlat": 3272,
      "ený": 3273,
      "ených": 3274,
      "lea": 3275,
      "alten": 3276,
      "pova": 3277,
      "life": 3278,
      "kade": 3279,
      "ivot": 3280,
      "pape": 3281,
      "sowohl": 3282,
      "prakt": 3283,
      "suite": 3284,
      "grande": 3285,
      "ktive": 3286,
      "finland": 3287,
      "centr": 3288,
      "central": 3289,
      "ován": 3290,
      "ována": 3291,
      "latein": 3292,
      "slun": 3293,
      "myth": 3294,
      "spoj": 3295,
      "word": 3296,
      "ímské": 3297,
      "ánu": 3298,
      "hlt": 3299,
      "skými": 3300,
      "belg": 3301,
      "riks": 3302,
      "violins": 3303,
      "payment": 3304,
      "ované": 3305,
      "förekommer": 3306,
      "bezie": 3307,
      "toutes": 3308,
      "sources": 3309,
      "världen": 3310,
      "griech": 3311,
      "friedrich": 3312,
      "hobby": 3313,
      "aqu": 3314,
      "bak": 3315,
      "hes": 3316,
      "sav": 3317,
      "sid": 3318,
      "vnit": 3319,
      "wat": 3320,
      "ående": 3321,
      "ert": 3322,
      "dete": 3323,
      "roll": 3324,
      "omfatt": 3325,
      "theologie": 3326,
      "edit": 3327,
      "ingar": 3328,
      "geh": 3329,
      "icul": 3330,
      "begin": 3331,
      "ters": 3332,
      "total": 3333,
      "make": 3334,
      "obce": 3335,
      "byg": 3336,
      "loc": 3337,
      "permet": 3338,
      "cii": 3339,
      "respon": 3340,
      "doc": 3341,
      "svou": 3342,
      "svého": 3343,
      "web": 3344,
      "franz": 3345,
      "vient": 3346,
      "samhäl": 3347,
      "rég": 3348,
      "ifter": 3349,
      "slí": 3350,
      "beton": 3351,
      "velk": 3352,
      "lempereur": 3353,
      "blir": 3354,
      "britské": 3355,
      "státy": 3356,
      "seinen": 3357,
      "personer": 3358,
      "sprach": 3359,
      "relations": 3360,
      "fasst": 3361,
      "ancient": 3362,
      "alternat": 3363,
      "prendre": 3364,
      "nkterých": 3365,
      "frankrike": 3366,
      "dlen": 3367,
      "får": 3368,
      "nim": 3369,
      "own": 3370,
      "ples": 3371,
      "uz": 3372,
      "wig": 3373,
      "ître": 3374,
      "enne": 3375,
      "erken": 3376,
      "dest": 3377,
      "arbeit": 3378,
      "rove": 3379,
      "etimes": 3380,
      "race": 3381,
      "skar": 3382,
      "neut": 3383,
      "uto": 3384,
      "amts": 3385,
      "impér": 3386,
      "präg": 3387,
      "fréqu": 3388,
      "sometimes": 3389,
      "pade": 3390,
      "dosá": 3391,
      "návr": 3392,
      "sud": 3393,
      "konz": 3394,
      "weil": 3395,
      "plu": 3396,
      "lud": 3397,
      "samostat": 3398,
      "type": 3399,
      "fac": 3400,
      "trest": 3401,
      "velká": 3402,
      "vision": 3403,
      "siehe": 3404,
      "pass": 3405,
      "vtina": 3406,
      "bilda": 3407,
      "christlichen": 3408,
      "halt": 3409,
      "petit": 3410,
      "ized": 3411,
      "zvu": 3412,
      "relation": 3413,
      "direkt": 3414,
      "okres": 3415,
      "semb": 3416,
      "führte": 3417,
      "järn": 3418,
      "occ": 3419,
      "mnoho": 3420,
      "royal": 3421,
      "hält": 3422,
      "developed": 3423,
      "signif": 3424,
      "bereich": 3425,
      "wissen": 3426,
      "betracht": 3427,
      "vzdlání": 3428,
      "fanns": 3429,
      "either": 3430,
      "akadem": 3431,
      "dir": 3432,
      "ght": 3433,
      "hä": 3434,
      "run": 3435,
      "sha": 3436,
      "soft": 3437,
      "vd": 3438,
      "ête": 3439,
      "öd": 3440,
      "dec": 3441,
      "depuis": 3442,
      "requ": 3443,
      "seits": 3444,
      "deras": 3445,
      "ella": 3446,
      "skuten": 3447,
      "table": 3448,
      "einzel": 3449,
      "pron": 3450,
      "ctive": 3451,
      "hrs": 3452,
      "svat": 3453,
      "comp": 3454,
      "plé": 3455,
      "luft": 3456,
      "poru": 3457,
      "tyto": 3458,
      "maria": 3459,
      "trad": 3460,
      "much": 3461,
      "spol": 3462,
      "valu": 3463,
      "karel": 3464,
      "language": 3465,
      "rena": 3466,
      "vtí": 3467,
      "vidare": 3468,
      "slezské": 3469,
      "anderer": 3470,
      "techni": 3471,
      "weiten": 3472,
      "subst": 3473,
      "neuen": 3474,
      "general": 3475,
      "ictví": 3476,
      "glob": 3477,
      "higher": 3478,
      "ecka": 3479,
      "affen": 3480,
      "ständig": 3481,
      "hospodá": 3482,
      "tisíc": 3483,
      "body": 3484,
      "europäischen": 3485,
      "ungefär": 3486,
      "métapho": 3487,
      "espèces": 3488,
      "auffass": 3489,
      "bid": 3490,
      "gilt": 3491,
      "käl": 3492,
      "nn": 3493,
      "nel": 3494,
      "nive": 3495,
      "sr": 3496,
      "wan": 3497,
      "èle": 3498,
      "revolution": 3499,
      "ome": 3500,
      "search": 3501,
      "poté": 3502,
      "teor": 3503,
      "níku": 3504,
      "icích": 3505,
      "ofici": 3506,
      "ame": 3507,
      "amo": 3508,
      "majet": 3509,
      "pages": 3510,
      "now": 3511,
      "montr": 3512,
      "romant": 3513,
      "dann": 3514,
      "spé": 3515,
      "kommun": 3516,
      "médi": 3517,
      "links": 3518,
      "länd": 3519,
      "capac": 3520,
      "debates": 3521,
      "rych": 3522,
      "díl": 3523,
      "stalin": 3524,
      "buch": 3525,
      "identif": 3526,
      "tato": 3527,
      "zvlát": 3528,
      "riket": 3529,
      "standard": 3530,
      "struktur": 3531,
      "natural": 3532,
      "jesu": 3533,
      "commons": 3534,
      "distin": 3535,
      "disting": 3536,
      "cherche": 3537,
      "moderní": 3538,
      "andreje": 3539,
      "möj": 3540,
      "allerdings": 3541,
      "further": 3542,
      "vechny": 3543,
      "référ": 3544,
      "johann": 3545,
      "krieg": 3546,
      "verschieden": 3547,
      "royaume": 3548,
      "pierre": 3549,
      "aires": 3550,
      "bres": 3551,
      "clav": 3552,
      "dje": 3553,
      "hein": 3554,
      "kn": 3555,
      "kär": 3556,
      "kandid": 3557,
      "lär": 3558,
      "nní": 3559,
      "pneu": 3560,
      "sb": 3561,
      "soch": 3562,
      "sung": 3563,
      "tala": 3564,
      "tande": 3565,
      "áz": 3566,
      "erv": 3567,
      "invol": 3568,
      "leí": 3569,
      "leen": 3570,
      "rest": 3571,
      "though": 3572,
      "rait": 3573,
      "naz": 3574,
      "user": 3575,
      "schul": 3576,
      "fru": 3577,
      "loth": 3578,
      "tru": 3579,
      "lande": 3580,
      "super": 3581,
      "konfli": 3582,
      "comple": 3583,
      "iale": 3584,
      "face": 3585,
      "rozvoj": 3586,
      "engl": 3587,
      "wikis": 3588,
      "cast": 3589,
      "großen": 3590,
      "menschlichen": 3591,
      "deutschlands": 3592,
      "stalo": 3593,
      "vention": 3594,
      "därför": 3595,
      "katov": 3596,
      "göttern": 3597,
      "válce": 3598,
      "house": 3599,
      "farande": 3600,
      "development": 3601,
      "dleit": 3602,
      "demokrat": 3603,
      "entwicklung": 3604,
      "important": 3605,
      "years": 3606,
      "york": 3607,
      "bridge": 3608,
      "three": 3609,
      "laktin": 3610,
      "capacité": 3611,
      "pneuma": 3612,
      "bh": 3613,
      "däre": 3614,
      "east": 3615,
      "gd": 3616,
      "hund": 3617,
      "hang": 3618,
      "klo": 3619,
      "mla": 3620,
      "mou": 3621,
      "taut": 3622,
      "uch": 3623,
      "vdy": 3624,
      "ints": 3625,
      "dev": 3626,
      "level": 3627,
      "arg": 3628,
      "lavi": 3629,
      "poá": 3630,
      "auto": 3631,
      "ovu": 3632,
      "gest": 3633,
      "nex": 3634,
      "iste": 3635,
      "procé": 3636,
      "prolaktin": 3637,
      "einheit": 3638,
      "mean": 3639,
      "cken": 3640,
      "consi": 3641,
      "tri": 3642,
      "zev": 3643,
      "mande": 3644,
      "název": 3645,
      "grup": 3646,
      "grès": 3647,
      "grün": 3648,
      "bran": 3649,
      "ktor": 3650,
      "francs": 3651,
      "ateur": 3652,
      "element": 3653,
      "dande": 3654,
      "danska": 3655,
      "lée": 3656,
      "minor": 3657,
      "jeden": 3658,
      "partir": 3659,
      "wirk": 3660,
      "dieses": 3661,
      "politiska": 3662,
      "uppg": 3663,
      "melon": 3664,
      "autom": 3665,
      "tida": 3666,
      "pulsen": 3667,
      "frem": 3668,
      "moral": 3669,
      "wikipedia": 3670,
      "millions": 3671,
      "helm": 3672,
      "mass": 3673,
      "tento": 3674,
      "biolog": 3675,
      "hranice": 3676,
      "dopravy": 3677,
      "couron": 3678,
      "falls": 3679,
      "tohoto": 3680,
      "george": 3681,
      "dvou": 3682,
      "kejsare": 3683,
      "dráhy": 3684,
      "buddh": 3685,
      "výrazn": 3686,
      "renesanní": 3687,
      "tchto": 3688,
      "verwendet": 3689,
      "flu": 3690,
      "gn": 3691,
      "kvar": 3692,
      "kni": 3693,
      "mare": 3694,
      "rör": 3695,
      "runt": 3696,
      "vik": 3697,
      "zat": 3698,
      "äten": 3699,
      "ízení": 3700,
      "initi": 3701,
      "unie": 3702,
      "ros": 3703,
      "third": 3704,
      "poí": 3705,
      "naire": 3706,
      "ovní": 3707,
      "terme": 3708,
      "tog": 3709,
      "odka": 3710,
      "lost": 3711,
      "perfor": 3712,
      "pagne": 3713,
      "tend": 3714,
      "fören": 3715,
      "hru": 3716,
      "moy": 3717,
      "konci": 3718,
      "compan": 3719,
      "gré": 3720,
      "zuje": 3721,
      "ickým": 3722,
      "vítz": 3723,
      "påver": 3724,
      "dels": 3725,
      "delse": 3726,
      "jahre": 3727,
      "spoleen": 3728,
      "regel": 3729,
      "znan": 3730,
      "feat": 3731,
      "evro": 3732,
      "metro": 3733,
      "grow": 3734,
      "personen": 3735,
      "bestand": 3736,
      "jiní": 3737,
      "nouvel": 3738,
      "playing": 3739,
      "správa": 3740,
      "vzta": 3741,
      "sitt": 3742,
      "medeltiden": 3743,
      "various": 3744,
      "toute": 3745,
      "toujours": 3746,
      "rapport": 3747,
      "welche": 3748,
      "associated": 3749,
      "question": 3750,
      "diction": 3751,
      "mitglieder": 3752,
      "beroende": 3753,
      "software": 3754,
      "hrsg": 3755,
      "cra": 3756,
      "cés": 3757,
      "dm": 3758,
      "ee": 3759,
      "fab": 3760,
      "helt": 3761,
      "jüd": 3762,
      "kmen": 3763,
      "mett": 3764,
      "ois": 3765,
      "pend": 3766,
      "rar": 3767,
      "upe": 3768,
      "ák": 3769,
      "ání": 3770,
      "äß": 3771,
      "ös": 3772,
      "eren": 3773,
      "another": 3774,
      "stet": 3775,
      "death": 3776,
      "ator": 3777,
      "attrib": 3778,
      "eti": 3779,
      "potu": 3780,
      "naopak": 3781,
      "emot": 3782,
      "hobb": 3783,
      "oban": 3784,
      "iku": 3785,
      "iran": 3786,
      "antal": 3787,
      "zejm": 3788,
      "sage": 3789,
      "bok": 3790,
      "bohat": 3791,
      "varier": 3792,
      "health": 3793,
      "ostrov": 3794,
      "what": 3795,
      "ption": 3796,
      "wales": 3797,
      "graf": 3798,
      "actions": 3799,
      "celu": 3800,
      "psyche": 3801,
      "druck": 3802,
      "could": 3803,
      "führt": 3804,
      "wilhelm": 3805,
      "origine": 3806,
      "davon": 3807,
      "pyren": 3808,
      "vetn": 3809,
      "jazyk": 3810,
      "joseph": 3811,
      "senátu": 3812,
      "fortfarande": 3813,
      "première": 3814,
      "although": 3815,
      "bereits": 3816,
      "était": 3817,
      "kyrkan": 3818,
      "paul": 3819,
      "círke": 3820,
      "verbreitet": 3821,
      "beispiel": 3822,
      "similar": 3823,
      "började": 3824,
      "insectes": 3825,
      "techniques": 3826,
      "consider": 3827,
      "bt": 3828,
      "cart": 3829,
      "dlení": 3830,
      "epo": 3831,
      "fak": 3832,
      "gav": 3833,
      "ira": 3834,
      "iden": 3835,
      "kta": 3836,
      "late": 3837,
      "oce": 3838,
      "rus": 3839,
      "sob": 3840,
      "vaux": 3841,
      "ök": 3842,
      "erar": 3843,
      "inform": 3844,
      "online": 3845,
      "arr": 3846,
      "aren": 3847,
      "orche": 3848,
      "ordet": 3849,
      "role": 3850,
      "seu": 3851,
      "derar": 3852,
      "power": 3853,
      "popu": 3854,
      "naden": 3855,
      "quen": 3856,
      "igh": 3857,
      "imal": 3858,
      "immer": 3859,
      "schwe": 3860,
      "bygg": 3861,
      "forts": 3862,
      "genet": 3863,
      "tension": 3864,
      "conom": 3865,
      "suff": 3866,
      "konze": 3867,
      "kontin": 3868,
      "grupp": 3869,
      "heut": 3870,
      "iers": 3871,
      "sera": 3872,
      "voje": 3873,
      "jac": 3874,
      "slou": 3875,
      "érie": 3876,
      "kole": 3877,
      "václav": 3878,
      "doma": 3879,
      "sinn": 3880,
      "christus": 3881,
      "borg": 3882,
      "starí": 3883,
      "banks": 3884,
      "káz": 3885,
      "druh": 3886,
      "gemäß": 3887,
      "dlí": 3888,
      "generally": 3889,
      "several": 3890,
      "ception": 3891,
      "symbo": 3892,
      "östern": 3893,
      "doprav": 3894,
      "hlavním": 3895,
      "cepts": 3896,
      "american": 3897,
      "particulier": 3898,
      "ebenso": 3899,
      "study": 3900,
      "support": 3901,
      "nkolik": 3902,
      "oiseaux": 3903,
      "auffassung": 3904,
      "spéci": 3905,
      "hobbies": 3906,
      "bir": 3907,
      "disk": 3908,
      "font": 3909,
      "gän": 3910,
      "gment": 3911,
      "ls": 3912,
      "opol": 3913,
      "plo": 3914,
      "sau": 3915,
      "tas": 3916,
      "uen": 3917,
      "vad": 3918,
      "vala": 3919,
      "zp": 3920,
      "zz": 3921,
      "zun": 3922,
      "ír": 3923,
      "read": 3924,
      "roli": 3925,
      "omkring": 3926,
      "poque": 3927,
      "ceux": 3928,
      "denk": 3929,
      "beim": 3930,
      "tern": 3931,
      "oblast": 3932,
      "frant": 3933,
      "anton": 3934,
      "veau": 3935,
      "viz": 3936,
      "samtidigt": 3937,
      "pís": 3938,
      "traité": 3939,
      "tradin": 3940,
      "ledna": 3941,
      "kommt": 3942,
      "nato": 3943,
      "lichkeit": 3944,
      "accent": 3945,
      "preu": 3946,
      "vodu": 3947,
      "intelle": 3948,
      "activ": 3949,
      "zdroj": 3950,
      "novem": 3951,
      "eským": 3952,
      "vanligt": 3953,
      "kallade": 3954,
      "eckých": 3955,
      "právní": 3956,
      "european": 3957,
      "smr": 3958,
      "small": 3959,
      "coup": 3960,
      "struction": 3961,
      "became": 3962,
      "fond": 3963,
      "führung": 3964,
      "occur": 3965,
      "piem": 3966,
      "dopravní": 3967,
      "homme": 3968,
      "bezeichnung": 3969,
      "dialekter": 3970,
      "instruments": 3971,
      "largest": 3972,
      "räk": 3973,
      "invån": 3974,
      "üsse": 3975,
      "règne": 3976,
      "august": 3977,
      "himmel": 3978,
      "flesta": 3979,
      "théorie": 3980,
      "employ": 3981,
      "odkazy": 3982,
      "schweiz": 3983,
      "air": 3984,
      "ased": 3985,
      "care": 3986,
      "dot": 3987,
      "dál": 3988,
      "hil": 3989,
      "lds": 3990,
      "mlu": 3991,
      "nj": 3992,
      "sju": 3993,
      "tý": 3994,
      "tol": 3995,
      "zas": 3996,
      "çon": 3997,
      "écrit": 3998,
      "ît": 3999,
      "ennent": 4000,
      "deten": 4001,
      "ars": 4002,
      "arten": 4003,
      "ref": 4004,
      "rein": 4005,
      "ross": 4006,
      "illes": 4007,
      "separ": 4008,
      "seien": 4009,
      "rakou": 4010,
      "els": 4011,
      "theit": 4012,
      "nahm": 4013,
      "quils": 4014,
      "avant": 4015,
      "bevölker": 4016,
      "among": 4017,
      "toto": 4018,
      "toten": 4019,
      "mechan": 4020,
      "schö": 4021,
      "parti": 4022,
      "genes": 4023,
      "lower": 4024,
      "pesto": 4025,
      "connu": 4026,
      "congrès": 4027,
      "extens": 4028,
      "commen": 4029,
      "kron": 4030,
      "závis": 4031,
      "pípad": 4032,
      "eux": 4033,
      "ledde": 4034,
      "latina": 4035,
      "within": 4036,
      "worlds": 4037,
      "appro": 4038,
      "isches": 4039,
      "vorstellung": 4040,
      "soll": 4041,
      "annan": 4042,
      "christi": 4043,
      "fred": 4044,
      "díky": 4045,
      "religionen": 4046,
      "tomu": 4047,
      "klus": 4048,
      "played": 4049,
      "materie": 4050,
      "británii": 4051,
      "världens": 4052,
      "constitu": 4053,
      "success": 4054,
      "index": 4055,
      "member": 4056,
      "monarki": 4057,
      "postupn": 4058,
      "classical": 4059,
      "francophones": 4060,
      "against": 4061,
      "champ": 4062,
      "vertreten": 4063,
      "phrase": 4064,
      "michael": 4065,
      "church": 4066,
      "bevölkerung": 4067,
      "af": 4068,
      "bles": 4069,
      "gol": 4070,
      "hme": 4071,
      "site": 4072,
      "ws": 4073,
      "wicht": 4074,
      "zby": 4075,
      "ßt": 4076,
      "édition": 4077,
      "chal": 4078,
      "stär": 4079,
      "dex": 4080,
      "atte": 4081,
      "itiv": 4082,
      "order": 4083,
      "esse": 4084,
      "rot": 4085,
      "lagen": 4086,
      "skon": 4087,
      "teba": 4088,
      "ovliv": 4089,
      "verse": 4090,
      "verein": 4091,
      "usst": 4092,
      "ott": 4093,
      "parmi": 4094,
      "cially": 4095,
      "divers": 4096,
      "försvar": 4097,
      "cted": 4098,
      "light": 4099,
      "hei": 4100,
      "krát": 4101,
      "sia": 4102,
      "sence": 4103,
      "vide": 4104,
      "porte": 4105,
      "liter": 4106,
      "indic": 4107,
      "dry": 4108,
      "myké": 4109,
      "zemích": 4110,
      "chron": 4111,
      "nachází": 4112,
      "liegt": 4113,
      "místo": 4114,
      "untersch": 4115,
      "seinem": 4116,
      "wassers": 4117,
      "mellanöstern": 4118,
      "hindu": 4119,
      "ssr": 4120,
      "lebens": 4121,
      "zogen": 4122,
      "havet": 4123,
      "gebiet": 4124,
      "dort": 4125,
      "given": 4126,
      "bitv": 4127,
      "grands": 4128,
      "viktiga": 4129,
      "uropa": 4130,
      "housle": 4131,
      "människor": 4132,
      "multi": 4133,
      "kilom": 4134,
      "métaphore": 4135,
      "ay": 4136,
      "astr": 4137,
      "bav": 4138,
      "bund": 4139,
      "fla": 4140,
      "jäl": 4141,
      "kpd": 4142,
      "mam": 4143,
      "mik": 4144,
      "mals": 4145,
      "mlad": 4146,
      "nande": 4147,
      "sus": 4148,
      "tie": 4149,
      "tla": 4150,
      "ující": 4151,
      "vem": 4152,
      "vät": 4153,
      "women": 4154,
      "ähn": 4155,
      "ächst": 4156,
      "écr": 4157,
      "ances": 4158,
      "inou": 4159,
      "lech": 4160,
      "redan": 4161,
      "research": 4162,
      "isme": 4163,
      "islav": 4164,
      "ieux": 4165,
      "lava": 4166,
      "lidé": 4167,
      "listo": 4168,
      "theor": 4169,
      "namn": 4170,
      "auc": 4171,
      "ními": 4172,
      "nehmen": 4173,
      "quon": 4174,
      "ime": 4175,
      "vere": 4176,
      "tax": 4177,
      "ived": 4178,
      "obvy": 4179,
      "umle": 4180,
      "dokonce": 4181,
      "concepts": 4182,
      "dazu": 4183,
      "mení": 4184,
      "praské": 4185,
      "beru": 4186,
      "gran": 4187,
      "bron": 4188,
      "zaala": 4189,
      "syr": 4190,
      "server": 4191,
      "cím": 4192,
      "nejznám": 4193,
      "londý": 4194,
      "dramat": 4195,
      "hypo": 4196,
      "wood": 4197,
      "groupe": 4198,
      "livre": 4199,
      "bestäm": 4200,
      "zurück": 4201,
      "organiz": 4202,
      "vielen": 4203,
      "jiné": 4204,
      "milliar": 4205,
      "republik": 4206,
      "substan": 4207,
      "stanov": 4208,
      "considé": 4209,
      "tín": 4210,
      "broad": 4211,
      "divis": 4212,
      "divad": 4213,
      "western": 4214,
      "traditional": 4215,
      "brukar": 4216,
      "philosophen": 4217,
      "innehål": 4218,
      "cultures": 4219,
      "nmecké": 4220,
      "scient": 4221,
      "podobn": 4222,
      "gemensamma": 4223,
      "postavení": 4224,
      "anatomi": 4225,
      "göra": 4226,
      "kesan": 4227,
      "meziná": 4228,
      "poslední": 4229,
      "aristoteles": 4230,
      "gäller": 4231,
      "renaissance": 4232,
      "zunächst": 4233,
      "hlo": 4234,
      "lè": 4235,
      "ming": 4236,
      "nkdy": 4237,
      "oph": 4238,
      "pib": 4239,
      "sas": 4240,
      "spl": 4241,
      "tj": 4242,
      "vic": 4243,
      "wol": 4244,
      "yl": 4245,
      "zune": 4246,
      "étant": 4247,
      "ency": 4248,
      "inre": 4249,
      "stom": 4250,
      "onas": 4251,
      "lead": 4252,
      "rolle": 4253,
      "sezna": 4254,
      "polen": 4255,
      "asion": 4256,
      "theol": 4257,
      "skem": 4258,
      "andr": 4259,
      "anden": 4260,
      "gestellt": 4261,
      "níz": 4262,
      "neue": 4263,
      "avait": 4264,
      "behö": 4265,
      "before": 4266,
      "imper": 4267,
      "version": 4268,
      "usion": 4269,
      "prochen": 4270,
      "prosted": 4271,
      "schließ": 4272,
      "parts": 4273,
      "local": 4274,
      "cks": 4275,
      "duch": 4276,
      "contain": 4277,
      "prac": 4278,
      "ligare": 4279,
      "svých": 4280,
      "combin": 4281,
      "varie": 4282,
      "addition": 4283,
      "víc": 4284,
      "souvis": 4285,
      "miro": 4286,
      "císa": 4287,
      "álních": 4288,
      "zárove": 4289,
      "ired": 4290,
      "centrum": 4291,
      "gesprochen": 4292,
      "ováno": 4293,
      "later": 4294,
      "jedním": 4295,
      "motsvar": 4296,
      "hui": 4297,
      "draí": 4298,
      "vilken": 4299,
      "statist": 4300,
      "ländern": 4301,
      "christliche": 4302,
      "starov": 4303,
      "internet": 4304,
      "rike": 4305,
      "talas": 4306,
      "kulturen": 4307,
      "good": 4308,
      "certaines": 4309,
      "ekonomiska": 4310,
      "itaine": 4311,
      "kannt": 4312,
      "festkörper": 4313,
      "romantikens": 4314,
      "nejvtím": 4315,
      "nombreuses": 4316,
      "ebenfalls": 4317,
      "východní": 4318,
      "situation": 4319,
      "tänkandet": 4320,
      "treatment": 4321,
      "institut": 4322,
      "geograf": 4323,
      "especially": 4324,
      "verschiedene": 4325,
      "konflikt": 4326,
      "procédé": 4327,
      "aj": 4328,
      "blie": 4329,
      "cz": 4330,
      "evi": 4331,
      "einge": 4332,
      "fel": 4333,
      "jde": 4334,
      "kog": 4335,
      "läm": 4336,
      "phe": 4337,
      "pení": 4338,
      "pens": 4339,
      "rang": 4340,
      "spa": 4341,
      "spí": 4342,
      "süd": 4343,
      "vind": 4344,
      "yn": 4345,
      "áe": 4346,
      "èmes": 4347,
      "ét": 4348,
      "úda": 4349,
      "üt": 4350,
      "analy": 4351,
      "iner": 4352,
      "chim": 4353,
      "left": 4354,
      "arn": 4355,
      "arily": 4356,
      "ismen": 4357,
      "iek": 4358,
      "lab": 4359,
      "etym": 4360,
      "seen": 4361,
      "seul": 4362,
      "bek": 4363,
      "bew": 4364,
      "begre": 4365,
      "besteht": 4366,
      "ighet": 4367,
      "propos": 4368,
      "pri": 4369,
      "ively": 4370,
      "obil": 4371,
      "obsa": 4372,
      "perspe": 4373,
      "code": 4374,
      "strany": 4375,
      "boo": 4376,
      "boha": 4377,
      "varje": 4378,
      "kud": 4379,
      "south": 4380,
      "finden": 4381,
      "findet": 4382,
      "allmän": 4383,
      "façon": 4384,
      "ostí": 4385,
      "tés": 4386,
      "ologi": 4387,
      "must": 4388,
      "muze": 4389,
      "viss": 4390,
      "apy": 4391,
      "beschr": 4392,
      "spricht": 4393,
      "drag": 4394,
      "högre": 4395,
      "mír": 4396,
      "acting": 4397,
      "horní": 4398,
      "teils": 4399,
      "teilweise": 4400,
      "antiken": 4401,
      "mstské": 4402,
      "råd": 4403,
      "kamen": 4404,
      "related": 4405,
      "blod": 4406,
      "verbindung": 4407,
      "prinzi": 4408,
      "mnoha": 4409,
      "full": 4410,
      "besonders": 4411,
      "obyvatelst": 4412,
      "ograph": 4413,
      "významným": 4414,
      "högsta": 4415,
      "student": 4416,
      "literatura": 4417,
      "entwickel": 4418,
      "elezniní": 4419,
      "západní": 4420,
      "einfluss": 4421,
      "skillnad": 4422,
      "tropes": 4423,
      "slutet": 4424,
      "pedagogik": 4425,
      "lombar": 4426,
      "education": 4427,
      "januari": 4428,
      "befolkningen": 4429,
      "written": 4430,
      "testament": 4431,
      "austral": 4432,
      "kpdsu": 4433,
      "listopadu": 4434,
      "zunehmen": 4435,
      "ais": 4436,
      "ado": 4437,
      "ddr": 4438,
      "every": 4439,
      "econom": 4440,
      "gte": 4441,
      "ging": 4442,
      "kel": 4443,
      "läg": 4444,
      "nil": 4445,
      "pid": 4446,
      "she": 4447,
      "tät": 4448,
      "éra": 4449,
      "íku": 4450,
      "aner": 4451,
      "années": 4452,
      "armá": 4453,
      "lion": 4454,
      "lire": 4455,
      "ural": 4456,
      "ases": 4457,
      "entlichen": 4458,
      "namen": 4459,
      "gehen": 4460,
      "need": 4461,
      "avak": 4462,
      "desig": 4463,
      "ista": 4464,
      "igkeit": 4465,
      "usage": 4466,
      "prog": 4467,
      "take": 4468,
      "frå": 4469,
      "force": 4470,
      "sozi": 4471,
      "ändr": 4472,
      "nám": 4473,
      "sade": 4474,
      "sagit": 4475,
      "compos": 4476,
      "boj": 4477,
      "heim": 4478,
      "six": 4479,
      "voy": 4480,
      "stejn": 4481,
      "aufgrund": 4482,
      "kanon": 4483,
      "tredje": 4484,
      "trait": 4485,
      "léon": 4486,
      "ovány": 4487,
      "nejvíce": 4488,
      "myn": 4489,
      "acou": 4490,
      "partici": 4491,
      "feod": 4492,
      "höj": 4493,
      "stats": 4494,
      "solche": 4495,
      "artik": 4496,
      "eskou": 4497,
      "producer": 4498,
      "production": 4499,
      "animale": 4500,
      "jících": 4501,
      "commonly": 4502,
      "moderne": 4503,
      "titre": 4504,
      "zákona": 4505,
      "vznikla": 4506,
      "nombreux": 4507,
      "landets": 4508,
      "heilige": 4509,
      "svenskan": 4510,
      "ntnis": 4511,
      "étudi": 4512,
      "städ": 4513,
      "association": 4514,
      "betydelse": 4515,
      "namnet": 4516,
      "respektive": 4517,
      "punkt": 4518,
      "círk": 4519,
      "jusquà": 4520,
      "klimat": 4521,
      "vratislavi": 4522,
      "ostrav": 4523,
      "große": 4524,
      "itálii": 4525,
      "clearing": 4526,
      "romerska": 4527,
      "stånd": 4528,
      "caroling": 4529,
      "ministerstvo": 4530,
      "zatím": 4531,
      "milliarden": 4532,
      "afin": 4533,
      "dd": 4534,
      "dna": 4535,
      "dlu": 4536,
      "fat": 4537,
      "fern": 4538,
      "hlu": 4539,
      "hielt": 4540,
      "juni": 4541,
      "kro": 4542,
      "kategor": 4543,
      "lant": 4544,
      "nus": 4545,
      "není": 4546,
      "rück": 4547,
      "swe": 4548,
      "scre": 4549,
      "zwar": 4550,
      "étique": 4551,
      "ino": 4552,
      "står": 4553,
      "start": 4554,
      "ones": 4555,
      "arts": 4556,
      "atr": 4557,
      "alism": 4558,
      "entlich": 4559,
      "nava": 4560,
      "quant": 4561,
      "istan": 4562,
      "vert": 4563,
      "prov": 4564,
      "prosa": 4565,
      "tade": 4566,
      "tains": 4567,
      "iven": 4568,
      "observ": 4569,
      "forsch": 4570,
      "locu": 4571,
      "abhän": 4572,
      "dub": 4573,
      "dia": 4574,
      "nástup": 4575,
      "nádraí": 4576,
      "vyhlá": 4577,
      "lux": 4578,
      "skému": 4579,
      "francis": 4580,
      "portail": 4581,
      "haft": 4582,
      "deutscher": 4583,
      "dance": 4584,
      "milk": 4585,
      "lednu": 4586,
      "rozhodn": 4587,
      "accept": 4588,
      "ellt": 4589,
      "regist": 4590,
      "breast": 4591,
      "liebe": 4592,
      "höch": 4593,
      "president": 4594,
      "icial": 4595,
      "others": 4596,
      "issent": 4597,
      "kathol": 4598,
      "liksom": 4599,
      "payee": 4600,
      "begrün": 4601,
      "cases": 4602,
      "rather": 4603,
      "válka": 4604,
      "data": 4605,
      "relative": 4606,
      "severní": 4607,
      "parteien": 4608,
      "sépar": 4609,
      "innebär": 4610,
      "sekret": 4611,
      "special": 4612,
      "radiation": 4613,
      "viron": 4614,
      "nästan": 4615,
      "herrsch": 4616,
      "skupiny": 4617,
      "österreich": 4618,
      "gesamt": 4619,
      "specific": 4620,
      "památ": 4621,
      "djur": 4622,
      "regeringen": 4623,
      "article": 4624,
      "bernard": 4625,
      "academ": 4626,
      "enbart": 4627,
      "lothaire": 4628,
      "invånare": 4629,
      "blan": 4630,
      "bür": 4631,
      "cad": 4632,
      "caus": 4633,
      "dise": 4634,
      "fant": 4635,
      "ifrån": 4636,
      "jas": 4637,
      "kungen": 4638,
      "ller": 4639,
      "mala": 4640,
      "mål": 4641,
      "opo": 4642,
      "pem": 4643,
      "säl": 4644,
      "tuto": 4645,
      "vou": 4646,
      "zpsob": 4647,
      "zweiten": 4648,
      "ám": 4649,
      "íi": 4650,
      "enou": 4651,
      "erde": 4652,
      "anf": 4653,
      "inve": 4654,
      "chte": 4655,
      "stil": 4656,
      "stol": 4657,
      "stein": 4658,
      "stoff": 4659,
      "revolu": 4660,
      "along": 4661,
      "unes": 4662,
      "unser": 4663,
      "eska": 4664,
      "sep": 4665,
      "potent": 4666,
      "sklad": 4667,
      "ouvra": 4668,
      "ovlá": 4669,
      "gestal": 4670,
      "qué": 4671,
      "icí": 4672,
      "igheter": 4673,
      "amt": 4674,
      "takt": 4675,
      "kad": 4676,
      "obra": 4677,
      "abstra": 4678,
      "pair": 4679,
      "försö": 4680,
      "änder": 4681,
      "dota": 4682,
      "manche": 4683,
      "serait": 4684,
      "voleb": 4685,
      "guer": 4686,
      "opt": 4687,
      "sammans": 4688,
      "décou": 4689,
      "mars": 4690,
      "výjim": 4691,
      "témat": 4692,
      "trade": 4693,
      "norge": 4694,
      "lán": 4695,
      "ového": 4696,
      "ván": 4697,
      "jedna": 4698,
      "ielle": 4699,
      "feder": 4700,
      "folket": 4701,
      "empire": 4702,
      "henry": 4703,
      "stort": 4704,
      "speech": 4705,
      "menschliche": 4706,
      "celles": 4707,
      "frei": 4708,
      "produced": 4709,
      "butter": 4710,
      "aktion": 4711,
      "romanes": 4712,
      "pomo": 4713,
      "stände": 4714,
      "family": 4715,
      "området": 4716,
      "läs": 4717,
      "literatur": 4718,
      "pvodn": 4719,
      "chaque": 4720,
      "zahlreich": 4721,
      "säga": 4722,
      "définition": 4723,
      "urope": 4724,
      "ivota": 4725,
      "childr": 4726,
      "größte": 4727,
      "cording": 4728,
      "atmosfär": 4729,
      "omfattande": 4730,
      "niveau": 4731,
      "londýn": 4732,
      "theologen": 4733,
      "cô": 4734,
      "fé": 4735,
      "fan": 4736,
      "fit": 4737,
      "kala": 4738,
      "lord": 4739,
      "our": 4740,
      "piv": 4741,
      "père": 4742,
      "sant": 4743,
      "vlad": 4744,
      "wär": 4745,
      "ôt": 4746,
      "ôle": 4747,
      "enth": 4748,
      "erven": 4749,
      "andet": 4750,
      "analog": 4751,
      "iních": 4752,
      "stique": 4753,
      "rev": 4754,
      "rost": 4755,
      "skol": 4756,
      "neder": 4757,
      "become": 4758,
      "diet": 4759,
      "ems": 4760,
      "prve": 4761,
      "odmít": 4762,
      "ivå": 4763,
      "oba": 4764,
      "idag": 4765,
      "gend": 4766,
      "loi": 4767,
      "padn": 4768,
      "doit": 4769,
      "akter": 4770,
      "tren": 4771,
      "zeus": 4772,
      "moci": 4773,
      "pravi": 4774,
      "náz": 4775,
      "exper": 4776,
      "konung": 4777,
      "konfession": 4778,
      "bry": 4779,
      "brun": 4780,
      "varian": 4781,
      "zug": 4782,
      "zují": 4783,
      "letz": 4784,
      "krut": 4785,
      "money": 4786,
      "opposition": 4787,
      "portu": 4788,
      "allgem": 4789,
      "komun": 4790,
      "gabe": 4791,
      "lassen": 4792,
      "válen": 4793,
      "appar": 4794,
      "food": 4795,
      "politbü": 4796,
      "såsom": 4797,
      "sådan": 4798,
      "västra": 4799,
      "liegen": 4800,
      "psal": 4801,
      "wobei": 4802,
      "christen": 4803,
      "halv": 4804,
      "vanliga": 4805,
      "göttin": 4806,
      "create": 4807,
      "created": 4808,
      "interest": 4809,
      "právo": 4810,
      "psyk": 4811,
      "tomto": 4812,
      "lished": 4813,
      "zoologie": 4814,
      "glise": 4815,
      "pério": 4816,
      "sites": 4817,
      "ixe": 4818,
      "signific": 4819,
      "famil": 4820,
      "njím": 4821,
      "nicmén": 4822,
      "hjärtat": 4823,
      "zaved": 4824,
      "prägt": 4825,
      "funktionen": 4826,
      "tisíci": 4827,
      "båda": 4828,
      "trouve": 4829,
      "innerhalb": 4830,
      "frühen": 4831,
      "kultura": 4832,
      "schrift": 4833,
      "övriga": 4834,
      "rzných": 4835,
      "französ": 4836,
      "pléonas": 4837,
      "ländska": 4838,
      "nazý": 4839,
      "performan": 4840,
      "moyen": 4841,
      "piblin": 4842,
      "prinzip": 4843,
      "bürger": 4844,
      "ai": 4845,
      "dt": 4846,
      "dov": 4847,
      "gig": 4848,
      "ides": 4849,
      "jä": 4850,
      "ková": 4851,
      "lhomme": 4852,
      "mur": 4853,
      "mic": 4854,
      "mir": 4855,
      "mün": 4856,
      "sní": 4857,
      "sém": 4858,
      "zan": 4859,
      "zru": 4860,
      "anal": 4861,
      "inté": 4862,
      "ched": 4863,
      "leu": 4864,
      "lepí": 4865,
      "ara": 4866,
      "orthod": 4867,
      "aler": 4868,
      "iskan": 4869,
      "unded": 4870,
      "thing": 4871,
      "etwas": 4872,
      "raison": 4873,
      "asse": 4874,
      "theatre": 4875,
      "nader": 4876,
      "nalez": 4877,
      "ski": 4878,
      "geht": 4879,
      "gebra": 4880,
      "aver": 4881,
      "beeinfl": 4882,
      "isté": 4883,
      "imême": 4884,
      "impli": 4885,
      "how": 4886,
      "maß": 4887,
      "ivent": 4888,
      "umen": 4889,
      "persu": 4890,
      "cia": 4891,
      "dien": 4892,
      "pravid": 4893,
      "sacre": 4894,
      "comm": 4895,
      "sträck": 4896,
      "plán": 4897,
      "lenní": 4898,
      "gustav": 4899,
      "finans": 4900,
      "vila": 4901,
      "cessa": 4902,
      "kého": 4903,
      "venir": 4904,
      "ible": 4905,
      "white": 4906,
      "muse": 4907,
      "natür": 4908,
      "across": 4909,
      "barn": 4910,
      "colon": 4911,
      "appel": 4912,
      "muslim": 4913,
      "signe": 4914,
      "diesen": 4915,
      "politique": 4916,
      "beslut": 4917,
      "placer": 4918,
      "event": 4919,
      "höga": 4920,
      "juden": 4921,
      "disc": 4922,
      "disci": 4923,
      "offent": 4924,
      "free": 4925,
      "koly": 4926,
      "cret": 4927,
      "jana": 4928,
      "difficul": 4929,
      "siln": 4930,
      "institu": 4931,
      "allein": 4932,
      "variant": 4933,
      "singes": 4934,
      "projekt": 4935,
      "athény": 4936,
      "gaben": 4937,
      "michel": 4938,
      "georg": 4939,
      "nieder": 4940,
      "ställ": 4941,
      "získal": 4942,
      "cells": 4943,
      "sprechen": 4944,
      "bibel": 4945,
      "zaklad": 4946,
      "articles": 4947,
      "tänkande": 4948,
      "dimens": 4949,
      "následn": 4950,
      "själv": 4951,
      "jordbru": 4952,
      "agrofert": 4953,
      "région": 4954,
      "amount": 4955,
      "meaning": 4956,
      "dictionnaire": 4957,
      "pyrene": 4958,
      "considered": 4959,
      "seulement": 4960,
      "popula": 4961,
      "frantiek": 4962,
      "november": 4963,
      "pravidel": 4964,
      "orthodox": 4965,
      "ah": 4966,
      "acht": 4967,
      "bill": 4968,
      "cup": 4969,
      "dhui": 4970,
      "eig": 4971,
      "fid": 4972,
      "feu": 4973,
      "ios": 4974,
      "kup": 4975,
      "lis": 4976,
      "mm": 4977,
      "mlo": 4978,
      "ode": 4979,
      "ppet": 4980,
      "right": 4981,
      "sun": 4982,
      "vla": 4983,
      "vise": 4984,
      "whe": 4985,
      "zung": 4986,
      "èrent": 4987,
      "únor": 4988,
      "environ": 4989,
      "erad": 4990,
      "innan": 4991,
      "informa": 4992,
      "stim": 4993,
      "still": 4994,
      "report": 4995,
      "iten": 4996,
      "itten": 4997,
      "oru": 4998,
      "orna": 4999,
      "alan": 5000,
      "thor": 5001,
      "omou": 5002,
      "pode": 5003,
      "pois": 5004,
      "lier": 5005,
      "asing": 5006,
      "edward": 5007,
      "ovar": 5008,
      "ovým": 5009,
      "olomou": 5010,
      "denn": 5011,
      "verfü": 5012,
      "verfas": 5013,
      "verhält": 5014,
      "prozes": 5015,
      "kaiser": 5016,
      "odbor": 5017,
      "ober": 5018,
      "obrá": 5019,
      "somit": 5020,
      "lokal": 5021,
      "perform": 5022,
      "ciz": 5023,
      "cial": 5024,
      "resp": 5025,
      "contro": 5026,
      "condition": 5027,
      "veget": 5028,
      "sug": 5029,
      "svår": 5030,
      "konnte": 5031,
      "comes": 5032,
      "vydá": 5033,
      "book": 5034,
      "adam": 5035,
      "nécessa": 5036,
      "mitt": 5037,
      "guar": 5038,
      "vii": 5039,
      "opér": 5040,
      "tif": 5041,
      "zájem": 5042,
      "zájm": 5043,
      "oslav": 5044,
      "spis": 5045,
      "léglise": 5046,
      "ifs": 5047,
      "wards": 5048,
      "volb": 5049,
      "worden": 5050,
      "jedn": 5051,
      "dsled": 5052,
      "hlí": 5053,
      "britt": 5054,
      "ordnet": 5055,
      "meta": 5056,
      "historiska": 5057,
      "anderem": 5058,
      "caract": 5059,
      "puls": 5060,
      "panz": 5061,
      "self": 5062,
      "männis": 5063,
      "weltweit": 5064,
      "dnení": 5065,
      "republiken": 5066,
      "systems": 5067,
      "begrän": 5068,
      "bezpen": 5069,
      "könig": 5070,
      "tests": 5071,
      "správy": 5072,
      "länderna": 5073,
      "nordiska": 5074,
      "makten": 5075,
      "ectví": 5076,
      "bildung": 5077,
      "illeurs": 5078,
      "städer": 5079,
      "viktig": 5080,
      "dauph": 5081,
      "middle": 5082,
      "funkce": 5083,
      "ihnen": 5084,
      "collect": 5085,
      "schools": 5086,
      "speaker": 5087,
      "ytter": 5088,
      "civil": 5089,
      "polovin": 5090,
      "ostrovy": 5091,
      "sowjetunion": 5092,
      "mistrov": 5093,
      "djiny": 5094,
      "structure": 5095,
      "engelska": 5096,
      "palác": 5097,
      "nobel": 5098,
      "riksdagen": 5099,
      "company": 5100,
      "intellekt": 5101,
      "obvykle": 5102,
      "encyclo": 5103,
      "spíe": 5104,
      "significant": 5105,
      "discipl": 5106,
      "cli": 5107,
      "dil": 5108,
      "dès": 5109,
      "five": 5110,
      "fiel": 5111,
      "gick": 5112,
      "hlav": 5113,
      "jind": 5114,
      "ki": 5115,
      "kind": 5116,
      "mán": 5117,
      "msí": 5118,
      "nol": 5119,
      "oth": 5120,
      "ypt": 5121,
      "úast": 5122,
      "ank": 5123,
      "stelle": 5124,
      "deck": 5125,
      "arv": 5126,
      "rea": 5127,
      "recent": 5128,
      "itní": 5129,
      "itution": 5130,
      "isse": 5131,
      "ths": 5132,
      "thus": 5133,
      "oma": 5134,
      "sehen": 5135,
      "poly": 5136,
      "poser": 5137,
      "liver": 5138,
      "asia": 5139,
      "nac": 5140,
      "navíc": 5141,
      "nezávis": 5142,
      "beans": 5143,
      "emat": 5144,
      "users": 5145,
      "prom": 5146,
      "prostor": 5147,
      "tai": 5148,
      "maine": 5149,
      "prat": 5150,
      "parfois": 5151,
      "ids": 5152,
      "pale": 5153,
      "dipl": 5154,
      "diag": 5155,
      "förslag": 5156,
      "dok": 5157,
      "conqu": 5158,
      "akci": 5159,
      "tritt": 5160,
      "extre": 5161,
      "noter": 5162,
      "compl": 5163,
      "weis": 5164,
      "tillsammans": 5165,
      "strate": 5166,
      "zahr": 5167,
      "zuge": 5168,
      "luimême": 5169,
      "estab": 5170,
      "porter": 5171,
      "tée": 5172,
      "tradu": 5173,
      "werk": 5174,
      "base": 5175,
      "aveb": 5176,
      "humain": 5177,
      "anglie": 5178,
      "besit": 5179,
      "dobu": 5180,
      "ville": 5181,
      "solens": 5182,
      "bilden": 5183,
      "active": 5184,
      "nový": 5185,
      "hory": 5186,
      "hormon": 5187,
      "systé": 5188,
      "kallad": 5189,
      "staly": 5190,
      "produce": 5191,
      "ecko": 5192,
      "slovník": 5193,
      "rikt": 5194,
      "kulturní": 5195,
      "katoli": 5196,
      "rådet": 5197,
      "språken": 5198,
      "custom": 5199,
      "lauf": 5200,
      "gegensatz": 5201,
      "cash": 5202,
      "regional": 5203,
      "förekom": 5204,
      "houslí": 5205,
      "movement": 5206,
      "distr": 5207,
      "parteit": 5208,
      "söder": 5209,
      "materi": 5210,
      "jejím": 5211,
      "fyz": 5212,
      "fyra": 5213,
      "strana": 5214,
      "grammat": 5215,
      "planet": 5216,
      "sjö": 5217,
      "grekland": 5218,
      "oznaení": 5219,
      "africa": 5220,
      "pitch": 5221,
      "nära": 5222,
      "officiellt": 5223,
      "jourdhui": 5224,
      "vysoké": 5225,
      "belief": 5226,
      "eigene": 5227,
      "child": 5228,
      "sparta": 5229,
      "following": 5230,
      "vibrato": 5231,
      "beaucoup": 5232,
      "tehdy": 5233,
      "littéra": 5234,
      "cognitive": 5235,
      "samarbete": 5236,
      "argument": 5237,
      "evropa": 5238,
      "celui": 5239,
      "kontinent": 5240,
      "domaine": 5241,
      "considéré": 5242,
      "mezinárodní": 5243,
      "books": 5244,
      "children": 5245,
      "période": 5246,
      "sémant": 5247,
      "människan": 5248,
      "ae": 5249,
      "adel": 5250,
      "cles": 5251,
      "cum": 5252,
      "cení": 5253,
      "cens": 5254,
      "city": 5255,
      "fau": 5256,
      "hér": 5257,
      "lal": 5258,
      "mom": 5259,
      "mig": 5260,
      "nin": 5261,
      "oct": 5262,
      "oliv": 5263,
      "ping": 5264,
      "sw": 5265,
      "smo": 5266,
      "sät": 5267,
      "tic": 5268,
      "uzav": 5269,
      "vl": 5270,
      "vul": 5271,
      "vky": 5272,
      "won": 5273,
      "you": 5274,
      "zm": 5275,
      "öff": 5276,
      "enden": 5277,
      "inten": 5278,
      "intens": 5279,
      "stro": 5280,
      "ledu": 5281,
      "leurope": 5282,
      "rece": 5283,
      "attem": 5284,
      "ití": 5285,
      "ort": 5286,
      "rol": 5287,
      "rael": 5288,
      "rahmen": 5289,
      "points": 5290,
      "pokud": 5291,
      "else": 5292,
      "entes": 5293,
      "skin": 5294,
      "sked": 5295,
      "geprägt": 5296,
      "nez": 5297,
      "istic": 5298,
      "termes": 5299,
      "tober": 5300,
      "verstehen": 5301,
      "proposition": 5302,
      "profes": 5303,
      "prohlá": 5304,
      "holic": 5305,
      "einander": 5306,
      "prmr": 5307,
      "means": 5308,
      "irn": 5309,
      "fron": 5310,
      "forn": 5311,
      "forsk": 5312,
      "perman": 5313,
      "dog": 5314,
      "illu": 5315,
      "aktu": 5316,
      "cost": 5317,
      "commer": 5318,
      "weg": 5319,
      "vyuí": 5320,
      "uppr": 5321,
      "vars": 5322,
      "hebr": 5323,
      "plot": 5324,
      "zaal": 5325,
      "zudem": 5326,
      "lety": 5327,
      "phen": 5328,
      "synon": 5329,
      "franska": 5330,
      "deutlich": 5331,
      "fine": 5332,
      "tient": 5333,
      "dévelop": 5334,
      "zástup": 5335,
      "hervor": 5336,
      "äldre": 5337,
      "udssr": 5338,
      "píslun": 5339,
      "drück": 5340,
      "résul": 5341,
      "rozsá": 5342,
      "according": 5343,
      "wart": 5344,
      "barnet": 5345,
      "bay": 5346,
      "iesen": 5347,
      "vali": 5348,
      "humains": 5349,
      "politické": 5350,
      "link": 5351,
      "beiden": 5352,
      "vtví": 5353,
      "empir": 5354,
      "crib": 5355,
      "juda": 5356,
      "längre": 5357,
      "debat": 5358,
      "nových": 5359,
      "jetí": 5360,
      "genommen": 5361,
      "därmed": 5362,
      "antike": 5363,
      "mstem": 5364,
      "coura": 5365,
      "times": 5366,
      "kunna": 5367,
      "transport": 5368,
      "datab": 5369,
      "könne": 5370,
      "festival": 5371,
      "quelques": 5372,
      "medeltida": 5373,
      "dialekt": 5374,
      "oftast": 5375,
      "gemeinden": 5376,
      "reference": 5377,
      "utilisation": 5378,
      "indian": 5379,
      "officiella": 5380,
      "maxim": 5381,
      "increased": 5382,
      "struny": 5383,
      "kulturel": 5384,
      "lusage": 5385,
      "jämför": 5386,
      "miliar": 5387,
      "vratislav": 5388,
      "quently": 5389,
      "souasnosti": 5390,
      "provoz": 5391,
      "poátku": 5392,
      "cript": 5393,
      "römischen": 5394,
      "olympij": 5395,
      "militär": 5396,
      "cartes": 5397,
      "substanz": 5398,
      "seznam": 5399,
      "procédés": 5400,
      "kognit": 5401,
      "chimpanz": 5402,
      "screen": 5403,
      "pléonasme": 5404,
      "mistrovství": 5405,
      "bs": 5406,
      "ball": 5407,
      "blich": 5408,
      "bön": 5409,
      "dti": 5410,
      "dtí": 5411,
      "fér": 5412,
      "hli": 5413,
      "hinge": 5414,
      "hjäl": 5415,
      "klu": 5416,
      "kall": 5417,
      "là": 5418,
      "nová": 5419,
      "ole": 5420,
      "pala": 5421,
      "rz": 5422,
      "ris": 5423,
      "sma": 5424,
      "sän": 5425,
      "sled": 5426,
      "série": 5427,
      "tau": 5428,
      "tvor": 5429,
      "uer": 5430,
      "ukra": 5431,
      "ving": 5432,
      "wom": 5433,
      "wider": 5434,
      "àdire": 5435,
      "âge": 5436,
      "ète": 5437,
      "étr": 5438,
      "íj": 5439,
      "anges": 5440,
      "ined": 5441,
      "stöd": 5442,
      "legt": 5443,
      "represent": 5444,
      "iter": 5445,
      "alles": 5446,
      "alismus": 5447,
      "una": 5448,
      "rody": 5449,
      "etn": 5450,
      "etzt": 5451,
      "pokus": 5452,
      "liste": 5453,
      "elo": 5454,
      "entstanden": 5455,
      "augment": 5456,
      "cesty": 5457,
      "neur": 5458,
      "descartes": 5459,
      "terna": 5460,
      "igten": 5461,
      "igung": 5462,
      "verte": 5463,
      "promin": 5464,
      "obnov": 5465,
      "mek": 5466,
      "perç": 5467,
      "permett": 5468,
      "soli": 5469,
      "förändr": 5470,
      "contr": 5471,
      "anses": 5472,
      "zehn": 5473,
      "moe": 5474,
      "pracov": 5475,
      "nách": 5476,
      "sach": 5477,
      "express": 5478,
      "extension": 5479,
      "konec": 5480,
      "compor": 5481,
      "gru": 5482,
      "westen": 5483,
      "brés": 5484,
      "tillhör": 5485,
      "varor": 5486,
      "plate": 5487,
      "kru": 5488,
      "advan": 5489,
      "francou": 5490,
      "soudu": 5491,
      "montre": 5492,
      "gues": 5493,
      "átor": 5494,
      "samband": 5495,
      "aufge": 5496,
      "tyi": 5497,
      "déc": 5498,
      "dél": 5499,
      "álie": 5500,
      "fün": 5501,
      "tém": 5502,
      "pímo": 5503,
      "pírodní": 5504,
      "wert": 5505,
      "iften": 5506,
      "nejstarí": 5507,
      "hnen": 5508,
      "without": 5509,
      "velkou": 5510,
      "mémo": 5511,
      "charac": 5512,
      "musí": 5513,
      "surtout": 5514,
      "hudeb": 5515,
      "grec": 5516,
      "vtinu": 5517,
      "cry": 5518,
      "framst": 5519,
      "geistigen": 5520,
      "action": 5521,
      "born": 5522,
      "half": 5523,
      "itude": 5524,
      "panl": 5525,
      "credit": 5526,
      "studie": 5527,
      "slovan": 5528,
      "kách": 5529,
      "issant": 5530,
      "mstských": 5531,
      "republika": 5532,
      "budou": 5533,
      "använd": 5534,
      "iteten": 5535,
      "ågor": 5536,
      "gegenüber": 5537,
      "kunden": 5538,
      "ekonomi": 5539,
      "habs": 5540,
      "positions": 5541,
      "defined": 5542,
      "fassen": 5543,
      "cestàdire": 5544,
      "moderna": 5545,
      "quelles": 5546,
      "ancien": 5547,
      "material": 5548,
      "objevil": 5549,
      "innebar": 5550,
      "ronic": 5551,
      "håll": 5552,
      "klasické": 5553,
      "vlastn": 5554,
      "izaci": 5555,
      "until": 5556,
      "students": 5557,
      "základní": 5558,
      "cambridge": 5559,
      "größer": 5560,
      "india": 5561,
      "protoe": 5562,
      "spread": 5563,
      "kládá": 5564,
      "respect": 5565,
      "practices": 5566,
      "financí": 5567,
      "studier": 5568,
      "quality": 5569,
      "physical": 5570,
      "gehört": 5571,
      "gamla": 5572,
      "kvli": 5573,
      "genannt": 5574,
      "particularly": 5575,
      "zamst": 5576,
      "availa": 5577,
      "saxons": 5578,
      "territor": 5579,
      "gesetz": 5580,
      "electronic": 5581,
      "sovt": 5582,
      "heslo": 5583,
      "samhället": 5584,
      "konzil": 5585,
      "occident": 5586,
      "betrachtet": 5587,
      "socha": 5588,
      "complex": 5589,
      "církev": 5590,
      "verehrt": 5591,
      "victor": 5592,
      "zatímco": 5593,
      "rozhodnutí": 5594,
      "septem": 5595,
      "französisch": 5596,
      "pravidla": 5597,
      "verhältnis": 5598,
      "jindich": 5599,
      "parteitag": 5600,
      "comportement": 5601,
      "big": 5602,
      "categor": 5603,
      "dní": 5604,
      "dda": 5605,
      "dvo": 5606,
      "dikt": 5607,
      "eing": 5608,
      "hz": 5609,
      "haut": 5610,
      "jün": 5611,
      "ký": 5612,
      "knap": 5613,
      "mly": 5614,
      "nten": 5615,
      "nivå": 5616,
      "pist": 5617,
      "rup": 5618,
      "vig": 5619,
      "wich": 5620,
      "wend": 5621,
      "éd": 5622,
      "anteil": 5623,
      "invent": 5624,
      "stb": 5625,
      "deva": 5626,
      "reim": 5627,
      "reste": 5628,
      "rock": 5629,
      "roda": 5630,
      "ieu": 5631,
      "oms": 5632,
      "rady": 5633,
      "pote": 5634,
      "poví": 5635,
      "posed": 5636,
      "posky": 5637,
      "ought": 5638,
      "gewä": 5639,
      "quitaine": 5640,
      "istäl": 5641,
      "ochr": 5642,
      "verté": 5643,
      "vernun": 5644,
      "eint": 5645,
      "prise": 5646,
      "ivu": 5647,
      "front": 5648,
      "cký": 5649,
      "uly": 5650,
      "socker": 5651,
      "förde": 5652,
      "ctu": 5653,
      "construction": 5654,
      "ationen": 5655,
      "mole": 5656,
      "mohou": 5657,
      "sagen": 5658,
      "sujet": 5659,
      "area": 5660,
      "svát": 5661,
      "svém": 5662,
      "vyu": 5663,
      "mentale": 5664,
      "zahá": 5665,
      "kry": 5666,
      "krét": 5667,
      "phab": 5668,
      "phone": 5669,
      "service": 5670,
      "skapade": 5671,
      "vojen": 5672,
      "vokal": 5673,
      "delvis": 5674,
      "podstat": 5675,
      "bene": 5676,
      "rozví": 5677,
      "bete": 5678,
      "zemi": 5679,
      "matemat": 5680,
      "charakter": 5681,
      "vodství": 5682,
      "tural": 5683,
      "turist": 5684,
      "filip": 5685,
      "eském": 5686,
      "stedo": 5687,
      "garden": 5688,
      "práva": 5689,
      "jiných": 5690,
      "fonction": 5691,
      "consist": 5692,
      "setzte": 5693,
      "bývá": 5694,
      "verbunden": 5695,
      "ministr": 5696,
      "minister": 5697,
      "classe": 5698,
      "objev": 5699,
      "dialekte": 5700,
      "narod": 5701,
      "sekund": 5702,
      "sám": 5703,
      "mjölken": 5704,
      "oxford": 5705,
      "terms": 5706,
      "princip": 5707,
      "eleznic": 5708,
      "energie": 5709,
      "relativt": 5710,
      "klein": 5711,
      "milionu": 5712,
      "processus": 5713,
      "différents": 5714,
      "practice": 5715,
      "organisation": 5716,
      "miliard": 5717,
      "tumor": 5718,
      "zahraniní": 5719,
      "znamená": 5720,
      "ideologier": 5721,
      "pavel": 5722,
      "monarchie": 5723,
      "snmovny": 5724,
      "kroppen": 5725,
      "källor": 5726,
      "oficiální": 5727,
      "englisch": 5728,
      "mluví": 5729,
      "extensions": 5730,
      "souvislosti": 5731,
      "lombards": 5732,
      "whether": 5733,
      "strateg": 5734,
      "istället": 5735,
      "vernunft": 5736,
      "apo": 5737,
      "apí": 5738,
      "bare": 5739,
      "bad": 5740,
      "bhu": 5741,
      "dent": 5742,
      "dod": 5743,
      "dab": 5744,
      "ez": 5745,
      "eko": 5746,
      "fis": 5747,
      "ize": 5748,
      "ious": 5749,
      "jh": 5750,
      "jur": 5751,
      "kant": 5752,
      "kated": 5753,
      "lhistoire": 5754,
      "nant": 5755,
      "nými": 5756,
      "riv": 5757,
      "rát": 5758,
      "smí": 5759,
      "tud": 5760,
      "ues": 5761,
      "uvá": 5762,
      "ying": 5763,
      "zed": 5764,
      "zhru": 5765,
      "ádn": 5766,
      "én": 5767,
      "états": 5768,
      "eného": 5769,
      "ering": 5770,
      "andel": 5771,
      "chs": 5772,
      "stem": 5773,
      "stroj": 5774,
      "staveb": 5775,
      "leon": 5776,
      "lever": 5777,
      "rede": 5778,
      "représent": 5779,
      "reconna": 5780,
      "row": 5781,
      "illa": 5782,
      "ray": 5783,
      "pozem": 5784,
      "asien": 5785,
      "napole": 5786,
      "skall": 5787,
      "außen": 5788,
      "denken": 5789,
      "gebur": 5790,
      "quand": 5791,
      "uta": 5792,
      "beí": 5793,
      "immt": 5794,
      "verlag": 5795,
      "proved": 5796,
      "protest": 5797,
      "probl": 5798,
      "einigen": 5799,
      "einwohn": 5800,
      "kaz": 5801,
      "print": 5802,
      "ikan": 5803,
      "park": 5804,
      "parler": 5805,
      "parliam": 5806,
      "paid": 5807,
      "check": 5808,
      "änomen": 5809,
      "prache": 5810,
      "beror": 5811,
      "nález": 5812,
      "sages": 5813,
      "expli": 5814,
      "expression": 5815,
      "nour": 5816,
      "wehr": 5817,
      "boh": 5818,
      "varandra": 5819,
      "ierten": 5820,
      "ierung": 5821,
      "zach": 5822,
      "zugleich": 5823,
      "luther": 5824,
      "add": 5825,
      "phänomen": 5826,
      "leng": 5827,
      "mitte": 5828,
      "stej": 5829,
      "samot": 5830,
      "benäm": 5831,
      "début": 5832,
      "stag": 5833,
      "marks": 5834,
      "formes": 5835,
      "záí": 5836,
      "výtvar": 5837,
      "traf": 5838,
      "kej": 5839,
      "pub": 5840,
      "nejlepí": 5841,
      "åren": 5842,
      "zeman": 5843,
      "kola": 5844,
      "mée": 5845,
      "value": 5846,
      "musik": 5847,
      "regler": 5848,
      "foot": 5849,
      "febru": 5850,
      "donne": 5851,
      "uppstod": 5852,
      "gree": 5853,
      "publique": 5854,
      "staten": 5855,
      "zdro": 5856,
      "slezská": 5857,
      "spez": 5858,
      "malí": 5859,
      "celkem": 5860,
      "darstellung": 5861,
      "bude": 5862,
      "studies": 5863,
      "körpers": 5864,
      "textes": 5865,
      "plats": 5866,
      "smlou": 5867,
      "firmy": 5868,
      "hinsicht": 5869,
      "användes": 5870,
      "prvním": 5871,
      "zoolog": 5872,
      "zentral": 5873,
      "consid": 5874,
      "consum": 5875,
      "správ": 5876,
      "lexpression": 5877,
      "current": 5878,
      "home": 5879,
      "court": 5880,
      "egna": 5881,
      "egyp": 5882,
      "germanska": 5883,
      "sitz": 5884,
      "logie": 5885,
      "culturel": 5886,
      "lidové": 5887,
      "infly": 5888,
      "générale": 5889,
      "ostatní": 5890,
      "premiér": 5891,
      "présente": 5892,
      "aristo": 5893,
      "original": 5894,
      "energi": 5895,
      "industry": 5896,
      "black": 5897,
      "increasing": 5898,
      "rättigheter": 5899,
      "stedovku": 5900,
      "policy": 5901,
      "sídlem": 5902,
      "audience": 5903,
      "ability": 5904,
      "saxon": 5905,
      "tehde": 5906,
      "bestimmten": 5907,
      "turkiet": 5908,
      "amtssprache": 5909,
      "plupart": 5910,
      "spolku": 5911,
      "jüdischen": 5912,
      "heutigen": 5913,
      "räknas": 5914,
      "sjuk": 5915,
      "wichtig": 5916,
      "heißt": 5917,
      "innehåller": 5918,
      "acoustique": 5919,
      "particip": 5920,
      "luxem": 5921,
      "konfessionen": 5922,
      "nécessaire": 5923,
      "available": 5924,
      "vertébrés": 5925,
      "zhruba": 5926,
      "bind": 5927,
      "cler": 5928,
      "dik": 5929,
      "ew": 5930,
      "fro": 5931,
      "fav": 5932,
      "hníz": 5933,
      "jà": 5934,
      "kles": 5935,
      "lind": 5936,
      "ozná": 5937,
      "pti": 5938,
      "rys": 5939,
      "sab": 5940,
      "sser": 5941,
      "tul": 5942,
      "vgl": 5943,
      "wal": 5944,
      "wür": 5945,
      "zcela": 5946,
      "év": 5947,
      "östra": 5948,
      "údol": 5949,
      "chu": 5950,
      "ché": 5951,
      "dej": 5952,
      "leis": 5953,
      "ark": 5954,
      "repair": 5955,
      "ately": 5956,
      "ites": 5957,
      "itäten": 5958,
      "unster": 5959,
      "unabhän": 5960,
      "thought": 5961,
      "seig": 5962,
      "poad": 5963,
      "pohy": 5964,
      "potvr": 5965,
      "pobeí": 5966,
      "nahra": 5967,
      "naissance": 5968,
      "skog": 5969,
      "eds": 5970,
      "quune": 5971,
      "beg": 5972,
      "ofern": 5973,
      "ambas": 5974,
      "toi": 5975,
      "empereur": 5976,
      "profession": 5977,
      "hot": 5978,
      "odvtví": 5979,
      "obser": 5980,
      "obcí": 5981,
      "schw": 5982,
      "schol": 5983,
      "partage": 5984,
      "pap": 5985,
      "soient": 5986,
      "dila": 5987,
      "förutom": 5988,
      "ctor": 5989,
      "hrung": 5990,
      "condu": 5991,
      "contexte": 5992,
      "náklad": 5993,
      "landes": 5994,
      "wegen": 5995,
      "brn": 5996,
      "hegel": 5997,
      "zaalo": 5998,
      "zustände": 5999,
      "franc": 6000,
      "voc": 6001,
      "financi": 6002,
      "pora": 6003,
      "stead": 6004,
      "tidens": 6005,
      "germán": 6006,
      "benef": 6007,
      "déjà": 6008,
      "staats": 6009,
      "marx": 6010,
      "ience": 6011,
      "faith": 6012,
      "výkon": 6013,
      "výstav": 6014,
      "pírod": 6015,
      "daniel": 6016,
      "répon": 6017,
      "minu": 6018,
      "thern": 6019,
      "mys": 6020,
      "liches": 6021,
      "words": 6022,
      "chokla": 6023,
      "métho": 6024,
      "iellen": 6025,
      "regard": 6026,
      "huje": 6027,
      "founded": 6028,
      "agent": 6029,
      "dsprache": 6030,
      "politischen": 6031,
      "ernas": 6032,
      "donné": 6033,
      "donner": 6034,
      "green": 6035,
      "autonom": 6036,
      "drama": 6037,
      "figur": 6038,
      "nila": 6039,
      "ordnung": 6040,
      "geistige": 6041,
      "historik": 6042,
      "integr": 6043,
      "starkt": 6044,
      "polsku": 6045,
      "penham": 6046,
      "lagt": 6047,
      "stupo": 6048,
      "zuminde": 6049,
      "dret": 6050,
      "pouvoir": 6051,
      "includes": 6052,
      "budget": 6053,
      "hinaus": 6054,
      "basis": 6055,
      "cena": 6056,
      "effe": 6057,
      "weniger": 6058,
      "stellte": 6059,
      "börd": 6060,
      "regioner": 6061,
      "klí": 6062,
      "précis": 6063,
      "severu": 6064,
      "hlavního": 6065,
      "affir": 6066,
      "weiterhin": 6067,
      "ihrem": 6068,
      "films": 6069,
      "double": 6070,
      "know": 6071,
      "významnjí": 6072,
      "oblastí": 6073,
      "geschaffen": 6074,
      "kritik": 6075,
      "kreis": 6076,
      "oxid": 6077,
      "pvodní": 6078,
      "scot": 6079,
      "stadt": 6080,
      "glaube": 6081,
      "gemensam": 6082,
      "kláter": 6083,
      "mittelalter": 6084,
      "groups": 6085,
      "spiritu": 6086,
      "monarkier": 6087,
      "måste": 6088,
      "alliance": 6089,
      "poslanecké": 6090,
      "byzantin": 6091,
      "göttlichen": 6092,
      "köpenham": 6093,
      "show": 6094,
      "influence": 6095,
      "busines": 6096,
      "christianity": 6097,
      "frankfur": 6098,
      "fotbal": 6099,
      "dynastie": 6100,
      "substant": 6101,
      "global": 6102,
      "johannes": 6103,
      "grupper": 6104,
      "fremdsprache": 6105,
      "members": 6106,
      "astronom": 6107,
      "schließlich": 6108,
      "muzeum": 6109,
      "entwickelte": 6110,
      "myndig": 6111,
      "moment": 6112,
      "hingegen": 6113,
      "prominent": 6114,
      "francouz": 6115,
      "leisure": 6116,
      "zumindest": 6117,
      "bac": 6118,
      "bisch": 6119,
      "cc": 6120,
      "eas": 6121,
      "equ": 6122,
      "ehen": 6123,
      "fos": 6124,
      "fys": 6125,
      "fakt": 6126,
      "gå": 6127,
      "hd": 6128,
      "hib": 6129,
      "iro": 6130,
      "lý": 6131,
      "lund": 6132,
      "nations": 6133,
      "oires": 6134,
      "pia": 6135,
      "rid": 6136,
      "shor": 6137,
      "ukon": 6138,
      "wind": 6139,
      "zky": 6140,
      "ány": 6141,
      "året": 6142,
      "éti": 6143,
      "ící": 6144,
      "ïl": 6145,
      "ökar": 6146,
      "övers": 6147,
      "öarna": 6148,
      "ench": 6149,
      "enser": 6150,
      "erhe": 6151,
      "anz": 6152,
      "antalet": 6153,
      "anzahl": 6154,
      "ching": 6155,
      "ards": 6156,
      "rei": 6157,
      "remain": 6158,
      "recher": 6159,
      "itou": 6160,
      "aland": 6161,
      "lap": 6162,
      "rail": 6163,
      "poétique": 6164,
      "lila": 6165,
      "lima": 6166,
      "libr": 6167,
      "uries": 6168,
      "urban": 6169,
      "navr": 6170,
      "names": 6171,
      "editel": 6172,
      "auer": 6173,
      "teach": 6174,
      "ingt": 6175,
      "nek": 6176,
      "nebyl": 6177,
      "quatre": 6178,
      "avy": 6179,
      "utö": 6180,
      "utôt": 6181,
      "bezna": 6182,
      "tode": 6183,
      "topic": 6184,
      "ements": 6185,
      "verstanden": 6186,
      "prosl": 6187,
      "ichten": 6188,
      "maj": 6189,
      "prbhu": 6190,
      "odpoví": 6191,
      "obou": 6192,
      "otto": 6193,
      "umí": 6194,
      "perfe": 6195,
      "sogar": 6196,
      "dialog": 6197,
      "hry": 6198,
      "dap": 6199,
      "attent": 6200,
      "manière": 6201,
      "názv": 6202,
      "lanimal": 6203,
      "sais": 6204,
      "sacré": 6205,
      "areas": 6206,
      "svými": 6207,
      "konstru": 6208,
      "grenz": 6209,
      "wei": 6210,
      "vyrá": 6211,
      "bratis": 6212,
      "kty": 6213,
      "variet": 6214,
      "plutôt": 6215,
      "zaát": 6216,
      "lett": 6217,
      "phé": 6218,
      "nému": 6219,
      "estim": 6220,
      "atele": 6221,
      "mont": 6222,
      "ausdruck": 6223,
      "steuropa": 6224,
      "liten": 6225,
      "lital": 6226,
      "litter": 6227,
      "habe": 6228,
      "kterou": 6229,
      "álním": 6230,
      "allgemein": 6231,
      "format": 6232,
      "ologies": 6233,
      "travaux": 6234,
      "kehr": 6235,
      "norm": 6236,
      "lévolution": 6237,
      "milieu": 6238,
      "ibn": 6239,
      "komple": 6240,
      "kombin": 6241,
      "insgesamt": 6242,
      "nejslav": 6243,
      "licht": 6244,
      "baro": 6245,
      "matique": 6246,
      "mécan": 6247,
      "valo": 6248,
      "ways": 6249,
      "few": 6250,
      "françois": 6251,
      "grader": 6252,
      "väg": 6253,
      "linie": 6254,
      "meter": 6255,
      "bildas": 6256,
      "billion": 6257,
      "ferdin": 6258,
      "rug": 6259,
      "storben": 6260,
      "icient": 6261,
      "malé": 6262,
      "carl": 6263,
      "dalím": 6264,
      "ness": 6265,
      "díla": 6266,
      "díve": 6267,
      "hatten": 6268,
      "slova": 6269,
      "existence": 6270,
      "rikes": 6271,
      "ålder": 6272,
      "värld": 6273,
      "shrom": 6274,
      "små": 6275,
      "nationella": 6276,
      "naturalist": 6277,
      "kunft": 6278,
      "instance": 6279,
      "führen": 6280,
      "regionen": 6281,
      "kami": 6282,
      "daten": 6283,
      "sympt": 6284,
      "spojeného": 6285,
      "pomr": 6286,
      "legal": 6287,
      "nmecka": 6288,
      "affect": 6289,
      "weiteren": 6290,
      "developing": 6291,
      "lösa": 6292,
      "lösung": 6293,
      "stranu": 6294,
      "senátor": 6295,
      "tetí": 6296,
      "skrifter": 6297,
      "zerstör": 6298,
      "referred": 6299,
      "jaroslav": 6300,
      "kladem": 6301,
      "général": 6302,
      "modèle": 6303,
      "georges": 6304,
      "kakao": 6305,
      "stadion": 6306,
      "prmyslu": 6307,
      "handeln": 6308,
      "target": 6309,
      "povstá": 6310,
      "définit": 6311,
      "television": 6312,
      "services": 6313,
      "issue": 6314,
      "gehören": 6315,
      "långa": 6316,
      "zählt": 6317,
      "francophonie": 6318,
      "dlouho": 6319,
      "schriften": 6320,
      "fähig": 6321,
      "christentums": 6322,
      "kníectví": 6323,
      "funds": 6324,
      "negativ": 6325,
      "upphov": 6326,
      "league": 6327,
      "tradici": 6328,
      "ervna": 6329,
      "buddhismus": 6330,
      "faktor": 6331,
      "konzept": 6332,
      "písmen": 6333,
      "zbyt": 6334,
      "unterschied": 6335,
      "kesanství": 6336,
      "prostedí": 6337,
      "evidence": 6338,
      "beschrie": 6339,
      "forschung": 6340,
      "locuteurs": 6341,
      "performance": 6342,
      "assez": 6343,
      "encyclopedia": 6344,
      "hebrä": 6345,
      "habsbur": 6346,
      "parliament": 6347,
      "proslul": 6348,
      "aer": 6349,
      "agen": 6350,
      "bly": 6351,
      "bät": 6352,
      "bisk": 6353,
      "cau": 6354,
      "gü": 6355,
      "gos": 6356,
      "hed": 6357,
      "hly": 6358,
      "hlé": 6359,
      "iver": 6360,
      "kých": 6361,
      "koby": 6362,
      "oe": 6363,
      "ota": 6364,
      "oret": 6365,
      "pir": 6366,
      "tl": 6367,
      "uvre": 6368,
      "wand": 6369,
      "xis": 6370,
      "zvol": 6371,
      "zmn": 6372,
      "áze": 6373,
      "énon": 6374,
      "úadu": 6375,
      "ût": 6376,
      "ensemble": 6377,
      "antag": 6378,
      "init": 6379,
      "inva": 6380,
      "inspir": 6381,
      "chov": 6382,
      "chines": 6383,
      "depart": 6384,
      "devient": 6385,
      "lehr": 6386,
      "reli": 6387,
      "reas": 6388,
      "atz": 6389,
      "ature": 6390,
      "atoire": 6391,
      "lay": 6392,
      "etab": 6393,
      "sest": 6394,
      "rag": 6395,
      "rapi": 6396,
      "popr": 6397,
      "lista": 6398,
      "theolog": 6399,
      "nahmen": 6400,
      "aujourdhui": 6401,
      "teile": 6402,
      "níky": 6403,
      "befo": 6404,
      "behand": 6405,
      "ochran": 6406,
      "versuch": 6407,
      "hodu": 6408,
      "jeli": 6409,
      "prit": 6410,
      "obvod": 6411,
      "frågor": 6412,
      "french": 6413,
      "umon": 6414,
      "umes": 6415,
      "peup": 6416,
      "perception": 6417,
      "pacit": 6418,
      "tenden": 6419,
      "cile": 6420,
      "försv": 6421,
      "författ": 6422,
      "down": 6423,
      "doïl": 6424,
      "dají": 6425,
      "dadurch": 6426,
      "mens": 6427,
      "mani": 6428,
      "manel": 6429,
      "nání": 6430,
      "saw": 6431,
      "medic": 6432,
      "vyhrá": 6433,
      "head": 6434,
      "zace": 6435,
      "zustand": 6436,
      "zufolge": 6437,
      "sique": 6438,
      "mitten": 6439,
      "skaff": 6440,
      "voit": 6441,
      "ports": 6442,
      "germany": 6443,
      "ält": 6444,
      "norman": 6445,
      "centuries": 6446,
      "létat": 6447,
      "nejsou": 6448,
      "rození": 6449,
      "beteck": 6450,
      "accep": 6451,
      "durant": 6452,
      "gande": 6453,
      "prezent": 6454,
      "matka": 6455,
      "motor": 6456,
      "jih": 6457,
      "stice": 6458,
      "regular": 6459,
      "pila": 6460,
      "pipo": 6461,
      "piroz": 6462,
      "outils": 6463,
      "graph": 6464,
      "done": 6465,
      "hlou": 6466,
      "patri": 6467,
      "drawer": 6468,
      "metod": 6469,
      "historie": 6470,
      "hydro": 6471,
      "spec": 6472,
      "polis": 6473,
      "vedení": 6474,
      "mäng": 6475,
      "garna": 6476,
      "achie": 6477,
      "práci": 6478,
      "italie": 6479,
      "använde": 6480,
      "användas": 6481,
      "holding": 6482,
      "calcul": 6483,
      "news": 6484,
      "consci": 6485,
      "habit": 6486,
      "populární": 6487,
      "primarily": 6488,
      "wäre": 6489,
      "kova": 6490,
      "dolní": 6491,
      "westlichen": 6492,
      "hommes": 6493,
      "having": 6494,
      "skiljer": 6495,
      "numer": 6496,
      "gebie": 6497,
      "capables": 6498,
      "monarken": 6499,
      "psobil": 6500,
      "blood": 6501,
      "block": 6502,
      "kända": 6503,
      "stoupil": 6504,
      "kungar": 6505,
      "nichts": 6506,
      "individual": 6507,
      "stället": 6508,
      "tourna": 6509,
      "beliefs": 6510,
      "flyg": 6511,
      "succes": 6512,
      "ursprün": 6513,
      "eigenen": 6514,
      "issues": 6515,
      "nkolika": 6516,
      "effects": 6517,
      "augustin": 6518,
      "krále": 6519,
      "alexander": 6520,
      "alexandr": 6521,
      "langlais": 6522,
      "explo": 6523,
      "obecn": 6524,
      "människans": 6525,
      "zahranií": 6526,
      "frihet": 6527,
      "harmonics": 6528,
      "begann": 6529,
      "univerzita": 6530,
      "jednotliv": 6531,
      "befolkning": 6532,
      "frankreich": 6533,
      "introduced": 6534,
      "russland": 6535,
      "okolo": 6536,
      "mundarten": 6537,
      "pochází": 6538,
      "electric": 6539,
      "hitler": 6540,
      "centrala": 6541,
      "griechischen": 6542,
      "water": 6543,
      "ludwig": 6544,
      "semblée": 6545,
      "required": 6546,
      "distinction": 6547,
      "heinrich": 6548,
      "kandidaten": 6549,
      "schulen": 6550,
      "tautologie": 6551,
      "nouvelle": 6552,
      "varierar": 6553,
      "diskut": 6554,
      "dálnice": 6555,
      "ayant": 6556,
      "aucune": 6557,
      "begreppet": 6558,
      "disease": 6559,
      "gestalt": 6560,
      "tématu": 6561,
      "zahlreiche": 6562,
      "nederbörd": 6563,
      "ytterligare": 6564,
      "miliardy": 6565,
      "length": 6566,
      "shromád": 6567,
      "poprvé": 6568,
      "befogen": 6569,
      "aig": 6570,
      "aci": 6571,
      "apost": 6572,
      "bie": 6573,
      "cod": 6574,
      "clus": 6575,
      "caca": 6576,
      "dung": 6577,
      "ela": 6578,
      "fet": 6579,
      "fing": 6580,
      "fkr": 6581,
      "faut": 6582,
      "fatta": 6583,
      "fått": 6584,
      "greg": 6585,
      "hs": 6586,
      "hill": 6587,
      "hind": 6588,
      "jat": 6589,
      "jské": 6590,
      "kelt": 6591,
      "lobjet": 6592,
      "lorigine": 6593,
      "pum": 6594,
      "pfer": 6595,
      "rant": 6596,
      "rhein": 6597,
      "sü": 6598,
      "sand": 6599,
      "sik": 6600,
      "tauf": 6601,
      "yta": 6602,
      "zpravidla": 6603,
      "álen": 6604,
      "ásten": 6605,
      "ède": 6606,
      "êt": 6607,
      "ína": 6608,
      "íman": 6609,
      "íky": 6610,
      "ene": 6611,
      "enfin": 6612,
      "erie": 6613,
      "erhalten": 6614,
      "anto": 6615,
      "anta": 6616,
      "innov": 6617,
      "stic": 6618,
      "stál": 6619,
      "depend": 6620,
      "armen": 6621,
      "rec": 6622,
      "rek": 6623,
      "atic": 6624,
      "isent": 6625,
      "roles": 6626,
      "roky": 6627,
      "romain": 6628,
      "sea": 6629,
      "seins": 6630,
      "sept": 6631,
      "seule": 6632,
      "poh": 6633,
      "pojem": 6634,
      "asis": 6635,
      "enter": 6636,
      "nadále": 6637,
      "oldest": 6638,
      "describ": 6639,
      "istické": 6640,
      "emeller": 6641,
      "verstän": 6642,
      "vermut": 6643,
      "hop": 6644,
      "odvo": 6645,
      "ivní": 6646,
      "oblig": 6647,
      "irska": 6648,
      "ums": 6649,
      "cká": 6650,
      "ckého": 6651,
      "tenir": 6652,
      "förhål": 6653,
      "does": 6654,
      "conse": 6655,
      "contains": 6656,
      "velik": 6657,
      "prahu": 6658,
      "pravom": 6659,
      "sait": 6660,
      "sva": 6661,
      "svo": 6662,
      "konkur": 6663,
      "competit": 6664,
      "sonore": 6665,
      "wealth": 6666,
      "weisen": 6667,
      "tillba": 6668,
      "zaaly": 6669,
      "added": 6670,
      "ickými": 6671,
      "sice": 6672,
      "kust": 6673,
      "syft": 6674,
      "francie": 6675,
      "souver": 6676,
      "sená": 6677,
      "mono": 6678,
      "monast": 6679,
      "voire": 6680,
      "aussagen": 6681,
      "opon": 6682,
      "podpo": 6683,
      "décrit": 6684,
      "allts": 6685,
      "zámek": 6686,
      "fair": 6687,
      "pístup": 6688,
      "tram": 6689,
      "daneben": 6690,
      "réti": 6691,
      "gesell": 6692,
      "ováním": 6693,
      "minder": 6694,
      "minsk": 6695,
      "rozlo": 6696,
      "acqu": 6697,
      "nyní": 6698,
      "pted": 6699,
      "colin": 6700,
      "motiv": 6701,
      "surv": 6702,
      "partiet": 6703,
      "fokus": 6704,
      "karol": 6705,
      "intres": 6706,
      "såväl": 6707,
      "vädret": 6708,
      "greek": 6709,
      "placed": 6710,
      "domy": 6711,
      "domá": 6712,
      "largel": 6713,
      "patili": 6714,
      "tempor": 6715,
      "drah": 6716,
      "filoz": 6717,
      "incie": 6718,
      "míru": 6719,
      "länkar": 6720,
      "case": 6721,
      "capacit": 6722,
      "nomin": 6723,
      "koran": 6724,
      "polska": 6725,
      "frequently": 6726,
      "evropských": 6727,
      "teilen": 6728,
      "product": 6729,
      "existe": 6730,
      "práce": 6731,
      "cultural": 6732,
      "reichen": 6733,
      "dnis": 6734,
      "katol": 6735,
      "sídlí": 6736,
      "pesun": 6737,
      "tomá": 6738,
      "známé": 6739,
      "cenu": 6740,
      "kunst": 6741,
      "rature": 6742,
      "börjar": 6743,
      "setzt": 6744,
      "primary": 6745,
      "atome": 6746,
      "mehrere": 6747,
      "gläu": 6748,
      "vojvodství": 6749,
      "doprava": 6750,
      "gorbat": 6751,
      "veten": 6752,
      "bolsche": 6753,
      "bedeutet": 6754,
      "område": 6755,
      "lägre": 6756,
      "généra": 6757,
      "pfung": 6758,
      "utanför": 6759,
      "modif": 6760,
      "demokra": 6761,
      "études": 6762,
      "kraftigt": 6763,
      "catholic": 6764,
      "majority": 6765,
      "étaient": 6766,
      "continent": 6767,
      "flyt": 6768,
      "hodnot": 6769,
      "betrakt": 6770,
      "tuned": 6771,
      "intellig": 6772,
      "judentum": 6773,
      "pozor": 6774,
      "externí": 6775,
      "regering": 6776,
      "provide": 6777,
      "genannten": 6778,
      "factors": 6779,
      "institution": 6780,
      "själva": 6781,
      "civili": 6782,
      "zusammenhang": 6783,
      "spanien": 6784,
      "folgenden": 6785,
      "nosis": 6786,
      "béné": 6787,
      "littérature": 6788,
      "podíl": 6789,
      "kvtna": 6790,
      "rätts": 6791,
      "zemdlství": 6792,
      "negative": 6793,
      "objets": 6794,
      "koda": 6795,
      "gehend": 6796,
      "gehirn": 6797,
      "impérial": 6798,
      "zvuky": 6799,
      "signifie": 6800,
      "majetku": 6801,
      "montré": 6802,
      "rychle": 6803,
      "däremot": 6804,
      "toutefois": 6805,
      "jacques": 6806,
      "successful": 6807,
      "lightly": 6808,
      "lidée": 6809,
      "nejznámjí": 6810,
      "institutions": 6811,
      "námstí": 6812,
      "provincie": 6813,
      "anfang": 6814,
      "revoluce": 6815,
      "münchen": 6816,
      "analys": 6817,
      "beeinflusst": 6818,
      "populace": 6819,
      "control": 6820,
      "dokument": 6821,
      "established": 6822,
      "illustr": 6823,
      "katedrá": 6824,
      "napoleon": 6825,
      "inflytande": 6826,
      "financial": 6827,
      "phénom": 6828,
      "ferdinand": 6829,
      "department": 6830,
      "emellertid": 6831,
      "tillbaka": 6832,
      "alltså": 6833,
      "gesellschaft": 6834,
      "largely": 6835,
      "filozof": 6836,
      "gorbatscho": 6837,
      "bä": 6838,
      "bom": 6839,
      "bury": 6840,
      "dic": 6841,
      "ddict": 6842,
      "ever": 6843,
      "fic": 6844,
      "fix": 6845,
      "fusion": 6846,
      "gten": 6847,
      "glas": 6848,
      "hut": 6849,
      "hmat": 6850,
      "lot": 6851,
      "lune": 6852,
      "mät": 6853,
      "oec": 6854,
      "rig": 6855,
      "sve": 6856,
      "säg": 6857,
      "tsch": 6858,
      "uv": 6859,
      "uelle": 6860,
      "uzná": 6861,
      "vér": 6862,
      "zda": 6863,
      "ós": 6864,
      "üb": 6865,
      "enci": 6866,
      "anhän": 6867,
      "instead": 6868,
      "chin": 6869,
      "chant": 6870,
      "chten": 6871,
      "stig": 6872,
      "stid": 6873,
      "stift": 6874,
      "leich": 6875,
      "lect": 6876,
      "leda": 6877,
      "lehren": 6878,
      "arter": 6879,
      "reaktion": 6880,
      "athe": 6881,
      "itut": 6882,
      "itele": 6883,
      "ese": 6884,
      "espace": 6885,
      "sekunden": 6886,
      "pout": 6887,
      "poho": 6888,
      "theod": 6889,
      "theismus": 6890,
      "sker": 6891,
      "skan": 6892,
      "andor": 6893,
      "inga": 6894,
      "nehm": 6895,
      "offer": 6896,
      "emph": 6897,
      "imag": 6898,
      "usnes": 6899,
      "propre": 6900,
      "tait": 6901,
      "lespace": 6902,
      "einführung": 6903,
      "kap": 6904,
      "maur": 6905,
      "maje": 6906,
      "parties": 6907,
      "irène": 6908,
      "abra": 6909,
      "abge": 6910,
      "antické": 6911,
      "perio": 6912,
      "ulation": 6913,
      "dige": 6914,
      "dokon": 6915,
      "dostup": 6916,
      "ansåg": 6917,
      "trn": 6918,
      "veli": 6919,
      "praského": 6920,
      "lange": 6921,
      "compet": 6922,
      "griff": 6923,
      "grunden": 6924,
      "brän": 6925,
      "stritten": 6926,
      "box": 6927,
      "bour": 6928,
      "syna": 6929,
      "demon": 6930,
      "servat": 6931,
      "soukrom": 6932,
      "souvise": 6933,
      "sense": 6934,
      "moné": 6935,
      "oppos": 6936,
      "liturg": 6937,
      "gere": 6938,
      "delning": 6939,
      "podmín": 6940,
      "jazz": 6941,
      "kande": 6942,
      "défen": 6943,
      "marie": 6944,
      "marqu": 6945,
      "álního": 6946,
      "fahren": 6947,
      "vývoj": 6948,
      "älter": 6949,
      "udá": 6950,
      "pípadn": 6951,
      "trava": 6952,
      "drig": 6953,
      "ätten": 6954,
      "norden": 6955,
      "réal": 6956,
      "lépoque": 6957,
      "kommit": 6958,
      "nejvýznamnjí": 6959,
      "volumes": 6960,
      "pedpo": 6961,
      "notion": 6962,
      "appli": 6963,
      "stavby": 6964,
      "beskr": 6965,
      "plays": 6966,
      "folgte": 6967,
      "longer": 6968,
      "pati": 6969,
      "drawn": 6970,
      "ordin": 6971,
      "trotz": 6972,
      "bilder": 6973,
      "orsak": 6974,
      "hyper": 6975,
      "státního": 6976,
      "darunter": 6977,
      "dargestellt": 6978,
      "offenbar": 6979,
      "vanligen": 6980,
      "freud": 6981,
      "personal": 6982,
      "mängd": 6983,
      "émie": 6984,
      "pagnol": 6985,
      "viet": 6986,
      "endete": 6987,
      "värden": 6988,
      "brah": 6989,
      "nitt": 6990,
      "held": 6991,
      "helsing": 6992,
      "liknande": 6993,
      "ceny": 6994,
      "gegenwart": 6995,
      "ägg": 6996,
      "conséqu": 6997,
      "itaire": 6998,
      "setzen": 6999,
      "occas": 7000,
      "národního": 7001,
      "národnosti": 7002,
      "prime": 7003,
      "wesens": 7004,
      "homo": 7005,
      "philosophy": 7006,
      "pédition": 7007,
      "erades": 7008,
      "mnoství": 7009,
      "whose": 7010,
      "bonne": 7011,
      "ographe": 7012,
      "ovýchod": 7013,
      "capitu": 7014,
      "projev": 7015,
      "lovníku": 7016,
      "europas": 7017,
      "osobní": 7018,
      "referenser": 7019,
      "throughout": 7020,
      "mutations": 7021,
      "zaloena": 7022,
      "pitom": 7023,
      "indien": 7024,
      "étudie": 7025,
      "städerna": 7026,
      "následu": 7027,
      "kakaos": 7028,
      "officielle": 7029,
      "energy": 7030,
      "ivalent": 7031,
      "známý": 7032,
      "rieb": 7033,
      "förstå": 7034,
      "levde": 7035,
      "différentes": 7036,
      "zkum": 7037,
      "technique": 7038,
      "ification": 7039,
      "finanní": 7040,
      "spirit": 7041,
      "aspekte": 7042,
      "paraître": 7043,
      "externa": 7044,
      "jednání": 7045,
      "dagens": 7046,
      "théories": 7047,
      "märz": 7048,
      "inklu": 7049,
      "annales": 7050,
      "teams": 7051,
      "makedonie": 7052,
      "parlamentu": 7053,
      "kostel": 7054,
      "éléments": 7055,
      "zabý": 7056,
      "beginn": 7057,
      "bildades": 7058,
      "einzelnen": 7059,
      "distingue": 7060,
      "fruit": 7061,
      "wikislovníku": 7062,
      "därefter": 7063,
      "hundra": 7064,
      "wirklichkeit": 7065,
      "orchestra": 7066,
      "gruppen": 7067,
      "videa": 7068,
      "divadlo": 7069,
      "variety": 7070,
      "zunehmend": 7071,
      "artikel": 7072,
      "katholischen": 7073,
      "unesco": 7074,
      "pivovar": 7075,
      "vladim": 7076,
      "halvön": 7077,
      "offentliga": 7078,
      "dimension": 7079,
      "poissons": 7080,
      "obrázky": 7081,
      "suggest": 7082,
      "volbách": 7083,
      "brittiska": 7084,
      "field": 7085,
      "knapp": 7086,
      "nourrit": 7087,
      "minulosti": 7088,
      "frankfurt": 7089,
      "názvem": 7090,
      "povstání": 7091,
      "rapide": 7092,
      "minderheit": 7093,
      "capacités": 7094,
      "bolschewiki": 7095,
      "oecd": 7096,
      "cès": 7097,
      "dut": 7098,
      "fett": 7099,
      "golf": 7100,
      "jel": 7101,
      "kern": 7102,
      "lå": 7103,
      "lent": 7104,
      "mill": 7105,
      "nition": 7106,
      "pte": 7107,
      "pendant": 7108,
      "ror": 7109,
      "ril": 7110,
      "rien": 7111,
      "range": 7112,
      "shar": 7113,
      "spart": 7114,
      "smal": 7115,
      "scé": 7116,
      "tle": 7117,
      "tig": 7118,
      "tvá": 7119,
      "tón": 7120,
      "ub": 7121,
      "vue": 7122,
      "vstup": 7123,
      "wander": 7124,
      "xixe": 7125,
      "zü": 7126,
      "zal": 7127,
      "zim": 7128,
      "äd": 7129,
      "êtres": 7130,
      "indem": 7131,
      "inklus": 7132,
      "chi": 7133,
      "chau": 7134,
      "china": 7135,
      "stur": 7136,
      "strom": 7137,
      "stabil": 7138,
      "dech": 7139,
      "lel": 7140,
      "lebe": 7141,
      "armé": 7142,
      "recommen": 7143,
      "atem": 7144,
      "athen": 7145,
      "itung": 7146,
      "almost": 7147,
      "island": 7148,
      "israel": 7149,
      "ilit": 7150,
      "ilien": 7151,
      "section": 7152,
      "raft": 7153,
      "povin": 7154,
      "potom": 7155,
      "theory": 7156,
      "nahme": 7157,
      "nakonec": 7158,
      "ouver": 7159,
      "autour": 7160,
      "ovci": 7161,
      "geg": 7162,
      "nevy": 7163,
      "quun": 7164,
      "quement": 7165,
      "avskaff": 7166,
      "utöver": 7167,
      "utzt": 7168,
      "uttryck": 7169,
      "beck": 7170,
      "bekann": 7171,
      "behav": 7172,
      "desát": 7173,
      "ister": 7174,
      "istes": 7175,
      "totala": 7176,
      "ema": 7177,
      "emig": 7178,
      "probab": 7179,
      "jezer": 7180,
      "kadé": 7181,
      "mad": 7182,
      "male": 7183,
      "machen": 7184,
      "prkop": 7185,
      "odvol": 7186,
      "pare": 7187,
      "party": 7188,
      "iron": 7189,
      "ida": 7190,
      "formed": 7191,
      "pek": 7192,
      "paper": 7193,
      "förs": 7194,
      "fördra": 7195,
      "förmå": 7196,
      "dosud": 7197,
      "contrib": 7198,
      "ansion": 7199,
      "trit": 7200,
      "vede": 7201,
      "pravo": 7202,
      "sah": 7203,
      "sucht": 7204,
      "expo": 7205,
      "expér": 7206,
      "koná": 7207,
      "koncer": 7208,
      "koncent": 7209,
      "vye": 7210,
      "brand": 7211,
      "tilläm": 7212,
      "board": 7213,
      "varav": 7214,
      "varande": 7215,
      "hest": 7216,
      "ierna": 7217,
      "adémie": 7218,
      "syra": 7219,
      "mongol": 7220,
      "ffe": 7221,
      "mif": 7222,
      "valeur": 7223,
      "podpor": 7224,
      "staden": 7225,
      "mary": 7226,
      "market": 7227,
      "northern": 7228,
      "léze": 7229,
      "posléze": 7230,
      "gottheit": 7231,
      "rozdlen": 7232,
      "endre": 7233,
      "bach": 7234,
      "bliche": 7235,
      "worth": 7236,
      "jednou": 7237,
      "pedse": 7238,
      "muss": 7239,
      "regar": 7240,
      "nachdem": 7241,
      "karla": 7242,
      "melons": 7243,
      "beide": 7244,
      "lart": 7245,
      "nií": 7246,
      "högt": 7247,
      "stater": 7248,
      "metall": 7249,
      "historické": 7250,
      "actor": 7251,
      "kult": 7252,
      "heten": 7253,
      "caes": 7254,
      "gros": 7255,
      "dernier": 7256,
      "daraus": 7257,
      "seines": 7258,
      "polské": 7259,
      "ideal": 7260,
      "plement": 7261,
      "mänsk": 7262,
      "ecku": 7263,
      "correspon": 7264,
      "relse": 7265,
      "nouveau": 7266,
      "prvních": 7267,
      "nationale": 7268,
      "oktober": 7269,
      "významu": 7270,
      "primates": 7271,
      "movements": 7272,
      "player": 7273,
      "utilise": 7274,
      "trycket": 7275,
      "vzhle": 7276,
      "pelom": 7277,
      "variation": 7278,
      "äußer": 7279,
      "utvecklades": 7280,
      "zelo": 7281,
      "pisy": 7282,
      "capita": 7283,
      "grekiskan": 7284,
      "hjärt": 7285,
      "anglii": 7286,
      "världs": 7287,
      "afrika": 7288,
      "examples": 7289,
      "individuals": 7290,
      "accounts": 7291,
      "flytande": 7292,
      "kurz": 7293,
      "universel": 7294,
      "tuning": 7295,
      "constant": 7296,
      "increase": 7297,
      "buddha": 7298,
      "moln": 7299,
      "bibl": 7300,
      "griechen": 7301,
      "bönor": 7302,
      "göttliche": 7303,
      "död": 7304,
      "obchodní": 7305,
      "influen": 7306,
      "bewegung": 7307,
      "julius": 7308,
      "huvudsak": 7309,
      "trädde": 7310,
      "gången": 7311,
      "gånger": 7312,
      "hlediska": 7313,
      "widely": 7314,
      "rechts": 7315,
      "subject": 7316,
      "subjekt": 7317,
      "okolí": 7318,
      "antiqu": 7319,
      "éléph": 7320,
      "agrofer": 7321,
      "mörk": 7322,
      "stammar": 7323,
      "außerdem": 7324,
      "hrob": 7325,
      "rudolf": 7326,
      "sprachraum": 7327,
      "erkenntnis": 7328,
      "fréquences": 7329,
      "srp": 7330,
      "chercheurs": 7331,
      "référence": 7332,
      "devant": 7333,
      "levels": 7334,
      "feature": 7335,
      "growth": 7336,
      "genetic": 7337,
      "mykén": 7338,
      "mammif": 7339,
      "grandes": 7340,
      "blieb": 7341,
      "obyvatelstva": 7342,
      "cadre": 7343,
      "guerre": 7344,
      "lässt": 7345,
      "politbüro": 7346,
      "sådana": 7347,
      "persuasion": 7348,
      "dauphins": 7349,
      "hlavn": 7350,
      "slovníkové": 7351,
      "skedde": 7352,
      "commercial": 7353,
      "screening": 7354,
      "expressions": 7355,
      "fünf": 7356,
      "september": 7357,
      "reconnaître": 7358,
      "trafik": 7359,
      "favor": 7360,
      "hnízdo": 7361,
      "unabhängig": 7362,
      "professional": 7363,
      "köpenhamn": 7364,
      "symptoms": 7365,
      "fähigkeit": 7366,
      "ursprünglich": 7367,
      "augustinus": 7368,
      "verständnis": 7369,
      "competitive": 7370,
      "gläub": 7371,
      "nourriture": 7372,
      "aster": 7373,
      "ailleurs": 7374,
      "bia": 7375,
      "bindung": 7376,
      "dligt": 7377,
      "eher": 7378,
      "gis": 7379,
      "gles": 7380,
      "gall": 7381,
      "hi": 7382,
      "hmot": 7383,
      "iant": 7384,
      "iální": 7385,
      "jun": 7386,
      "jut": 7387,
      "jup": 7388,
      "jön": 7389,
      "ked": 7390,
      "kün": 7391,
      "mologie": 7392,
      "oku": 7393,
      "rer": 7394,
      "rand": 7395,
      "satt": 7396,
      "slan": 7397,
      "tiv": 7398,
      "tina": 7399,
      "tête": 7400,
      "vda": 7401,
      "vux": 7402,
      "wolf": 7403,
      "ya": 7404,
      "yo": 7405,
      "yme": 7406,
      "zdenk": 7407,
      "ána": 7408,
      "âce": 7409,
      "enant": 7410,
      "anier": 7411,
      "indo": 7412,
      "chor": 7413,
      "stå": 7414,
      "lei": 7415,
      "lete": 7416,
      "artif": 7417,
      "atus": 7418,
      "itz": 7419,
      "itar": 7420,
      "itálie": 7421,
      "alfred": 7422,
      "isation": 7423,
      "ismes": 7424,
      "unions": 7425,
      "rog": 7426,
      "rout": 7427,
      "ieval": 7428,
      "etic": 7429,
      "ursa": 7430,
      "assa": 7431,
      "enten": 7432,
      "entliche": 7433,
      "entspricht": 7434,
      "skal": 7435,
      "skand": 7436,
      "auteurs": 7437,
      "ove": 7438,
      "ovo": 7439,
      "ovými": 7440,
      "ingår": 7441,
      "olja": 7442,
      "nebyla": 7443,
      "utz": 7444,
      "deseti": 7445,
      "amb": 7446,
      "emper": 7447,
      "verkar": 7448,
      "propres": 7449,
      "tades": 7450,
      "hohen": 7451,
      "jewe": 7452,
      "jeweil": 7453,
      "mex": 7454,
      "fried": 7455,
      "idov": 7456,
      "genre": 7457,
      "logo": 7458,
      "antig": 7459,
      "peván": 7460,
      "pagan": 7461,
      "solid": 7462,
      "cií": 7463,
      "dice": 7464,
      "äng": 7465,
      "ända": 7466,
      "ctif": 7467,
      "concile": 7468,
      "lys": 7469,
      "days": 7470,
      "traten": 7471,
      "mohl": 7472,
      "námon": 7473,
      "cole": 7474,
      "said": 7475,
      "suit": 7476,
      "medieval": 7477,
      "svj": 7478,
      "export": 7479,
      "grön": 7480,
      "grâce": 7481,
      "weder": 7482,
      "weist": 7483,
      "vyd": 7484,
      "jít": 7485,
      "strict": 7486,
      "strong": 7487,
      "bourg": 7488,
      "zaí": 7489,
      "zaji": 7490,
      "phili": 7491,
      "size": 7492,
      "demand": 7493,
      "serna": 7494,
      "skapa": 7495,
      "atelem": 7496,
      "deuter": 7497,
      "sena": 7498,
      "ffen": 7499,
      "átu": 7500,
      "poraz": 7501,
      "tio": 7502,
      "gery": 7503,
      "auferste": 7504,
      "typer": 7505,
      "formulier": 7506,
      "puissance": 7507,
      "canada": 7508,
      "centre": 7509,
      "miljar": 7510,
      "itions": 7511,
      "nejen": 7512,
      "rozhod": 7513,
      "gaz": 7514,
      "better": 7515,
      "válek": 7516,
      "visar": 7517,
      "bapt": 7518,
      "volk": 7519,
      "prevent": 7520,
      "precis": 7521,
      "works": 7522,
      "vrát": 7523,
      "vodní": 7524,
      "anglo": 7525,
      "languages": 7526,
      "väster": 7527,
      "bnp": 7528,
      "domar": 7529,
      "domest": 7530,
      "rené": 7531,
      "henri": 7532,
      "metal": 7533,
      "metoder": 7534,
      "metast": 7535,
      "historien": 7536,
      "disse": 7537,
      "malá": 7538,
      "christoph": 7539,
      "anders": 7540,
      "cycle": 7541,
      "personnes": 7542,
      "technik": 7543,
      "vedle": 7544,
      "získá": 7545,
      "sociala": 7546,
      "produkt": 7547,
      "existuje": 7548,
      "flüs": 7549,
      "ekonomisk": 7550,
      "ovaný": 7551,
      "gelten": 7552,
      "regionala": 7553,
      "ponctu": 7554,
      "samtliga": 7555,
      "definier": 7556,
      "biologie": 7557,
      "nikdy": 7558,
      "préc": 7559,
      "mehrheit": 7560,
      "blí": 7561,
      "dollar": 7562,
      "quelque": 7563,
      "titel": 7564,
      "titul": 7565,
      "titeln": 7566,
      "zákonem": 7567,
      "siècles": 7568,
      "germanique": 7569,
      "pelopon": 7570,
      "hälfte": 7571,
      "vzdlan": 7572,
      "utvecklas": 7573,
      "signal": 7574,
      "sekunder": 7575,
      "izací": 7576,
      "famille": 7577,
      "gramma": 7578,
      "vitesse": 7579,
      "oznail": 7580,
      "oteven": 7581,
      "droit": 7582,
      "skrig": 7583,
      "skriv": 7584,
      "verkas": 7585,
      "mutter": 7586,
      "étude": 7587,
      "ljus": 7588,
      "clava": 7589,
      "lautre": 7590,
      "prises": 7591,
      "societies": 7592,
      "erscheint": 7593,
      "vzdlávání": 7594,
      "funkci": 7595,
      "konstant": 7596,
      "följande": 7597,
      "followed": 7598,
      "größten": 7599,
      "långt": 7600,
      "result": 7601,
      "botan": 7602,
      "territoires": 7603,
      "phrases": 7604,
      "temperaturen": 7605,
      "zeugung": 7606,
      "beschre": 7607,
      "utvecklingen": 7608,
      "folgende": 7609,
      "patrn": 7610,
      "pouívá": 7611,
      "absolut": 7612,
      "wahrnehm": 7613,
      "anglicky": 7614,
      "einzige": 7615,
      "turkiska": 7616,
      "hudby": 7617,
      "mythology": 7618,
      "spojení": 7619,
      "belgien": 7620,
      "sidan": 7621,
      "svatého": 7622,
      "revolutionen": 7623,
      "références": 7624,
      "vítzství": 7625,
      "nouvelles": 7626,
      "deaths": 7627,
      "ökumen": 7628,
      "fontanier": 7629,
      "zpvá": 7630,
      "viktigaste": 7631,
      "theories": 7632,
      "miroir": 7633,
      "designed": 7634,
      "städte": 7635,
      "carolingien": 7636,
      "sweet": 7637,
      "causes": 7638,
      "folkets": 7639,
      "pomocí": 7640,
      "skolan": 7641,
      "zakladatel": 7642,
      "orthodoxen": 7643,
      "distrib": 7644,
      "judaism": 7645,
      "chimpanzés": 7646,
      "hjälp": 7647,
      "étrang": 7648,
      "mémoire": 7649,
      "framstäl": 7650,
      "dabord": 7651,
      "jhwh": 7652,
      "chokladen": 7653,
      "beschrieben": 7654,
      "kobyl": 7655,
      "gorbatschow": 7656,
      "ddictví": 7657,
      "abraham": 7658,
      "patients": 7659,
      "inklusive": 7660,
      "agrofertu": 7661,
      "mammifères": 7662,
      "jeweils": 7663,
      "auferstehung": 7664,
      "miljarder": 7665,
      "batt": 7666,
      "bale": 7667,
      "cil": 7668,
      "cic": 7669,
      "cident": 7670,
      "dum": 7671,
      "dres": 7672,
      "dvoj": 7673,
      "dorigine": 7674,
      "ei": 7675,
      "ewig": 7676,
      "fand": 7677,
      "gla": 7678,
      "ghan": 7679,
      "hoff": 7680,
      "ième": 7681,
      "jist": 7682,
      "kit": 7683,
      "kein": 7684,
      "lla": 7685,
      "lod": 7686,
      "mau": 7687,
      "misch": 7688,
      "miss": 7689,
      "pion": 7690,
      "ritu": 7691,
      "rôle": 7692,
      "squ": 7693,
      "sod": 7694,
      "sland": 7695,
      "spå": 7696,
      "slow": 7697,
      "tw": 7698,
      "tung": 7699,
      "ula": 7700,
      "vall": 7701,
      "vår": 7702,
      "wien": 7703,
      "yer": 7704,
      "zku": 7705,
      "ziel": 7706,
      "ály": 7707,
      "égor": 7708,
      "époque": 7709,
      "úed": 7710,
      "útvar": 7711,
      "ener": 7712,
      "eným": 7713,
      "encoura": 7714,
      "erd": 7715,
      "erster": 7716,
      "ansch": 7717,
      "ini": 7718,
      "chréti": 7719,
      "devra": 7720,
      "determin": 7721,
      "ona": 7722,
      "leto": 7723,
      "lequel": 7724,
      "realis": 7725,
      "reforma": 7726,
      "reprezent": 7727,
      "ati": 7728,
      "atu": 7729,
      "ater": 7730,
      "atlant": 7731,
      "alfab": 7732,
      "iso": 7733,
      "ropo": 7734,
      "round": 7735,
      "roma": 7736,
      "things": 7737,
      "etí": 7738,
      "sektor": 7739,
      "pop": 7740,
      "poko": 7741,
      "popis": 7742,
      "pojetí": 7743,
      "lip": 7744,
      "liqu": 7745,
      "urité": 7746,
      "eldva": 7747,
      "asie": 7748,
      "entste": 7749,
      "skt": 7750,
      "aurait": 7751,
      "cestu": 7752,
      "dennoch": 7753,
      "gemon": 7754,
      "necess": 7755,
      "nefes": 7756,
      "utgiv": 7757,
      "emes": 7758,
      "emerg": 7759,
      "implement": 7760,
      "verdun": 7761,
      "vergleich": 7762,
      "promot": 7763,
      "prosince": 7764,
      "hoe": 7765,
      "jede": 7766,
      "maar": 7767,
      "ivan": 7768,
      "ären": 7769,
      "oty": 7770,
      "parlé": 7771,
      "parag": 7772,
      "irsko": 7773,
      "gens": 7774,
      "lokala": 7775,
      "förklar": 7776,
      "ännu": 7777,
      "dost": 7778,
      "doho": 7779,
      "convention": 7780,
      "akce": 7781,
      "true": 7782,
      "pramen": 7783,
      "manu": 7784,
      "nále": 7785,
      "sap": 7786,
      "sue": 7787,
      "svým": 7788,
      "exchange": 7789,
      "expédition": 7790,
      "kong": 7791,
      "konsum": 7792,
      "notable": 7793,
      "vyet": 7794,
      "vykoná": 7795,
      "strat": 7796,
      "lettre": 7797,
      "vít": 7798,
      "lenin": 7799,
      "demnach": 7800,
      "sert": 7801,
      "francii": 7802,
      "mond": 7803,
      "ffet": 7804,
      "kyn": 7805,
      "opul": 7806,
      "tibet": 7807,
      "gericht": 7808,
      "román": 7809,
      "indre": 7810,
      "iences": 7811,
      "výi": 7812,
      "vým": 7813,
      "výcar": 7814,
      "ireland": 7815,
      "key": 7816,
      "ätz": 7817,
      "pure": 7818,
      "danmarks": 7819,
      "ledov": 7820,
      "minus": 7821,
      "therapy": 7822,
      "rozvin": 7823,
      "rozdíl": 7824,
      "myt": 7825,
      "mylen": 7826,
      "spolek": 7827,
      "volby": 7828,
      "chose": 7829,
      "iella": 7830,
      "valy": 7831,
      "musul": 7832,
      "jiho": 7833,
      "pipad": 7834,
      "bref": 7835,
      "politische": 7836,
      "données": 7837,
      "sprid": 7838,
      "ordför": 7839,
      "mettre": 7840,
      "ished": 7841,
      "bildeten": 7842,
      "actress": 7843,
      "föl": 7844,
      "föres": 7845,
      "föreg": 7846,
      "läng": 7847,
      "tidiga": 7848,
      "debit": 7849,
      "malgré": 7850,
      "messen": 7851,
      "mesure": 7852,
      "cards": 7853,
      "office": 7854,
      "offiz": 7855,
      "official": 7856,
      "zeno": 7857,
      "françaises": 7858,
      "sociální": 7859,
      "produktion": 7860,
      "identisch": 7861,
      "garde": 7862,
      "slovo": 7863,
      "flä": 7864,
      "talar": 7865,
      "issn": 7866,
      "babiovi": 7867,
      "hrady": 7868,
      "druhou": 7869,
      "druhá": 7870,
      "vládu": 7871,
      "corpor": 7872,
      "budov": 7873,
      "hinzu": 7874,
      "dampf": 7875,
      "strukt": 7876,
      "zoaires": 7877,
      "masary": 7878,
      "rats": 7879,
      "ovatel": 7880,
      "mehreren": 7881,
      "highest": 7882,
      "tels": 7883,
      "balt": 7884,
      "traditionen": 7885,
      "quels": 7886,
      "verbot": 7887,
      "echách": 7888,
      "erstmals": 7889,
      "zákony": 7890,
      "renesanci": 7891,
      "träger": 7892,
      "bíl": 7893,
      "vzniku": 7894,
      "skilda": 7895,
      "görs": 7896,
      "dessutom": 7897,
      "hjärtats": 7898,
      "bitter": 7899,
      "pvodu": 7900,
      "bezeichnete": 7901,
      "importance": 7902,
      "kejsar": 7903,
      "prmyslov": 7904,
      "premiers": 7905,
      "ádné": 7906,
      "limate": 7907,
      "allows": 7908,
      "bunde": 7909,
      "purpose": 7910,
      "kriegs": 7911,
      "presented": 7912,
      "erscheinen": 7913,
      "close": 7914,
      "pedagogiska": 7915,
      "aspects": 7916,
      "pozici": 7917,
      "provides": 7918,
      "community": 7919,
      "minutes": 7920,
      "foundation": 7921,
      "följd": 7922,
      "grenze": 7923,
      "grenzen": 7924,
      "volume": 7925,
      "jednoho": 7926,
      "nämn": 7927,
      "harmonic": 7928,
      "trädare": 7929,
      "medlems": 7930,
      "realität": 7931,
      "persön": 7932,
      "uvedl": 7933,
      "pevn": 7934,
      "rätten": 7935,
      "gelegt": 7936,
      "methods": 7937,
      "velký": 7938,
      "pronik": 7939,
      "compte": 7940,
      "romantiska": 7941,
      "médié": 7942,
      "ervnu": 7943,
      "uppgifter": 7944,
      "couronnement": 7945,
      "features": 7946,
      "vztah": 7947,
      "orchestr": 7948,
      "antonín": 7949,
      "champions": 7950,
      "kilometer": 7951,
      "mladí": 7952,
      "vätgas": 7953,
      "ähnlich": 7954,
      "scientific": 7955,
      "additional": 7956,
      "höchsten": 7957,
      "côté": 7958,
      "allgemeinen": 7959,
      "average": 7960,
      "sacred": 7961,
      "difficult": 7962,
      "ställning": 7963,
      "podezení": 7964,
      "conditions": 7965,
      "diplom": 7966,
      "zahrnu": 7967,
      "sémantique": 7968,
      "hudební": 7969,
      "ochrán": 7970,
      "narodil": 7971,
      "geburt": 7972,
      "hinsichtlich": 7973,
      "údolí": 7974,
      "scotland": 7975,
      "business": 7976,
      "varietäten": 7977,
      "zaátku": 7978,
      "caused": 7979,
      "cacao": 7980,
      "fingers": 7981,
      "anhänger": 7982,
      "pohoí": 7983,
      "perioden": 7984,
      "související": 7985,
      "défense": 7986,
      "travail": 7987,
      "vzhledem": 7988,
      "nefesch": 7989,
      "ao": 7990,
      "ax": 7991,
      "abe": 7992,
      "apr": 7993,
      "aient": 7994,
      "brou": 7995,
      "dä": 7996,
      "dhar": 7997,
      "dvr": 7998,
      "dite": 7999,
      "eis": 8000,
      "flag": 8001,
      "flam": 8002,
      "gil": 8003,
      "gär": 8004,
      "gold": 8005,
      "hun": 8006,
      "hors": 8007,
      "ije": 8008,
      "lunivers": 8009,
      "lutilisation": 8010,
      "mê": 8011,
      "mant": 8012,
      "oi": 8013,
      "oil": 8014,
      "pent": 8015,
      "pund": 8016,
      "pus": 8017,
      "pines": 8018,
      "rate": 8019,
      "rise": 8020,
      "sist": 8021,
      "sbor": 8022,
      "silo": 8023,
      "srov": 8024,
      "slightly": 8025,
      "tm": 8026,
      "tó": 8027,
      "tone": 8028,
      "täck": 8029,
      "vå": 8030,
      "vot": 8031,
      "wic": 8032,
      "xvi": 8033,
      "xxe": 8034,
      "álu": 8035,
      "äk": 8036,
      "éc": 8037,
      "ökat": 8038,
      "ústí": 8039,
      "chans": 8040,
      "chud": 8041,
      "ston": 8042,
      "stov": 8043,
      "stäm": 8044,
      "deposit": 8045,
      "once": 8046,
      "leh": 8047,
      "least": 8048,
      "reformen": 8049,
      "itage": 8050,
      "isant": 8051,
      "unced": 8052,
      "essent": 8053,
      "roger": 8054,
      "thographe": 8055,
      "iede": 8056,
      "ieuse": 8057,
      "sebe": 8058,
      "seven": 8059,
      "rac": 8060,
      "povrch": 8061,
      "posvát": 8062,
      "named": 8063,
      "skans": 8064,
      "olo": 8065,
      "olit": 8066,
      "gefü": 8067,
      "neme": 8068,
      "iced": 8069,
      "icism": 8070,
      "utt": 8071,
      "utbild": 8072,
      "utrikes": 8073,
      "behaupt": 8074,
      "bezug": 8075,
      "offe": 8076,
      "design": 8077,
      "tos": 8078,
      "imman": 8079,
      "verstorben": 8080,
      "uspoá": 8081,
      "proper": 8082,
      "probí": 8083,
      "tad": 8084,
      "kazuje": 8085,
      "obr": 8086,
      "obvody": 8087,
      "meant": 8088,
      "otáz": 8089,
      "fré": 8090,
      "idata": 8091,
      "forder": 8092,
      "uml": 8093,
      "above": 8094,
      "soz": 8095,
      "dian": 8096,
      "diver": 8097,
      "dokáz": 8098,
      "iller": 8099,
      "ansvar": 8100,
      "zek": 8101,
      "praxis": 8102,
      "mana": 8103,
      "coast": 8104,
      "koncem": 8105,
      "konservat": 8106,
      "vytvá": 8107,
      "upper": 8108,
      "jího": 8109,
      "strål": 8110,
      "boles": 8111,
      "heli": 8112,
      "heben": 8113,
      "pln": 8114,
      "plant": 8115,
      "zaps": 8116,
      "zastá": 8117,
      "adní": 8118,
      "phes": 8119,
      "phil": 8120,
      "lensemble": 8121,
      "estet": 8122,
      "monte": 8123,
      "monost": 8124,
      "ausdrück": 8125,
      "steg": 8126,
      "delarna": 8127,
      "indigen": 8128,
      "déta": 8129,
      "fach": 8130,
      "vývoje": 8131,
      "travers": 8132,
      "norska": 8133,
      "danger": 8134,
      "centrem": 8135,
      "ledge": 8136,
      "ledning": 8137,
      "rozdlení": 8138,
      "rozvoje": 8139,
      "hnt": 8140,
      "mylení": 8141,
      "beträ": 8142,
      "nytt": 8143,
      "ptation": 8144,
      "visat": 8145,
      "bacon": 8146,
      "working": 8147,
      "jednu": 8148,
      "mera": 8149,
      "mathem": 8150,
      "partier": 8151,
      "partner": 8152,
      "wiegend": 8153,
      "wach": 8154,
      "ously": 8155,
      "wirken": 8156,
      "breton": 8157,
      "feel": 8158,
      "kraji": 8159,
      "ämnen": 8160,
      "folgt": 8161,
      "larna": 8162,
      "vtiny": 8163,
      "britann": 8164,
      "frame": 8165,
      "styles": 8166,
      "höger": 8167,
      "höher": 8168,
      "wikidata": 8169,
      "bildet": 8170,
      "föra": 8171,
      "slezských": 8172,
      "celého": 8173,
      "darauf": 8174,
      "ardö": 8175,
      "kort": 8176,
      "polsko": 8177,
      "hora": 8178,
      "horse": 8179,
      "eskými": 8180,
      "ided": 8181,
      "vedl": 8182,
      "vedou": 8183,
      "stíhá": 8184,
      "jordens": 8185,
      "produit": 8186,
      "ecký": 8187,
      "dání": 8188,
      "weitgehend": 8189,
      "grundlage": 8190,
      "weltkrieg": 8191,
      "mostly": 8192,
      "platser": 8193,
      "shiva": 8194,
      "italy": 8195,
      "help": 8196,
      "systemet": 8197,
      "státem": 8198,
      "králové": 8199,
      "certaine": 8200,
      "latiny": 8201,
      "kammare": 8202,
      "romane": 8203,
      "válku": 8204,
      "definitiv": 8205,
      "distance": 8206,
      "månen": 8207,
      "makes": 8208,
      "classes": 8209,
      "egypt": 8210,
      "ovací": 8211,
      "cities": 8212,
      "nmecku": 8213,
      "významnou": 8214,
      "kinder": 8215,
      "begriffe": 8216,
      "lovk": 8217,
      "lovka": 8218,
      "europé": 8219,
      "utilisés": 8220,
      "utilisée": 8221,
      "mutation": 8222,
      "mäß": 8223,
      "mächt": 8224,
      "entwickelt": 8225,
      "principal": 8226,
      "kejsardö": 8227,
      "journal": 8228,
      "handelt": 8229,
      "filosofi": 8230,
      "gods": 8231,
      "skupina": 8232,
      "kyrk": 8233,
      "trouver": 8234,
      "seconde": 8235,
      "cognition": 8236,
      "österrike": 8237,
      "härsk": 8238,
      "nového": 8239,
      "tání": 8240,
      "highly": 8241,
      "gesamten": 8242,
      "external": 8243,
      "kristna": 8244,
      "kristend": 8245,
      "sammanhang": 8246,
      "arabiska": 8247,
      "machte": 8248,
      "svtového": 8249,
      "europäische": 8250,
      "provided": 8251,
      "modell": 8252,
      "výraz": 8253,
      "reduce": 8254,
      "souasn": 8255,
      "liberal": 8256,
      "prezidenta": 8257,
      "kriget": 8258,
      "zählen": 8259,
      "ideologi": 8260,
      "zeugt": 8261,
      "introduction": 8262,
      "religiösen": 8263,
      "normalt": 8264,
      "jediným": 8265,
      "stopped": 8266,
      "documents": 8267,
      "alternative": 8268,
      "neutral": 8269,
      "andererseits": 8270,
      "wandel": 8271,
      "zvlátní": 8272,
      "gruppe": 8273,
      "buddhism": 8274,
      "growing": 8275,
      "jacob": 8276,
      "smrti": 8277,
      "diverses": 8278,
      "hinduismus": 8279,
      "multiple": 8280,
      "mikul": 8281,
      "division": 8282,
      "leading": 8283,
      "údajn": 8284,
      "bewusst": 8285,
      "frågan": 8286,
      "höjd": 8287,
      "dubna": 8288,
      "ouvrages": 8289,
      "atmosfären": 8290,
      "variante": 8291,
      "letzten": 8292,
      "vanligaste": 8293,
      "psykolog": 8294,
      "communi": 8295,
      "jordbruket": 8296,
      "informace": 8297,
      "mittler": 8298,
      "viiie": 8299,
      "opérations": 8300,
      "dsledku": 8301,
      "zástupce": 8302,
      "rzné": 8303,
      "íjna": 8304,
      "phabet": 8305,
      "matematik": 8306,
      "printed": 8307,
      "football": 8308,
      "ryssland": 8309,
      "ambassade": 8310,
      "scholars": 8311,
      "méthode": 8312,
      "bratislav": 8313,
      "jeliko": 8314,
      "pipojen": 8315,
      "syftar": 8316,
      "katedrála": 8317,
      "usnesení": 8318,
      "inkluderar": 8319,
      "pelomu": 8320,
      "jeweiligen": 8321,
      "antigon": 8322,
      "deuterium": 8323,
      "alfabet": 8324,
      "mathemat": 8325,
      "agr": 8326,
      "cové": 8327,
      "clar": 8328,
      "dus": 8329,
      "dür": 8330,
      "eb": 8331,
      "eky": 8332,
      "evolution": 8333,
      "fou": 8334,
      "fisk": 8335,
      "fåg": 8336,
      "gy": 8337,
      "gul": 8338,
      "hc": 8339,
      "iber": 8340,
      "jö": 8341,
      "jul": 8342,
      "kce": 8343,
      "mü": 8344,
      "mý": 8345,
      "mieux": 8346,
      "nier": 8347,
      "nelle": 8348,
      "nkde": 8349,
      "oden": 8350,
      "pê": 8351,
      "pát": 8352,
      "pts": 8353,
      "pán": 8354,
      "pelle": 8355,
      "rare": 8356,
      "rätta": 8357,
      "smit": 8358,
      "sjedno": 8359,
      "telle": 8360,
      "ulaire": 8361,
      "vement": 8362,
      "vlt": 8363,
      "zor": 8364,
      "zet": 8365,
      "zní": 8366,
      "zvy": 8367,
      "zvý": 8368,
      "ztrat": 8369,
      "áci": 8370,
      "ázelo": 8371,
      "èse": 8372,
      "ít": 8373,
      "ól": 8374,
      "ów": 8375,
      "ensuite": 8376,
      "erb": 8377,
      "erande": 8378,
      "anie": 8379,
      "inav": 8380,
      "innen": 8381,
      "chap": 8382,
      "challen": 8383,
      "stern": 8384,
      "stammen": 8385,
      "deta": 8386,
      "leder": 8387,
      "arf": 8388,
      "arme": 8389,
      "argu": 8390,
      "armand": 8391,
      "reag": 8392,
      "revs": 8393,
      "atl": 8394,
      "itation": 8395,
      "itself": 8396,
      "alb": 8397,
      "albert": 8398,
      "isi": 8399,
      "isons": 8400,
      "essa": 8401,
      "roland": 8402,
      "etr": 8403,
      "seur": 8404,
      "ram": 8405,
      "pot": 8406,
      "poda": 8407,
      "pokra": 8408,
      "lidu": 8409,
      "liens": 8410,
      "uran": 8411,
      "asii": 8412,
      "andis": 8413,
      "ovice": 8414,
      "gether": 8415,
      "ney": 8416,
      "near": 8417,
      "never": 8418,
      "nemá": 8419,
      "nebylo": 8420,
      "avan": 8421,
      "bestehen": 8422,
      "bekannt": 8423,
      "terre": 8424,
      "amin": 8425,
      "ament": 8426,
      "amateur": 8427,
      "tool": 8428,
      "tours": 8429,
      "together": 8430,
      "emon": 8431,
      "verkan": 8432,
      "verlor": 8433,
      "vertrat": 8434,
      "usale": 8435,
      "proph": 8436,
      "propose": 8437,
      "hokej": 8438,
      "prun": 8439,
      "prennent": 8440,
      "prenant": 8441,
      "odpov": 8442,
      "schop": 8443,
      "schrieb": 8444,
      "umstritten": 8445,
      "loin": 8446,
      "lois": 8447,
      "abs": 8448,
      "absor": 8449,
      "antika": 8450,
      "permit": 8451,
      "pertin": 8452,
      "ull": 8453,
      "tenu": 8454,
      "tenis": 8455,
      "cien": 8456,
      "dosa": 8457,
      "dostal": 8458,
      "dosav": 8459,
      "conclu": 8460,
      "consacré": 8461,
      "lym": 8462,
      "praský": 8463,
      "prague": 8464,
      "bergen": 8465,
      "saxe": 8466,
      "sugar": 8467,
      "sví": 8468,
      "extra": 8469,
      "kontra": 8470,
      "comprendre": 8471,
      "vyme": 8472,
      "upon": 8473,
      "ploch": 8474,
      "plural": 8475,
      "letzte": 8476,
      "krim": 8477,
      "lue": 8478,
      "adver": 8479,
      "adje": 8480,
      "leny": 8481,
      "skaper": 8482,
      "påverkas": 8483,
      "soustav": 8484,
      "ateurs": 8485,
      "vodem": 8486,
      "hart": 8487,
      "optim": 8488,
      "átní": 8489,
      "auflage": 8490,
      "aufgabe": 8491,
      "typo": 8492,
      "herz": 8493,
      "téma": 8494,
      "sicher": 8495,
      "normand": 8496,
      "osí": 8497,
      "spielt": 8498,
      "lés": 8499,
      "lécrit": 8500,
      "kommission": 8501,
      "poss": 8502,
      "nejprve": 8503,
      "slä": 8504,
      "dynam": 8505,
      "års": 8506,
      "myst": 8507,
      "access": 8508,
      "ganz": 8509,
      "volks": 8510,
      "blivit": 8511,
      "engine": 8512,
      "pedtím": 8513,
      "joy": 8514,
      "johan": 8515,
      "regn": 8516,
      "regierung": 8517,
      "pige": 8518,
      "pijí": 8519,
      "pizz": 8520,
      "zni": 8521,
      "znovu": 8522,
      "besky": 8523,
      "plain": 8524,
      "liest": 8525,
      "ließen": 8526,
      "vtinou": 8527,
      "ersatt": 8528,
      "ersetzt": 8529,
      "jenigen": 8530,
      "frauen": 8531,
      "stylu": 8532,
      "statut": 8533,
      "sollen": 8534,
      "trots": 8535,
      "historiens": 8536,
      "bildar": 8537,
      "rusko": 8538,
      "längs": 8539,
      "messages": 8540,
      "ground": 8541,
      "nova": 8542,
      "noviná": 8543,
      "celkové": 8544,
      "bort": 8545,
      "noms": 8546,
      "dark": 8547,
      "darüber": 8548,
      "otherapy": 8549,
      "staré": 8550,
      "horn": 8551,
      "horním": 8552,
      "evropskou": 8553,
      "lagstift": 8554,
      "ilian": 8555,
      "selves": 8556,
      "zízení": 8557,
      "buil": 8558,
      "buje": 8559,
      "teilt": 8560,
      "ecká": 8561,
      "existiert": 8562,
      "zvuk": 8563,
      "reiches": 8564,
      "flü": 8565,
      "texts": 8566,
      "jinak": 8567,
      "värme": 8568,
      "jícím": 8569,
      "kulturu": 8570,
      "hraje": 8571,
      "hradu": 8572,
      "ship": 8573,
      "republice": 8574,
      "braz": 8575,
      "direc": 8576,
      "znání": 8577,
      "använda": 8578,
      "neuro": 8579,
      "cules": 8580,
      "náboenské": 8581,
      "ägyp": 8582,
      "fonde": 8583,
      "rates": 8584,
      "ovaných": 8585,
      "führten": 8586,
      "positionen": 8587,
      "earliest": 8588,
      "fenomen": 8589,
      "worldwide": 8590,
      "piele": 8591,
      "players": 8592,
      "satta": 8593,
      "utiliser": 8594,
      "ymie": 8595,
      "curren": 8596,
      "legis": 8597,
      "materiell": 8598,
      "nedost": 8599,
      "universities": 8600,
      "classique": 8601,
      "violinists": 8602,
      "vznikl": 8603,
      "vzniklo": 8604,
      "germanischen": 8605,
      "hålla": 8606,
      "river": 8607,
      "vlastnosti": 8608,
      "gemeinschaft": 8609,
      "högst": 8610,
      "kritiz": 8611,
      "fattar": 8612,
      "kreuz": 8613,
      "references": 8614,
      "allemand": 8615,
      "campagne": 8616,
      "ostatních": 8617,
      "blodet": 8618,
      "premié": 8619,
      "virtu": 8620,
      "lingua": 8621,
      "elezniních": 8622,
      "themselves": 8623,
      "cyperns": 8624,
      "získala": 8625,
      "získali": 8626,
      "originally": 8627,
      "femin": 8628,
      "skupin": 8629,
      "allowing": 8630,
      "gemensamt": 8631,
      "gjort": 8632,
      "francophone": 8633,
      "fourth": 8634,
      "règles": 8635,
      "paraît": 8636,
      "cross": 8637,
      "concerne": 8638,
      "genannte": 8639,
      "minuter": 8640,
      "processed": 8641,
      "hochdeutsch": 8642,
      "verbreitung": 8643,
      "nämlich": 8644,
      "obchodu": 8645,
      "januar": 8646,
      "beispiele": 8647,
      "výrob": 8648,
      "cussion": 8649,
      "framförallt": 8650,
      "územní": 8651,
      "stieg": 8652,
      "architektura": 8653,
      "lateinisch": 8654,
      "beziehung": 8655,
      "griechische": 8656,
      "trestní": 8657,
      "mariage": 8658,
      "hospodáství": 8659,
      "distingu": 8660,
      "möjlighet": 8661,
      "knü": 8662,
      "minoritet": 8663,
      "förenade": 8664,
      "metropolit": 8665,
      "stetu": 8666,
      "emotion": 8667,
      "irak": 8668,
      "ights": 8669,
      "birth": 8670,
      "accents": 8671,
      "preuß": 8672,
      "activity": 8673,
      "schöpfer": 8674,
      "pestoe": 8675,
      "éditions": 8676,
      "indicated": 8677,
      "chronique": 8678,
      "bavière": 8679,
      "broadcast": 8680,
      "behövs": 8681,
      "perspektiv": 8682,
      "ographie": 8683,
      "kanoner": 8684,
      "církve": 8685,
      "begründet": 8686,
      "ouvrage": 8687,
      "výjimkou": 8688,
      "lánky": 8689,
      "jednak": 8690,
      "portugal": 8691,
      "micr": 8692,
      "discover": 8693,
      "feuer": 8694,
      "cizinc": 8695,
      "taiwan": 8696,
      "prohlásil": 8697,
      "permanent": 8698,
      "olympijských": 8699,
      "kruh": 8700,
      "respectively": 8701,
      "zamstnan": 8702,
      "ekosystém": 8703,
      "protestant": 8704,
      "phänomene": 8705,
      "wichtigsten": 8706,
      "vocab": 8707,
      "recherches": 8708,
      "manipul": 8709,
      "succession": 8710,
      "senátoi": 8711,
      "survival": 8712,
      "demokracie": 8713,
      "dostupné": 8714,
      "vladimír": 8715,
      "smaller": 8716,
      "regarded": 8717,
      "mänskliga": 8718,
      "senaste": 8719,
      "entstehung": 8720,
      "medlemsstat": 8721,
      "bc": 8722,
      "bell": 8723,
      "bure": 8724,
      "climate": 8725,
      "dish": 8726,
      "eus": 8727,
      "fie": 8728,
      "fire": 8729,
      "gia": 8730,
      "give": 8731,
      "gouver": 8732,
      "hres": 8733,
      "hinter": 8734,
      "jmy": 8735,
      "lum": 8736,
      "mra": 8737,
      "mise": 8738,
      "mobil": 8739,
      "nmu": 8740,
      "njak": 8741,
      "når": 8742,
      "noval": 8743,
      "nont": 8744,
      "oí": 8745,
      "oit": 8746,
      "obe": 8747,
      "opráv": 8748,
      "pdy": 8749,
      "pite": 8750,
      "rêt": 8751,
      "sbí": 8752,
      "til": 8753,
      "ust": 8754,
      "uení": 8755,
      "uhlí": 8756,
      "vand": 8757,
      "vog": 8758,
      "vital": 8759,
      "wr": 8760,
      "wy": 8761,
      "wiesen": 8762,
      "xii": 8763,
      "yr": 8764,
      "zau": 8765,
      "zstá": 8766,
      "zkrat": 8767,
      "ále": 8768,
      "ège": 8769,
      "èdent": 8770,
      "émotion": 8771,
      "enheter": 8772,
      "enseig": 8773,
      "erfa": 8774,
      "anth": 8775,
      "anne": 8776,
      "insp": 8777,
      "infe": 8778,
      "inhard": 8779,
      "chop": 8780,
      "stö": 8781,
      "def": 8782,
      "devel": 8783,
      "decre": 8784,
      "deleg": 8785,
      "learn": 8786,
      "leffet": 8787,
      "arm": 8788,
      "arth": 8789,
      "aries": 8790,
      "rele": 8791,
      "redon": 8792,
      "rezer": 8793,
      "atd": 8794,
      "athan": 8795,
      "items": 8796,
      "rous": 8797,
      "laur": 8798,
      "laide": 8799,
      "laquelle": 8800,
      "secur": 8801,
      "sequent": 8802,
      "sechs": 8803,
      "derived": 8804,
      "rain": 8805,
      "poas": 8806,
      "povol": 8807,
      "lien": 8808,
      "assimil": 8809,
      "nazi": 8810,
      "sklá": 8811,
      "skraft": 8812,
      "oured": 8813,
      "auth": 8814,
      "teprve": 8815,
      "ovic": 8816,
      "dení": 8817,
      "níkem": 8818,
      "neck": 8819,
      "quint": 8820,
      "icato": 8821,
      "uted": 8822,
      "bever": 8823,
      "descri": 8824,
      "amér": 8825,
      "imig": 8826,
      "immen": 8827,
      "verka": 8828,
      "proven": 8829,
      "prová": 8830,
      "holi": 8831,
      "lespagnol": 8832,
      "jeu": 8833,
      "kale": 8834,
      "prå": 8835,
      "prior": 8836,
      "odhad": 8837,
      "ivt": 8838,
      "obvin": 8839,
      "mesta": 8840,
      "schen": 8841,
      "fria": 8842,
      "byt": 8843,
      "fors": 8844,
      "umfasst": 8845,
      "gene": 8846,
      "look": 8847,
      "antingen": 8848,
      "persi": 8849,
      "past": 8850,
      "sobem": 8851,
      "diam": 8852,
      "ändra": 8853,
      "doivent": 8854,
      "ctr": 8855,
      "ctal": 8856,
      "context": 8857,
      "dafr": 8858,
      "vek": 8859,
      "mode": 8860,
      "prag": 8861,
      "pravy": 8862,
      "praských": 8863,
      "názvu": 8864,
      "medical": 8865,
      "wech": 8866,
      "vystav": 8867,
      "uppt": 8868,
      "brut": 8869,
      "brno": 8870,
      "tillstånd": 8871,
      "boje": 8872,
      "mentalen": 8873,
      "leté": 8874,
      "letit": 8875,
      "ady": 8876,
      "phase": 8877,
      "lenem": 8878,
      "sibil": 8879,
      "skapet": 8880,
      "skapen": 8881,
      "mona": 8882,
      "monet": 8883,
      "ånga": 8884,
      "final": 8885,
      "viii": 8886,
      "opav": 8887,
      "mio": 8888,
      "mix": 8889,
      "porten": 8890,
      "litr": 8891,
      "samling": 8892,
      "romans": 8893,
      "tymologie": 8894,
      "cerveau": 8895,
      "détermin": 8896,
      "faite": 8897,
      "fauna": 8898,
      "výzkum": 8899,
      "térie": 8900,
      "píli": 8901,
      "pítom": 8902,
      "pírody": 8903,
      "stojí": 8904,
      "république": 8905,
      "spie": 8906,
      "ladislav": 8907,
      "tuje": 8908,
      "ifique": 8909,
      "milan": 8910,
      "komise": 8911,
      "posí": 8912,
      "insofern": 8913,
      "minim": 8914,
      "nejmén": 8915,
      "nejdleit": 8916,
      "éry": 8917,
      "koal": 8918,
      "václava": 8919,
      "visa": 8920,
      "visade": 8921,
      "volun": 8922,
      "prefer": 8923,
      "merk": 8924,
      "mers": 8925,
      "stige": 8926,
      "wahl": 8927,
      "hust": 8928,
      "humaine": 8929,
      "pipom": 8930,
      "pihlá": 8931,
      "vrst": 8932,
      "znal": 8933,
      "angel": 8934,
      "bred": 8935,
      "politisk": 8936,
      "ernst": 8937,
      "uppsk": 8938,
      "linné": 8939,
      "kenntnis": 8940,
      "folger": 8941,
      "patil": 8942,
      "britský": 8943,
      "template": 8944,
      "draw": 8945,
      "wikic": 8946,
      "ötter": 8947,
      "stated": 8948,
      "statsche": 8949,
      "historiskt": 8950,
      "annt": 8951,
      "ruska": 8952,
      "ickém": 8953,
      "státním": 8954,
      "státních": 8955,
      "discussion": 8956,
      "spect": 8957,
      "celá": 8958,
      "celou": 8959,
      "carlom": 8960,
      "livs": 8961,
      "horno": 8962,
      "vané": 8963,
      "vaný": 8964,
      "penz": 8965,
      "pense": 8966,
      "personne": 8967,
      "aded": 8968,
      "lagförslag": 8969,
      "kolství": 8970,
      "rym": 8971,
      "talets": 8972,
      "sell": 8973,
      "ligaste": 8974,
      "built": 8975,
      "teilung": 8976,
      "exemples": 8977,
      "lingar": 8978,
      "stuart": 8979,
      "englands": 8980,
      "dreie": 8981,
      "svtová": 8982,
      "weltseele": 8983,
      "flot": 8984,
      "textu": 8985,
      "takto": 8986,
      "ättning": 8987,
      "shak": 8988,
      "should": 8989,
      "obyv": 8990,
      "corre": 8991,
      "padl": 8992,
      "lebenden": 8993,
      "getren": 8994,
      "marknaden": 8995,
      "zentrale": 8996,
      "zeitig": 8997,
      "národnost": 8998,
      "företrädare": 8999,
      "wesentlichen": 9000,
      "wild": 9001,
      "précé": 9002,
      "présence": 9003,
      "hranici": 9004,
      "brown": 9005,
      "hamburg": 9006,
      "tvoili": 9007,
      "universum": 9008,
      "courant": 9009,
      "medeltid": 9010,
      "medeltidens": 9011,
      "psychology": 9012,
      "jménem": 9013,
      "vzdálen": 9014,
      "fully": 9015,
      "geblich": 9016,
      "gebunden": 9017,
      "particuli": 9018,
      "významný": 9019,
      "svenskans": 9020,
      "éginhard": 9021,
      "drott": 9022,
      "utilisent": 9023,
      "literatury": 9024,
      "základy": 9025,
      "zaloeno": 9026,
      "premiéra": 9027,
      "chemotherapy": 9028,
      "mächte": 9029,
      "stoupení": 9030,
      "stoupila": 9031,
      "rumän": 9032,
      "individuelle": 9033,
      "problé": 9034,
      "kakaom": 9035,
      "majoritet": 9036,
      "herrn": 9037,
      "ariat": 9038,
      "främsta": 9039,
      "claim": 9040,
      "invasion": 9041,
      "jamais": 9042,
      "betydande": 9043,
      "relativn": 9044,
      "växt": 9045,
      "levant": 9046,
      "groupes": 9047,
      "kvinn": 9048,
      "bibli": 9049,
      "veejn": 9050,
      "veejné": 9051,
      "azte": 9052,
      "lebt": 9053,
      "späteren": 9054,
      "règle": 9055,
      "kontroll": 9056,
      "elimin": 9057,
      "collection": 9058,
      "byzantine": 9059,
      "pravd": 9060,
      "nmc": 9061,
      "smyslu": 9062,
      "avaient": 9063,
      "contraire": 9064,
      "vielmehr": 9065,
      "poátkem": 9066,
      "private": 9067,
      "privile": 9068,
      "významné": 9069,
      "tiere": 9070,
      "annahme": 9071,
      "infördes": 9072,
      "bemü": 9073,
      "religiöse": 9074,
      "connaissance": 9075,
      "gräns": 9076,
      "directors": 9077,
      "continued": 9078,
      "lacadémie": 9079,
      "kräfte": 9080,
      "ethn": 9081,
      "kvtnu": 9082,
      "außerhalb": 9083,
      "editing": 9084,
      "doccident": 9085,
      "nimmt": 9086,
      "fréquence": 9087,
      "dosáhl": 9088,
      "návrh": 9089,
      "konzul": 9090,
      "facto": 9091,
      "facilit": 9092,
      "trestního": 9093,
      "automobil": 9094,
      "knihov": 9095,
      "viktor": 9096,
      "påverkar": 9097,
      "spoleenství": 9098,
      "církevní": 9099,
      "zpsobem": 9100,
      "activities": 9101,
      "unterschiede": 9102,
      "aucun": 9103,
      "umlecké": 9104,
      "nejznámjím": 9105,
      "scientifique": 9106,
      "lèves": 9107,
      "combined": 9108,
      "údaj": 9109,
      "perspective": 9110,
      "obyvatelstvo": 9111,
      "fråga": 9112,
      "carolingiens": 9113,
      "observations": 9114,
      "trennung": 9115,
      "gebracht": 9116,
      "fiddle": 9117,
      "verfassung": 9118,
      "svårt": 9119,
      "spisov": 9120,
      "caractères": 9121,
      "nacist": 9122,
      "customers": 9123,
      "öffentlichen": 9124,
      "résultats": 9125,
      "database": 9126,
      "bönder": 9127,
      "permettent": 9128,
      "förändringar": 9129,
      "characters": 9130,
      "wichtige": 9131,
      "leonar": 9132,
      "einwohner": 9133,
      "luxemburg": 9134,
      "évê": 9135,
      "myndigheter": 9136,
      "short": 9137,
      "limage": 9138,
      "komplex": 9139,
      "rugby": 9140,
      "världskrig": 9141,
      "pomrn": 9142,
      "dlouhodob": 9143,
      "énoncé": 9144,
      "etabler": 9145,
      "gebiete": 9146,
      "described": 9147,
      "tramva": 9148,
      "généralement": 9149,
      "phénomène": 9150,
      "demonstra": 9151,
      "occasion": 9152,
      "kakaosmör": 9153,
      "rapidement": 9154,
      "lebewesen": 9155,
      "behavior": 9156,
      "förmåga": 9157,
      "éléphants": 9158,
      "young": 9159,
      "ponctuation": 9160,
      "peloponé": 9161,
      "emerged": 9162,
      "april": 9163,
      "strålning": 9164,
      "beträgt": 9165,
      "stíhání": 9166,
      "pizzicato": 9167,
      "developer": 9168,
      "security": 9169,
      "poasí": 9170,
      "carloman": 9171,
      "världskriget": 9172,
      "apol": 9173,
      "dde": 9174,
      "dich": 9175,
      "dän": 9176,
      "dvod": 9177,
      "dán": 9178,
      "ege": 9179,
      "ehem": 9180,
      "fjär": 9181,
      "gon": 9182,
      "gat": 9183,
      "gnost": 9184,
      "haus": 9185,
      "kü": 9186,
      "kým": 9187,
      "keinen": 9188,
      "lde": 9189,
      "lín": 9190,
      "mru": 9191,
      "niska": 9192,
      "nkteí": 9193,
      "oste": 9194,
      "olas": 9195,
      "osvob": 9196,
      "pfen": 9197,
      "sco": 9198,
      "scen": 9199,
      "savoir": 9200,
      "tles": 9201,
      "tisk": 9202,
      "tard": 9203,
      "tandis": 9204,
      "vze": 9205,
      "vita": 9206,
      "wall": 9207,
      "wish": 9208,
      "zit": 9209,
      "ziv": 9210,
      "zdra": 9211,
      "zone": 9212,
      "ziert": 9213,
      "zmín": 9214,
      "áka": 9215,
      "átek": 9216,
      "éma": 9217,
      "ény": 9218,
      "ímany": 9219,
      "ökad": 9220,
      "úz": 9221,
      "erné": 9222,
      "erkän": 9223,
      "anno": 9224,
      "anism": 9225,
      "année": 9226,
      "angenommen": 9227,
      "inen": 9228,
      "inher": 9229,
      "intu": 9230,
      "inking": 9231,
      "instan": 9232,
      "innosti": 9233,
      "inhalt": 9234,
      "chiff": 9235,
      "stick": 9236,
      "stone": 9237,
      "delas": 9238,
      "decem": 9239,
      "ony": 9240,
      "reis": 9241,
      "rely": 9242,
      "remov": 9243,
      "alte": 9244,
      "alco": 9245,
      "isa": 9246,
      "isiert": 9247,
      "unde": 9248,
      "romains": 9249,
      "thcentury": 9250,
      "lair": 9251,
      "etiny": 9252,
      "oman": 9253,
      "secret": 9254,
      "polá": 9255,
      "urer": 9256,
      "entire": 9257,
      "entstand": 9258,
      "nami": 9259,
      "skå": 9260,
      "skrevs": 9261,
      "edom": 9262,
      "teplot": 9263,
      "ovský": 9264,
      "ingre": 9265,
      "geolog": 9266,
      "gebet": 9267,
      "geleg": 9268,
      "geführt": 9269,
      "níci": 9270,
      "neja": 9271,
      "quence": 9272,
      "avse": 9273,
      "utgjorde": 9274,
      "utländska": 9275,
      "befin": 9276,
      "deset": 9277,
      "deshalb": 9278,
      "igte": 9279,
      "ama": 9280,
      "tok": 9281,
      "imon": 9282,
      "impro": 9283,
      "impa": 9284,
      "images": 9285,
      "versteht": 9286,
      "prof": 9287,
      "prou": 9288,
      "prosla": 9289,
      "taire": 9290,
      "taking": 9291,
      "hoc": 9292,
      "hole": 9293,
      "jev": 9294,
      "mac": 9295,
      "odlin": 9296,
      "ärt": 9297,
      "obdre": 9298,
      "obrození": 9299,
      "schutz": 9300,
      "ikon": 9301,
      "paralle": 9302,
      "forum": 9303,
      "genau": 9304,
      "genres": 9305,
      "genutzt": 9306,
      "peking": 9307,
      "pevodu": 9308,
      "dualismus": 9309,
      "ultim": 9310,
      "tenant": 9311,
      "tenue": 9312,
      "ression": 9313,
      "dient": 9314,
      "lyrik": 9315,
      "dagar": 9316,
      "trie": 9317,
      "mosk": 9318,
      "berätt": 9319,
      "beräk": 9320,
      "manchen": 9321,
      "lanatom": 9322,
      "sain": 9323,
      "sacr": 9324,
      "sudet": 9325,
      "svaz": 9326,
      "weib": 9327,
      "vypu": 9328,
      "vynález": 9329,
      "strá": 9330,
      "bohus": 9331,
      "mental": 9332,
      "vary": 9333,
      "plor": 9334,
      "zastav": 9335,
      "syfte": 9336,
      "franque": 9337,
      "påven": 9338,
      "soused": 9339,
      "send": 9340,
      "guil": 9341,
      "kyslí": 9342,
      "mique": 9343,
      "stev": 9344,
      "little": 9345,
      "geringer": 9346,
      "samos": 9347,
      "vale": 9348,
      "vající": 9349,
      "delat": 9350,
      "podne": 9351,
      "podporu": 9352,
      "ceremon": 9353,
      "décr": 9354,
      "désigne": 9355,
      "alltid": 9356,
      "elekt": 9357,
      "formy": 9358,
      "formal": 9359,
      "formellt": 9360,
      "záleit": 9361,
      "facul": 9362,
      "výbor": 9363,
      "výslov": 9364,
      "äld": 9365,
      "tragen": 9366,
      "tradice": 9367,
      "store": 9368,
      "osn": 9369,
      "osse": 9370,
      "dandet": 9371,
      "rédig": 9372,
      "réalis": 9373,
      "cents": 9374,
      "spät": 9375,
      "tures": 9376,
      "lét": 9377,
      "milo": 9378,
      "ibles": 9379,
      "komma": 9380,
      "lats": 9381,
      "miner": 9382,
      "minska": 9383,
      "minute": 9384,
      "nejvy": 9385,
      "hnung": 9386,
      "lass": 9387,
      "acid": 9388,
      "érer": 9389,
      "korea": 9390,
      "barbar": 9391,
      "barthes": 9392,
      "váno": 9393,
      "bahn": 9394,
      "méton": 9395,
      "musical": 9396,
      "jihu": 9397,
      "surgery": 9398,
      "stiques": 9399,
      "regul": 9400,
      "signa": 9401,
      "pipra": 9402,
      "vorgän": 9403,
      "ago": 9404,
      "agt": 9405,
      "agor": 9406,
      "fear": 9407,
      "politických": 9408,
      "intent": 9409,
      "såg": 9410,
      "vägar": 9411,
      "krajin": 9412,
      "krajích": 9413,
      "bese": 9414,
      "melod": 9415,
      "igenom": 9416,
      "domu": 9417,
      "patron": 9418,
      "templat": 9419,
      "fili": 9420,
      "nizo": 9421,
      "cru": 9422,
      "dobro": 9423,
      "frau": 9424,
      "höll": 9425,
      "místa": 9426,
      "metz": 9427,
      "zila": 9428,
      "tros": 9429,
      "historii": 9430,
      "portion": 9431,
      "artists": 9432,
      "dispon": 9433,
      "novým": 9434,
      "dali": 9435,
      "darin": 9436,
      "darwin": 9437,
      "horního": 9438,
      "cypr": 9439,
      "système": 9440,
      "zena": 9441,
      "vedlo": 9442,
      "bestimmt": 9443,
      "tiny": 9444,
      "société": 9445,
      "creation": 9446,
      "produces": 9447,
      "ksh": 9448,
      "takové": 9449,
      "functions": 9450,
      "platí": 9451,
      "rové": 9452,
      "neuzeit": 9453,
      "ssd": 9454,
      "lauteur": 9455,
      "kunskap": 9456,
      "sembla": 9457,
      "translat": 9458,
      "handlar": 9459,
      "zeiten": 9460,
      "mainly": 9461,
      "könnte": 9462,
      "severo": 9463,
      "hraní": 9464,
      "brott": 9465,
      "nýbr": 9466,
      "symfon": 9467,
      "správu": 9468,
      "traditions": 9469,
      "quellen": 9470,
      "bruk": 9471,
      "verbind": 9472,
      "echy": 9473,
      "ministra": 9474,
      "vznikly": 9475,
      "ergibt": 9476,
      "amerika": 9477,
      "obyvatelé": 9478,
      "heiliger": 9479,
      "jazyka": 9480,
      "famous": 9481,
      "single": 9482,
      "capable": 9483,
      "ebene": 9484,
      "oblastech": 9485,
      "gemeint": 9486,
      "gemeinde": 9487,
      "literature": 9488,
      "came": 9489,
      "campa": 9490,
      "stoupen": 9491,
      "scott": 9492,
      "zweite": 9493,
      "povau": 9494,
      "originated": 9495,
      "magnet": 9496,
      "magnus": 9497,
      "limport": 9498,
      "radik": 9499,
      "betyder": 9500,
      "naturelle": 9501,
      "placement": 9502,
      "avoid": 9503,
      "industrial": 9504,
      "dochází": 9505,
      "vlivem": 9506,
      "krieges": 9507,
      "landsbyg": 9508,
      "typické": 9509,
      "aspekt": 9510,
      "specifically": 9511,
      "terminologie": 9512,
      "sammanlagt": 9513,
      "klima": 9514,
      "speaking": 9515,
      "sparty": 9516,
      "hochdeutsche": 9517,
      "zähl": 9518,
      "slovensko": 9519,
      "úady": 9520,
      "univerzit": 9521,
      "fällen": 9522,
      "itátech": 9523,
      "espèce": 9524,
      "territoire": 9525,
      "vertreter": 9526,
      "gesetzt": 9527,
      "výroba": 9528,
      "poloviny": 9529,
      "comparative": 9530,
      "mistr": 9531,
      "spanish": 9532,
      "patrick": 9533,
      "religiösa": 9534,
      "physi": 9535,
      "jiího": 9536,
      "kaum": 9537,
      "cognitives": 9538,
      "testaments": 9539,
      "meinte": 9540,
      "richtung": 9541,
      "bestimmte": 9542,
      "einzigen": 9543,
      "samarbetet": 9544,
      "gaule": 9545,
[...]
