{
  "version": "1.0",
  "truncation": null,
  "padding": null,
  "added_tokens": [
    {
      "id": 0,
      "content": "[PAD]",
      "single_word": false,
      "lstrip": false,
      "rstrip": false,
      "normalized": false,
      "special": true
    }
  ],
  "normalizer": null,
  "pre_tokenizer": {
    "type": "Whitespace"
  },
  "post_processor": null,
  "decoder": null,
  "model": {
    "type": "BPE",
    "dropout": null,
    "unk_token": null,
    "continuing_subword_prefix": null,
    "end_of_word_suffix": null,
    "fuse_unk": false,
    "byte_fallback": false,
    "vocab": {
      "[PAD]": 0,
      "a": 1,
      "b": 2,
      "c": 3,
      "d": 4,
      "e": 5,
      "f": 6,
      "g": 7,
      "h": 8,
      "i": 9,
      "j": 10,
      "k": 11,
      "l": 12,
      "m": 13,
      "n": 14,
      "o": 15,
      "p": 16,
      "q": 17,
      "r": 18,
      "s": 19,
      "t": 20,
      "u": 21,
      "v": 22,
      "w": 23,
      "x": 24,
      "y": 25,
      "z": 26,
      "×": 27,
      "ß": 28,
      "à": 29,
      "á": 30,
      "â": 31,
      "ã": 32,
      "ä": 33,
      "å": 34,
      "æ": 35,
      "ç": 36,
      "è": 37,
      "é": 38,
      "ê": 39,
      "ë": 40,
      "ì": 41,
      "í": 42,
      "î": 43,
      "ï": 44,
      "ð": 45,
      "ñ": 46,
      "ò": 47,
      "ó": 48,
      "ô": 49,
      "õ": 50,
      "ö": 51,
      "ø": 52,
      "ù": 53,
      "ú": 54,
      "û": 55,
      "ü": 56,
      "ý": 57,
      "þ": 58,
      "en": 59,
      "er": 60,
      "an": 61,
      "in": 62,
      "ch": 63,
      "st": 64,
      "de": 65,
      "on": 66,
      "le": 67,
      "ar": 68,
      "re": 69,
      "at": 70,
      "it": 71,
      "or": 72,
      "al": 73,
      "is": 74,
      "un": 75,
      "es": 76,
      "ro": 77,
      "th": 78,
      "ie": 79,
      "la": 80,
      "et": 81,
      "om": 82,
      "il": 83,
      "se": 84,
      "der": 85,
      "ra": 86,
      "po": 87,
      "li": 88,
      "ur": 89,
      "el": 90,
      "as": 91,
      "the": 92,
      "ent": 93,
      "na": 94,
      "sk": 95,
      "ed": 96,
      "and": 97,
      "ou": 98,
      "au": 99,
      "ion": 100,
      "te": 101,
      "ov": 102,
      "ing": 103,
      "ce": 104,
      "ol": 105,
      "den": 106,
      "ge": 107,
      "ní": 108,
      "ne": 109,
      "qu": 110,
      "av": 111,
      "ic": 112,
      "ut": 113,
      "be": 114,
      "of": 115,
      "des": 116,
      "ist": 117,
      "und": 118,
      "och": 119,
      "ter": 120,
      "ig": 121,
      "am": 122,
      "to": 123,
      "die": 124,
      "em": 125,
      "im": 126,
      "ver": 127,
      "us": 128,
      "pro": 129,
      "ta": 130,
      "ho": 131,
      "ör": 132,
      "ich": 133,
      "les": 134,
      "je": 135,
      "ein": 136,
      "ka": 137,
      "ma": 138,
      "pr": 139,
      "od": 140,
      "iv": 141,
      "är": 142,
      "ob": 143,
      "me": 144,
      "sch": 145,
      "ot": 146,
      "ik": 147,
      "par": 148,
      "ir": 149,
      "fr": 150,
      "by": 151,
      "id": 152,
      "for": 153,
      "um": 154,
      "gen": 155,
      "som": 156,
      "lo": 157,
      "ab": 158,
      "ck": 159,
      "ant": 160,
      "pe": 161,
      "du": 162,
      "per": 163,
      "pa": 164,
      "ul": 165,
      "ten": 166,
      "so": 167,
      "ci": 168,
      "res": 169,
      "di": 170,
      "för": 171,
      "che": 172,
      "än": 173,
      "que": 174,
      "do": 175,
      "ill": 176,
      "ct": 177,
      "hr": 178,
      "con": 179,
      "ak": 180,
      "ans": 181,
      "ly": 182,
      "da": 183,
      "men": 184,
      "ation": 185,
      "det": 186,
      "tr": 187,
      "ve": 188,
      "ze": 189,
      "mo": 190,
      "ung": 191,
      "pra": 192,
      "ber": 193,
      "att": 194,
      "man": 195,
      "ná": 196,
      "co": 197,
      "lan": 198,
      "sa": 199,
      "lig": 200,
      "su": 201,
      "are": 202,
      "med": 203,
      "sv": 204,
      "land": 205,
      "ex": 206,
      "kon": 207,
      "no": 208,
      "com": 209,
      "gr": 210,
      "ých": 211,
      "son": 212,
      "we": 213,
      "vy": 214,
      "up": 215,
      "br": 216,
      "chen": 217,
      "jí": 218,
      "till": 219,
      "str": 220,
      "kt": 221,
      "bo": 222,
      "ment": 223,
      "var": 224,
      "he": 225,
      "das": 226,
      "pl": 227,
      "ier": 228,
      "za": 229,
      "zu": 230,
      "let": 231,
      "kr": 232,
      "von": 233,
      "lu": 234,
      "ad": 235,
      "ick": 236,
      "ví": 237,
      "ph": 238,
      "og": 239,
      "len": 240,
      "si": 241,
      "ské": 242,
      "als": 243,
      "né": 244,
      "est": 245,
      "mit": 246,
      "ku": 247,
      "sy": 248,
      "dem": 249,
      "ser": 250,
      "fran": 251,
      "ska": 252,
      "ler": 253,
      "på": 254,
      "sou": 255,
      "ate": 256,
      "deut": 257,
      "sen": 258,
      "mon": 259,
      "ån": 260,
      "ff": 261,
      "vo": 262,
      "gu": 263,
      "ky": 264,
      "har": 265,
      "fin": 266,
      "vi": 267,
      "aus": 268,
      "op": 269,
      "át": 270,
      "mi": 271,
      "une": 272,
      "por": 273,
      "ste": 274,
      "ti": 275,
      "lit": 276,
      "ger": 277,
      "sam": 278,
      "va": 279,
      "auf": 280,
      "del": 281,
      "ha": 282,
      "rom": 283,
      "ia": 284,
      "pod": 285,
      "ind": 286,
      "ty": 287,
      "ja": 288,
      "ben": 289,
      "cer": 290,
      "deutsch": 291,
      "kan": 292,
      "dé": 293,
      "sta": 294,
      "cí": 295,
      "kter": 296,
      "mar": 297,
      "ces": 298,
      "ál": 299,
      "all": 300,
      "ien": 301,
      "ele": 302,
      "form": 303,
      "iska": 304,
      "ké": 305,
      "fü": 306,
      "zá": 307,
      "her": 308,
      "ení": 309,
      "fa": 310,
      "ost": 311,
      "ts": 312,
      "vý": 313,
      "té": 314,
      "olog": 315,
      "ire": 316,
      "ale": 317,
      "tre": 318,
      "äl": 319,
      "ud": 320,
      "pí": 321,
      "tra": 322,
      "dans": 323,
      "ke": 324,
      "sto": 325,
      "eu": 326,
      "under": 327,
      "dr": 328,
      "wer": 329,
      "was": 330,
      "ät": 331,
      "pu": 332,
      "sich": 333,
      "can": 334,
      "nor": 335,
      "os": 336,
      "dan": 337,
      "eine": 338,
      "ett": 339,
      "ré": 340,
      "cent": 341,
      "sp": 342,
      "lad": 343,
      "tu": 344,
      "ges": 345,
      "ning": 346,
      "ven": 347,
      "lé": 348,
      "ith": 349,
      "if": 350,
      "mil": 351,
      "ová": 352,
      "ib": 353,
      "ischen": 354,
      "led": 355,
      "kom": 356,
      "lá": 357,
      "pos": 358,
      "got": 359,
      "ins": 360,
      "lat": 361,
      "wh": 362,
      "ala": 363,
      "mu": 364,
      "min": 365,
      "ther": 366,
      "ition": 367,
      "nej": 368,
      "sl": 369,
      "dy": 370,
      "roz": 371,
      "ive": 372,
      "ga": 373,
      "ové": 374,
      "hn": 375,
      "jak": 376,
      "år": 377,
      "ým": 378,
      "with": 379,
      "ise": 380,
      "my": 381,
      "bet": 382,
      "zem": 383,
      "ine": 384,
      "ique": 385,
      "las": 386,
      "qui": 387,
      "nat": 388,
      "lich": 389,
      "icht": 390,
      "ac": 391,
      "war": 392,
      "urs": 393,
      "vel": 394,
      "ér": 395,
      "ny": 396,
      "ko": 397,
      "pt": 398,
      "bar": 399,
      "end": 400,
      "rop": 401,
      "lem": 402,
      "dur": 403,
      "vá": 404,
      "spo": 405,
      "vis": 406,
      "ba": 407,
      "ies": 408,
      "that": 409,
      "ave": 410,
      "gan": 411,
      "vol": 412,
      "bli": 413,
      "eng": 414,
      "pre": 415,
      "ell": 416,
      "wor": 417,
      "ens": 418,
      "ství": 419,
      "relig": 420,
      "auch": 421,
      "gott": 422,
      "col": 423,
      "jed": 424,
      "mer": 425,
      "és": 426,
      "mat": 427,
      "cho": 428,
      "mé": 429,
      "sed": 430,
      "für": 431,
      "mot": 432,
      "iel": 433,
      "ped": 434,
      "wur": 435,
      "jo": 436,
      "val": 437,
      "vní": 438,
      "ina": 439,
      "not": 440,
      "chr": 441,
      "char": 442,
      "aux": 443,
      "ap": 444,
      "ím": 445,
      "mus": 446,
      "ji": 447,
      "sur": 448,
      "ure": 449,
      "sti": 450,
      "reg": 451,
      "part": 452,
      "pour": 453,
      "ii": 454,
      "wie": 455,
      "wa": 456,
      "hu": 457,
      "nach": 458,
      "sig": 459,
      "ions": 460,
      "ous": 461,
      "oder": 462,
      "pi": 463,
      "vr": 464,
      "fo": 465,
      "jako": 466,
      "ft": 467,
      "isch": 468,
      "out": 469,
      "vor": 470,
      "från": 471,
      "ag": 472,
      "wir": 473,
      "zn": 474,
      "vod": 475,
      "kar": 476,
      "ande": 477,
      "ang": 478,
      "dies": 479,
      "über": 480,
      "sie": 481,
      "bre": 482,
      "ds": 483,
      "fe": 484,
      "franç": 485,
      "hist": 486,
      "ige": 487,
      "polit": 488,
      "zna": 489,
      "int": 490,
      "så": 491,
      "langu": 492,
      "gra": 493,
      "klad": 494,
      "ern": 495,
      "stav": 496,
      "vä": 497,
      "ble": 498,
      "don": 499,
      "isk": 500,
      "kra": 501,
      "pas": 502,
      "ity": 503,
      "upp": 504,
      "seele": 505,
      "äm": 506,
      "bes": 507,
      "lin": 508,
      "mel": 509,
      "ques": 510,
      "spr": 511,
      "euro": 512,
      "gre": 513,
      "frança": 514,
      "pla": 515,
      "ken": 516,
      "ev": 517,
      "lie": 518,
      "án": 519,
      "igen": 520,
      "bn": 521,
      "dom": 522,
      "fol": 523,
      "hl": 524,
      "lon": 525,
      "ren": 526,
      "bei": 527,
      "plus": 528,
      "lar": 529,
      "durch": 530,
      "tur": 531,
      "aut": 532,
      "vt": 533,
      "ers": 534,
      "emp": 535,
      "elle": 536,
      "jen": 537,
      "pat": 538,
      "ite": 539,
      "brit": 540,
      "lez": 541,
      "tem": 542,
      "dra": 543,
      "its": 544,
      "ische": 545,
      "fig": 546,
      "roce": 547,
      "fil": 548,
      "ni": 549,
      "ally": 550,
      "cr": 551,
      "dob": 552,
      "fra": 553,
      "sty": 554,
      "cancer": 555,
      "vid": 556,
      "roku": 557,
      "hen": 558,
      "ord": 559,
      "hö": 560,
      "nicht": 561,
      "wik": 562,
      "inc": 563,
      "ps": 564,
      "ance": 565,
      "from": 566,
      "vil": 567,
      "geist": 568,
      "sin": 569,
      "publi": 570,
      "eller": 571,
      "ner": 572,
      "öt": 573,
      "stat": 574,
      "mí": 575,
      "ité": 576,
      "met": 577,
      "pres": 578,
      "sol": 579,
      "ish": 580,
      "zi": 581,
      "unter": 582,
      "ský": 583,
      "sion": 584,
      "tro": 585,
      "histor": 586,
      "bil": 587,
      "ann": 588,
      "cht": 589,
      "act": 590,
      "vat": 591,
      "port": 592,
      "kul": 593,
      "zd": 594,
      "ním": 595,
      "gne": 596,
      "art": 597,
      "ors": 598,
      "wird": 599,
      "fö": 600,
      "fer": 601,
      "hy": 602,
      "ux": 603,
      "elt": 604,
      "oval": 605,
      "ru": 606,
      "ické": 607,
      "het": 608,
      "byl": 609,
      "stor": 610,
      "ön": 611,
      "stát": 612,
      "ici": 613,
      "ju": 614,
      "län": 615,
      "wo": 616,
      "rod": 617,
      "wurde": 618,
      "ht": 619,
      "tid": 620,
      "ca": 621,
      "slez": 622,
      "ée": 623,
      "deb": 624,
      "vers": 625,
      "dis": 626,
      "spe": 627,
      "mal": 628,
      "mes": 629,
      "gro": 630,
      "ld": 631,
      "bab": 632,
      "ster": 633,
      "christ": 634,
      "nov": 635,
      "ander": 636,
      "mensch": 637,
      "cel": 638,
      "car": 639,
      "bor": 640,
      "letí": 641,
      "net": 642,
      "dal": 643,
      "fter": 644,
      "sten": 645,
      "nu": 646,
      "ská": 647,
      "ys": 648,
      "ence": 649,
      "nom": 650,
      "pul": 651,
      "dern": 652,
      "jahr": 653,
      "dar": 654,
      "inte": 655,
      "även": 656,
      "sont": 657,
      "one": 658,
      "ket": 659,
      "isbn": 660,
      "off": 661,
      "ses": 662,
      "uni": 663,
      "ologie": 664,
      "sein": 665,
      "hé": 666,
      "other": 667,
      "vin": 668,
      "ích": 669,
      "ard": 670,
      "ních": 671,
      "ilo": 672,
      "einer": 673,
      "comme": 674,
      "kor": 675,
      "liv": 676,
      "jet": 677,
      "ice": 678,
      "star": 679,
      "sven": 680,
      "hal": 681,
      "sver": 682,
      "pol": 683,
      "hor": 684,
      "pet": 685,
      "esk": 686,
      "van": 687,
      "eské": 688,
      "pen": 689,
      "which": 690,
      "fre": 691,
      "století": 692,
      "cy": 693,
      "person": 694,
      "ade": 695,
      "ide": 696,
      "evrop": 697,
      "göt": 698,
      "jsou": 699,
      "spra": 700,
      "ého": 701,
      "lag": 702,
      "kol": 703,
      "wasser": 704,
      "sind": 705,
      "ures": 706,
      "lou": 707,
      "nes": 708,
      "ry": 709,
      "talet": 710,
      "syst": 711,
      "kal": 712,
      "itu": 713,
      "deutschland": 714,
      "ili": 715,
      "nebo": 716,
      "pan": 717,
      "union": 718,
      "han": 719,
      "zen": 720,
      "lichen": 721,
      "dí": 722,
      "ns": 723,
      "tech": 724,
      "ved": 725,
      "ated": 726,
      "français": 727,
      "mor": 728,
      "sel": 729,
      "ents": 730,
      "zí": 731,
      "stí": 732,
      "best": 733,
      "ction": 734,
      "nen": 735,
      "tin": 736,
      "lav": 737,
      "such": 738,
      "ple": 739,
      "stal": 740,
      "soci": 741,
      "liga": 742,
      "lema": 743,
      "bu": 744,
      "ban": 745,
      "teil": 746,
      "langue": 747,
      "iz": 748,
      "vent": 749,
      "ont": 750,
      "gt": 751,
      "chocol": 752,
      "cre": 753,
      "jor": 754,
      "produ": 755,
      "genom": 756,
      "exemp": 757,
      "ère": 758,
      "dass": 759,
      "sted": 760,
      "män": 761,
      "ines": 762,
      "jeho": 763,
      "eck": 764,
      "ism": 765,
      "ks": 766,
      "které": 767,
      "lemagne": 768,
      "hat": 769,
      "jan": 770,
      "ue": 771,
      "ident": 772,
      "ling": 773,
      "má": 774,
      "zur": 775,
      "organ": 776,
      "ských": 777,
      "religion": 778,
      "dition": 779,
      "ations": 780,
      "has": 781,
      "inter": 782,
      "charlemagne": 783,
      "stu": 784,
      "sko": 785,
      "mellan": 786,
      "gar": 787,
      "have": 788,
      "zum": 789,
      "ach": 790,
      "chocolate": 791,
      "kör": 792,
      "ical": 793,
      "dá": 794,
      "ès": 795,
      "liche": 796,
      "werden": 797,
      "age": 798,
      "gh": 799,
      "ungen": 800,
      "andra": 801,
      "také": 802,
      "bel": 803,
      "ém": 804,
      "byla": 805,
      "slov": 806,
      "exist": 807,
      "king": 808,
      "anim": 809,
      "weit": 810,
      "tat": 811,
      "vän": 812,
      "över": 813,
      "einen": 814,
      "arch": 815,
      "körper": 816,
      "zv": 817,
      "prá": 818,
      "england": 819,
      "ního": 820,
      "cul": 821,
      "dre": 822,
      "rik": 823,
      "pag": 824,
      "ského": 825,
      "reich": 826,
      "europe": 827,
      "wiki": 828,
      "mn": 829,
      "this": 830,
      "ding": 831,
      "ian": 832,
      "vie": 833,
      "stand": 834,
      "also": 835,
      "bis": 836,
      "där": 837,
      "oli": 838,
      "svt": 839,
      "grund": 840,
      "sverige": 841,
      "welt": 842,
      "fl": 843,
      "ker": 844,
      "used": 845,
      "ende": 846,
      "tex": 847,
      "jin": 848,
      "tor": 849,
      "tal": 850,
      "hre": 851,
      "cheque": 852,
      "zw": 853,
      "ká": 854,
      "bylo": 855,
      "ål": 856,
      "podle": 857,
      "avec": 858,
      "ast": 859,
      "ons": 860,
      "tak": 861,
      "vär": 862,
      "figures": 863,
      "iss": 864,
      "dn": 865,
      "ün": 866,
      "ými": 867,
      "coun": 868,
      "stup": 869,
      "pou": 870,
      "some": 871,
      "ient": 872,
      "most": 873,
      "babi": 874,
      "diff": 875,
      "nur": 876,
      "jící": 877,
      "kultur": 878,
      "cle": 879,
      "fun": 880,
      "hla": 881,
      "ihr": 882,
      "kou": 883,
      "plat": 884,
      "efter": 885,
      "stra": 886,
      "wn": 887,
      "zy": 888,
      "inclu": 889,
      "ury": 890,
      "milli": 891,
      "hra": 892,
      "kat": 893,
      "psy": 894,
      "antik": 895,
      "dun": 896,
      "dru": 897,
      "ek": 898,
      "mst": 899,
      "ätt": 900,
      "sh": 901,
      "sm": 902,
      "sil": 903,
      "rov": 904,
      "low": 905,
      "cou": 906,
      "sí": 907,
      "vlá": 908,
      "mais": 909,
      "praha": 910,
      "but": 911,
      "cet": 912,
      "pes": 913,
      "kem": 914,
      "republi": 915,
      "bra": 916,
      "tom": 917,
      "tim": 918,
      "sub": 919,
      "ile": 920,
      "oby": 921,
      "cé": 922,
      "cor": 923,
      "may": 924,
      "ain": 925,
      "bud": 926,
      "ital": 927,
      "ismus": 928,
      "nit": 929,
      "rel": 930,
      "ils": 931,
      "propag": 932,
      "hel": 933,
      "rå": 934,
      "gem": 935,
      "viol": 936,
      "språ": 937,
      "öl": 938,
      "stan": 939,
      "stör": 940,
      "dire": 941,
      "zná": 942,
      "ême": 943,
      "last": 944,
      "go": 945,
      "který": 946,
      "fir": 947,
      "hin": 948,
      "nou": 949,
      "använ": 950,
      "system": 951,
      "dam": 952,
      "neu": 953,
      "první": 954,
      "stru": 955,
      "rá": 956,
      "vak": 957,
      "lik": 958,
      "pad": 959,
      "heit": 960,
      "cu": 961,
      "hol": 962,
      "non": 963,
      "ss": 964,
      "ily": 965,
      "pay": 966,
      "itet": 967,
      "anda": 968,
      "bec": 969,
      "bas": 970,
      "cal": 971,
      "nation": 972,
      "ton": 973,
      "use": 974,
      "ange": 975,
      "rou": 976,
      "string": 977,
      "stá": 978,
      "ování": 979,
      "alo": 980,
      "ution": 981,
      "lish": 982,
      "leben": 983,
      "thes": 984,
      "einem": 985,
      "aber": 986,
      "deutsche": 987,
      "deutschen": 988,
      "cen": 989,
      "dig": 990,
      "ok": 991,
      "konom": 992,
      "boen": 993,
      "zemí": 994,
      "åg": 995,
      "were": 996,
      "hunder": 997,
      "their": 998,
      "akt": 999,
      "eff": 1000,
      "leur": 1001,
      "lau": 1002,
      "new": 1003,
      "begr": 1004,
      "náboen": 1005,
      "král": 1006,
      "io": 1007,
      "pak": 1008,
      "ligt": 1009,
      "get": 1010,
      "gegen": 1011,
      "význa": 1012,
      "jahrhunder": 1013,
      "ila": 1014,
      "äg": 1015,
      "sprache": 1016,
      "wen": 1017,
      "zo": 1018,
      "mark": 1019,
      "natur": 1020,
      "cas": 1021,
      "kun": 1022,
      "mas": 1023,
      "ock": 1024,
      "style": 1025,
      "svenska": 1026,
      "sem": 1027,
      "fram": 1028,
      "jes": 1029,
      "zent": 1030,
      "entre": 1031,
      "certa": 1032,
      "bur": 1033,
      "ekonom": 1034,
      "fon": 1035,
      "rat": 1036,
      "inst": 1037,
      "skou": 1038,
      "ovan": 1039,
      "latin": 1040,
      "vom": 1041,
      "inom": 1042,
      "stell": 1043,
      "cons": 1044,
      "trans": 1045,
      "bör": 1046,
      "gel": 1047,
      "ika": 1048,
      "ita": 1049,
      "führ": 1050,
      "hand": 1051,
      "set": 1052,
      "etwa": 1053,
      "media": 1054,
      "menschen": 1055,
      "götter": 1056,
      "hab": 1057,
      "jär": 1058,
      "popul": 1059,
      "mezi": 1060,
      "zeit": 1061,
      "nost": 1062,
      "region": 1063,
      "propaganda": 1064,
      "gé": 1065,
      "kam": 1066,
      "tent": 1067,
      "kann": 1068,
      "ální": 1069,
      "position": 1070,
      "bý": 1071,
      "tí": 1072,
      "ear": 1073,
      "nosti": 1074,
      "roman": 1075,
      "kl": 1076,
      "kte": 1077,
      "ary": 1078,
      "ments": 1079,
      "också": 1080,
      "bland": 1081,
      "oc": 1082,
      "pon": 1083,
      "tv": 1084,
      "uje": 1085,
      "procent": 1086,
      "byly": 1087,
      "more": 1088,
      "národ": 1089,
      "igt": 1090,
      "prim": 1091,
      "vál": 1092,
      "any": 1093,
      "able": 1094,
      "many": 1095,
      "samt": 1096,
      "osti": 1097,
      "före": 1098,
      "dl": 1099,
      "kir": 1100,
      "sku": 1101,
      "ovat": 1102,
      "wes": 1103,
      "dat": 1104,
      "fen": 1105,
      "mis": 1106,
      "world": 1107,
      "wil": 1108,
      "detta": 1109,
      "religi": 1110,
      "exempel": 1111,
      "hou": 1112,
      "defin": 1113,
      "red": 1114,
      "bez": 1115,
      "gs": 1116,
      "sim": 1117,
      "ded": 1118,
      "atom": 1119,
      "iert": 1120,
      "finns": 1121,
      "bi": 1122,
      "fas": 1123,
      "nik": 1124,
      "relat": 1125,
      "main": 1126,
      "gener": 1127,
      "cest": 1128,
      "been": 1129,
      "pré": 1130,
      "mehr": 1131,
      "která": 1132,
      "cess": 1133,
      "wä": 1134,
      "ited": 1135,
      "common": 1136,
      "olika": 1137,
      "mov": 1138,
      "même": 1139,
      "pie": 1140,
      "rit": 1141,
      "sky": 1142,
      "ict": 1143,
      "kön": 1144,
      "sever": 1145,
      "nad": 1146,
      "test": 1147,
      "hran": 1148,
      "fait": 1149,
      "wurden": 1150,
      "diese": 1151,
      "play": 1152,
      "cette": 1153,
      "då": 1154,
      "fest": 1155,
      "när": 1156,
      "ées": 1157,
      "cheques": 1158,
      "dune": 1159,
      "iff": 1160,
      "zt": 1161,
      "iny": 1162,
      "cept": 1163,
      "iga": 1164,
      "bro": 1165,
      "div": 1166,
      "gl": 1167,
      "ham": 1168,
      "ný": 1169,
      "sat": 1170,
      "sym": 1171,
      "velop": 1172,
      "spojen": 1173,
      "sprá": 1174,
      "bl": 1175,
      "ial": 1176,
      "pli": 1177,
      "lex": 1178,
      "ret": 1179,
      "util": 1180,
      "spolen": 1181,
      "ced": 1182,
      "hig": 1183,
      "nis": 1184,
      "ität": 1185,
      "jej": 1186,
      "zeich": 1187,
      "ec": 1188,
      "kdy": 1189,
      "tel": 1190,
      "soph": 1191,
      "cie": 1192,
      "kov": 1193,
      "française": 1194,
      "ait": 1195,
      "dist": 1196,
      "ires": 1197,
      "km": 1198,
      "pom": 1199,
      "pic": 1200,
      "bal": 1201,
      "dol": 1202,
      "mån": 1203,
      "ym": 1204,
      "iet": 1205,
      "gottes": 1206,
      "zwischen": 1207,
      "tvo": 1208,
      "cher": 1209,
      "ating": 1210,
      "ikt": 1211,
      "parte": 1212,
      "sö": 1213,
      "erat": 1214,
      "ingen": 1215,
      "hm": 1216,
      "kina": 1217,
      "été": 1218,
      "alle": 1219,
      "over": 1220,
      "west": 1221,
      "philo": 1222,
      "tradition": 1223,
      "orig": 1224,
      "uss": 1225,
      "try": 1226,
      "veck": 1227,
      "moder": 1228,
      "voj": 1229,
      "hade": 1230,
      "dav": 1231,
      "andre": 1232,
      "quel": 1233,
      "dessa": 1234,
      "ants": 1235,
      "ách": 1236,
      "åt": 1237,
      "öst": 1238,
      "dopra": 1239,
      "bru": 1240,
      "english": 1241,
      "länder": 1242,
      "cur": 1243,
      "sé": 1244,
      "leg": 1245,
      "they": 1246,
      "verb": 1247,
      "debate": 1248,
      "tit": 1249,
      "vzn": 1250,
      "onen": 1251,
      "ely": 1252,
      "píklad": 1253,
      "nord": 1254,
      "ech": 1255,
      "hom": 1256,
      "erst": 1257,
      "cket": 1258,
      "zákon": 1259,
      "gle": 1260,
      "nme": 1261,
      "pér": 1262,
      "anci": 1263,
      "there": 1264,
      "fler": 1265,
      "hav": 1266,
      "ip": 1267,
      "tes": 1268,
      "vz": 1269,
      "mak": 1270,
      "century": 1271,
      "mater": 1272,
      "vilket": 1273,
      "these": 1274,
      "ned": 1275,
      "aussi": 1276,
      "romantik": 1277,
      "minist": 1278,
      "nejvt": 1279,
      "univers": 1280,
      "hlavní": 1281,
      "first": 1282,
      "náboenství": 1283,
      "philosoph": 1284,
      "aff": 1285,
      "hum": 1286,
      "ár": 1287,
      "ür": 1288,
      "siè": 1289,
      "renes": 1290,
      "erna": 1291,
      "trä": 1292,
      "bí": 1293,
      "fär": 1294,
      "mj": 1295,
      "pé": 1296,
      "sn": 1297,
      "zení": 1298,
      "folk": 1299,
      "králov": 1300,
      "clas": 1301,
      "gor": 1302,
      "hem": 1303,
      "pal": 1304,
      "era": 1305,
      "bezeich": 1306,
      "violin": 1307,
      "vznik": 1308,
      "ute": 1309,
      "prin": 1310,
      "cour": 1311,
      "europeiska": 1312,
      "eg": 1313,
      "hör": 1314,
      "ates": 1315,
      "cep": 1316,
      "german": 1317,
      "napíklad": 1318,
      "mö": 1319,
      "mno": 1320,
      "sit": 1321,
      "tout": 1322,
      "than": 1323,
      "skil": 1324,
      "ument": 1325,
      "dalí": 1326,
      "nombre": 1327,
      "pel": 1328,
      "ral": 1329,
      "who": 1330,
      "arna": 1331,
      "roy": 1332,
      "medel": 1333,
      "praze": 1334,
      "ningen": 1335,
      "louis": 1336,
      "psych": 1337,
      "ix": 1338,
      "ium": 1339,
      "js": 1340,
      "tis": 1341,
      "území": 1342,
      "ligen": 1343,
      "obje": 1344,
      "when": 1345,
      "choklad": 1346,
      "far": 1347,
      "rö": 1348,
      "diale": 1349,
      "dock": 1350,
      "häl": 1351,
      "erg": 1352,
      "inne": 1353,
      "autres": 1354,
      "weiter": 1355,
      "ron": 1356,
      "vé": 1357,
      "develop": 1358,
      "aller": 1359,
      "seel": 1360,
      "paris": 1361,
      "peop": 1362,
      "ktion": 1363,
      "vari": 1364,
      "sens": 1365,
      "rich": 1366,
      "onder": 1367,
      "aten": 1368,
      "sedan": 1369,
      "amer": 1370,
      "bon": 1371,
      "jmé": 1372,
      "tou": 1373,
      "deux": 1374,
      "rem": 1375,
      "iskt": 1376,
      "coco": 1377,
      "vzd": 1378,
      "vara": 1379,
      "france": 1380,
      "patí": 1381,
      "hål": 1382,
      "lö": 1383,
      "py": 1384,
      "äu": 1385,
      "être": 1386,
      "utveck": 1387,
      "ibt": 1388,
      "hmen": 1389,
      "zel": 1390,
      "ena": 1391,
      "språk": 1392,
      "din": 1393,
      "ful": 1394,
      "noch": 1395,
      "ßen": 1396,
      "log": 1397,
      "syn": 1398,
      "ång": 1399,
      "besonder": 1400,
      "vatel": 1401,
      "obyvatel": 1402,
      "ihre": 1403,
      "mun": 1404,
      "nar": 1405,
      "num": 1406,
      "pis": 1407,
      "ri": 1408,
      "lam": 1409,
      "její": 1410,
      "kraj": 1411,
      "dit": 1412,
      "gör": 1413,
      "há": 1414,
      "klas": 1415,
      "sei": 1416,
      "ova": 1417,
      "dens": 1418,
      "sign": 1419,
      "jahrhundert": 1420,
      "cocoa": 1421,
      "ect": 1422,
      "ement": 1423,
      "dle": 1424,
      "united": 1425,
      "seit": 1426,
      "cem": 1427,
      "geb": 1428,
      "oft": 1429,
      "iva": 1430,
      "blev": 1431,
      "mt": 1432,
      "vlast": 1433,
      "will": 1434,
      "ences": 1435,
      "sek": 1436,
      "denna": 1437,
      "quil": 1438,
      "modern": 1439,
      "landet": 1440,
      "film": 1441,
      "people": 1442,
      "dou": 1443,
      "asi": 1444,
      "indiv": 1445,
      "partic": 1446,
      "cultu": 1447,
      "cit": 1448,
      "fy": 1449,
      "iza": 1450,
      "ück": 1451,
      "stän": 1452,
      "ied": 1453,
      "ogra": 1454,
      "jejich": 1455,
      "vet": 1456,
      "iser": 1457,
      "unt": 1458,
      "ových": 1459,
      "stran": 1460,
      "heil": 1461,
      "více": 1462,
      "nå": 1463,
      "ong": 1464,
      "ause": 1465,
      "keit": 1466,
      "puis": 1467,
      "jedoch": 1468,
      "unionen": 1469,
      "iques": 1470,
      "alt": 1471,
      "crit": 1472,
      "nmeck": 1473,
      "bin": 1474,
      "bol": 1475,
      "oh": 1476,
      "alla": 1477,
      "lid": 1478,
      "jazy": 1479,
      "charles": 1480,
      "ainsi": 1481,
      "fam": 1482,
      "fall": 1483,
      "kno": 1484,
      "sor": 1485,
      "sing": 1486,
      "into": 1487,
      "ofta": 1488,
      "ného": 1489,
      "jose": 1490,
      "langues": 1491,
      "významn": 1492,
      "gleich": 1493,
      "cap": 1494,
      "njí": 1495,
      "dess": 1496,
      "peut": 1497,
      "stora": 1498,
      "animaux": 1499,
      "många": 1500,
      "eben": 1501,
      "jem": 1502,
      "ll": 1503,
      "ných": 1504,
      "pá": 1505,
      "annat": 1506,
      "obla": 1507,
      "bert": 1508,
      "mycket": 1509,
      "gram": 1510,
      "siècle": 1511,
      "fur": 1512,
      "kin": 1513,
      "nut": 1514,
      "alter": 1515,
      "proti": 1516,
      "hos": 1517,
      "peri": 1518,
      "vech": 1519,
      "gesch": 1520,
      "bild": 1521,
      "gemein": 1522,
      "jer": 1523,
      "nas": 1524,
      "plan": 1525,
      "sj": 1526,
      "sá": 1527,
      "inf": 1528,
      "chod": 1529,
      "pozd": 1530,
      "ník": 1531,
      "monar": 1532,
      "speci": 1533,
      "svensk": 1534,
      "nic": 1535,
      "oire": 1536,
      "vit": 1537,
      "ille": 1538,
      "nap": 1539,
      "senát": 1540,
      "hög": 1541,
      "bank": 1542,
      "rough": 1543,
      "mjöl": 1544,
      "eur": 1545,
      "ves": 1546,
      "letech": 1547,
      "thé": 1548,
      "scha": 1549,
      "idu": 1550,
      "ween": 1551,
      "europa": 1552,
      "grek": 1553,
      "psob": 1554,
      "begriff": 1555,
      "wick": 1556,
      "ats": 1557,
      "aly": 1558,
      "proje": 1559,
      "près": 1560,
      "krit": 1561,
      "samma": 1562,
      "dieser": 1563,
      "dor": 1564,
      "had": 1565,
      "nt": 1566,
      "ozna": 1567,
      "between": 1568,
      "två": 1569,
      "tan": 1570,
      "ég": 1571,
      "ené": 1572,
      "iní": 1573,
      "stud": 1574,
      "omen": 1575,
      "ským": 1576,
      "bedeut": 1577,
      "ický": 1578,
      "ském": 1579,
      "waren": 1580,
      "public": 1581,
      "ej": 1582,
      "fatt": 1583,
      "ote": 1584,
      "ran": 1585,
      "tet": 1586,
      "uli": 1587,
      "athé": 1588,
      "lade": 1589,
      "områ": 1590,
      "dro": 1591,
      "kre": 1592,
      "lä": 1593,
      "lor": 1594,
      "instr": 1595,
      "skr": 1596,
      "isten": 1597,
      "iger": 1598,
      "about": 1599,
      "státní": 1600,
      "jesus": 1601,
      "flera": 1602,
      "fes": 1603,
      "lov": 1604,
      "sci": 1605,
      "ough": 1606,
      "eines": 1607,
      "john": 1608,
      "pression": 1609,
      "ada": 1610,
      "hlá": 1611,
      "well": 1612,
      "zer": 1613,
      "ular": 1614,
      "sowie": 1615,
      "europ": 1616,
      "osob": 1617,
      "music": 1618,
      "království": 1619,
      "ase": 1620,
      "hjär": 1621,
      "oper": 1622,
      "refer": 1623,
      "through": 1624,
      "sour": 1625,
      "ická": 1626,
      "here": 1627,
      "utilis": 1628,
      "cis": 1629,
      "gab": 1630,
      "jar": 1631,
      "kla": 1632,
      "ox": 1633,
      "vu": 1634,
      "väl": 1635,
      "ßer": 1636,
      "allem": 1637,
      "ovala": 1638,
      "iciel": 1639,
      "toho": 1640,
      "verk": 1641,
      "prozent": 1642,
      "fort": 1643,
      "literat": 1644,
      "formation": 1645,
      "základ": 1646,
      "angli": 1647,
      "mediawiki": 1648,
      "bb": 1649,
      "cam": 1650,
      "giv": 1651,
      "jm": 1652,
      "lt": 1653,
      "mut": 1654,
      "mich": 1655,
      "vra": 1656,
      "ín": 1657,
      "tag": 1658,
      "obdob": 1659,
      "grö": 1660,
      "podob": 1661,
      "géné": 1662,
      "kop": 1663,
      "pin": 1664,
      "zalo": 1665,
      "often": 1666,
      "första": 1667,
      "ostat": 1668,
      "kommer": 1669,
      "mots": 1670,
      "britán": 1671,
      "värl": 1672,
      "bit": 1673,
      "blo": 1674,
      "gg": 1675,
      "kän": 1676,
      "zde": 1677,
      "ative": 1678,
      "ets": 1679,
      "radi": 1680,
      "ings": 1681,
      "term": 1682,
      "premi": 1683,
      "time": 1684,
      "afr": 1685,
      "pf": 1686,
      "pvod": 1687,
      "sla": 1688,
      "tvr": 1689,
      "alth": 1690,
      "rap": 1691,
      "inger": 1692,
      "utan": 1693,
      "iges": 1694,
      "scho": 1695,
      "iky": 1696,
      "large": 1697,
      "jména": 1698,
      "jon": 1699,
      "kde": 1700,
      "mod": 1701,
      "nung": 1702,
      "rä": 1703,
      "chem": 1704,
      "prés": 1705,
      "berg": 1706,
      "své": 1707,
      "exam": 1708,
      "lui": 1709,
      "vím": 1710,
      "allt": 1711,
      "ift": 1712,
      "nejvtí": 1713,
      "glich": 1714,
      "mä": 1715,
      "nan": 1716,
      "pit": 1717,
      "vir": 1718,
      "stou": 1719,
      "demo": 1720,
      "alen": 1721,
      "bere": 1722,
      "volution": 1723,
      "ihrer": 1724,
      "wesen": 1725,
      "human": 1726,
      "schaft": 1727,
      "rum": 1728,
      "liam": 1729,
      "ass": 1730,
      "entwick": 1731,
      "geor": 1732,
      "utí": 1733,
      "trin": 1734,
      "temper": 1735,
      "exemple": 1736,
      "lingu": 1737,
      "ually": 1738,
      "indi": 1739,
      "chá": 1740,
      "arbet": 1741,
      "ativ": 1742,
      "ica": 1743,
      "phon": 1744,
      "since": 1745,
      "include": 1746,
      "religious": 1747,
      "kung": 1748,
      "nä": 1749,
      "nich": 1750,
      "zav": 1751,
      "étu": 1752,
      "stä": 1753,
      "lement": 1754,
      "alis": 1755,
      "ente": 1756,
      "nás": 1757,
      "cours": 1758,
      "autor": 1759,
      "haben": 1760,
      "bezeichnet": 1761,
      "seelen": 1762,
      "hov": 1763,
      "hän": 1764,
      "two": 1765,
      "tzv": 1766,
      "ura": 1767,
      "enz": 1768,
      "chan": 1769,
      "during": 1770,
      "karl": 1771,
      "kraft": 1772,
      "damit": 1773,
      "individu": 1774,
      "cat": 1775,
      "dv": 1776,
      "gas": 1777,
      "nie": 1778,
      "vých": 1779,
      "wel": 1780,
      "indu": 1781,
      "stäl": 1782,
      "atis": 1783,
      "skul": 1784,
      "prob": 1785,
      "issance": 1786,
      "princi": 1787,
      "ted": 1788,
      "selon": 1789,
      "nest": 1790,
      "kaka": 1791,
      "pede": 1792,
      "selb": 1793,
      "práv": 1794,
      "drei": 1795,
      "cir": 1796,
      "cha": 1797,
      "lek": 1798,
      "arist": 1799,
      "associ": 1800,
      "import": 1801,
      "major": 1802,
      "prä": 1803,
      "grand": 1804,
      "herr": 1805,
      "heter": 1806,
      "officiel": 1807,
      "sc": 1808,
      "ást": 1809,
      "stad": 1810,
      "alist": 1811,
      "seine": 1812,
      "ktiv": 1813,
      "kejs": 1814,
      "known": 1815,
      "lj": 1816,
      "mier": 1817,
      "msta": 1818,
      "atur": 1819,
      "lení": 1820,
      "jour": 1821,
      "vrch": 1822,
      "evropy": 1823,
      "period": 1824,
      "pedevím": 1825,
      "éta": 1826,
      "ari": 1827,
      "prmy": 1828,
      "främ": 1829,
      "byli": 1830,
      "peu": 1831,
      "zahl": 1832,
      "fois": 1833,
      "vody": 1834,
      "domin": 1835,
      "korun": 1836,
      "including": 1837,
      "období": 1838,
      "gin": 1839,
      "zwe": 1840,
      "post": 1841,
      "macht": 1842,
      "trib": 1843,
      "svta": 1844,
      "sondern": 1845,
      "vyí": 1846,
      "elezn": 1847,
      "religions": 1848,
      "politik": 1849,
      "dont": 1850,
      "handel": 1851,
      "millionen": 1852,
      "cla": 1853,
      "hier": 1854,
      "lung": 1855,
      "slav": 1856,
      "tar": 1857,
      "tím": 1858,
      "ík": 1859,
      "ón": 1860,
      "pov": 1861,
      "them": 1862,
      "zejména": 1863,
      "icky": 1864,
      "alement": 1865,
      "danmark": 1866,
      "anderen": 1867,
      "cyper": 1868,
      "získ": 1869,
      "republiky": 1870,
      "origin": 1871,
      "romantiken": 1872,
      "východ": 1873,
      "fem": 1874,
      "gibt": 1875,
      "hus": 1876,
      "où": 1877,
      "inv": 1878,
      "teur": 1879,
      "ress": 1880,
      "accoun": 1881,
      "premier": 1882,
      "wort": 1883,
      "dále": 1884,
      "glau": 1885,
      "jam": 1886,
      "uk": 1887,
      "ád": 1888,
      "itel": 1889,
      "thom": 1890,
      "tour": 1891,
      "osof": 1892,
      "filosof": 1893,
      "babie": 1894,
      "funktion": 1895,
      "tisí": 1896,
      "god": 1897,
      "rhé": 1898,
      "slu": 1899,
      "tz": 1900,
      "ali": 1901,
      "skup": 1902,
      "uses": 1903,
      "proto": 1904,
      "mag": 1905,
      "sche": 1906,
      "tens": 1907,
      "sup": 1908,
      "vyso": 1909,
      "ology": 1910,
      "spä": 1911,
      "ningar": 1912,
      "männ": 1913,
      "belie": 1914,
      "bå": 1915,
      "band": 1916,
      "cell": 1917,
      "line": 1918,
      "tres": 1919,
      "tän": 1920,
      "vikt": 1921,
      "wis": 1922,
      "ásti": 1923,
      "energ": 1924,
      "laut": 1925,
      "lim": 1926,
      "tod": 1927,
      "contin": 1928,
      "svar": 1929,
      "spre": 1930,
      "iii": 1931,
      "donc": 1932,
      "vater": 1933,
      "called": 1934,
      "bod": 1935,
      "fly": 1936,
      "his": 1937,
      "kur": 1938,
      "allow": 1939,
      "very": 1940,
      "open": 1941,
      "tysk": 1942,
      "západ": 1943,
      "while": 1944,
      "wohl": 1945,
      "selbst": 1946,
      "rhétor": 1947,
      "after": 1948,
      "bien": 1949,
      "gal": 1950,
      "sä": 1951,
      "where": 1952,
      "zus": 1953,
      "allen": 1954,
      "rad": 1955,
      "old": 1956,
      "ival": 1957,
      "weise": 1958,
      "sible": 1959,
      "senare": 1960,
      "kyr": 1961,
      "bety": 1962,
      "nature": 1963,
      "velké": 1964,
      "vissa": 1965,
      "mén": 1966,
      "trou": 1967,
      "univer": 1968,
      "seiner": 1969,
      "relativ": 1970,
      "mjölk": 1971,
      "hau": 1972,
      "ante": 1973,
      "pose": 1974,
      "gemen": 1975,
      "hod": 1976,
      "due": 1977,
      "nées": 1978,
      "fast": 1979,
      "réf": 1980,
      "place": 1981,
      "figure": 1982,
      "znám": 1983,
      "bun": 1984,
      "kle": 1985,
      "klá": 1986,
      "mind": 1987,
      "ným": 1988,
      "rie": 1989,
      "ères": 1990,
      "ory": 1991,
      "tho": 1992,
      "thod": 1993,
      "list": 1994,
      "först": 1995,
      "krat": 1996,
      "cích": 1997,
      "milion": 1998,
      "joh": 1999,
      "press": 2000,
      "större": 2001,
      "kteí": 2002,
      "währ": 2003,
      "hur": 2004,
      "lut": 2005,
      "xe": 2006,
      "ané": 2007,
      "secon": 2008,
      "tek": 2009,
      "ovou": 2010,
      "nem": 2011,
      "avo": 2012,
      "ics": 2013,
      "cog": 2014,
      "ieren": 2015,
      "delar": 2016,
      "iens": 2017,
      "gage": 2018,
      "betra": 2019,
      "lemp": 2020,
      "väx": 2021,
      "london": 2022,
      "slezska": 2023,
      "kingdom": 2024,
      "national": 2025,
      "být": 2026,
      "pozdji": 2027,
      "industr": 2028,
      "doch": 2029,
      "gjor": 2030,
      "tun": 2031,
      "öster": 2032,
      "inner": 2033,
      "only": 2034,
      "elles": 2035,
      "nam": 2036,
      "process": 2037,
      "prend": 2038,
      "sous": 2039,
      "differ": 2040,
      "stellt": 2041,
      "kirche": 2042,
      "linguist": 2043,
      "rhétorique": 2044,
      "bla": 2045,
      "här": 2046,
      "pur": 2047,
      "slag": 2048,
      "vliv": 2049,
      "äck": 2050,
      "öm": 2051,
      "ano": 2052,
      "postav": 2053,
      "ami": 2054,
      "sohn": 2055,
      "const": 2056,
      "core": 2057,
      "suc": 2058,
      "ických": 2059,
      "mittel": 2060,
      "kolem": 2061,
      "aktiv": 2062,
      "dau": 2063,
      "krom": 2064,
      "lors": 2065,
      "nové": 2066,
      "sär": 2067,
      "imm": 2068,
      "max": 2069,
      "idé": 2070,
      "pereur": 2071,
      "respe": 2072,
      "krie": 2073,
      "franco": 2074,
      "défin": 2075,
      "drá": 2076,
      "incre": 2077,
      "vlády": 2078,
      "budd": 2079,
      "národní": 2080,
      "ií": 2081,
      "pp": 2082,
      "year": 2083,
      "ème": 2084,
      "erade": 2085,
      "inde": 2086,
      "lev": 2087,
      "point": 2088,
      "entum": 2089,
      "ske": 2090,
      "made": 2091,
      "lands": 2092,
      "steht": 2093,
      "urspr": 2094,
      "doby": 2095,
      "míst": 2096,
      "present": 2097,
      "debating": 2098,
      "différ": 2099,
      "används": 2100,
      "besondere": 2101,
      "izace": 2102,
      "cs": 2103,
      "cation": 2104,
      "eigen": 2105,
      "kines": 2106,
      "zk": 2107,
      "ichte": 2108,
      "einfl": 2109,
      "byz": 2110,
      "quest": 2111,
      "pract": 2112,
      "ením": 2113,
      "way": 2114,
      "intel": 2115,
      "cancers": 2116,
      "group": 2117,
      "eská": 2118,
      "techn": 2119,
      "stellung": 2120,
      "cré": 2121,
      "ged": 2122,
      "kvin": 2123,
      "mol": 2124,
      "pun": 2125,
      "rent": 2126,
      "rätt": 2127,
      "situ": 2128,
      "üd": 2129,
      "inu": 2130,
      "ches": 2131,
      "like": 2132,
      "skill": 2133,
      "tele": 2134,
      "ight": 2135,
      "less": 2136,
      "soit": 2137,
      "heute": 2138,
      "ific": 2139,
      "temps": 2140,
      "text": 2141,
      "hrad": 2142,
      "während": 2143,
      "bib": 2144,
      "mem": 2145,
      "san": 2146,
      "slo": 2147,
      "trop": 2148,
      "équ": 2149,
      "üs": 2150,
      "leurs": 2151,
      "iti": 2152,
      "beit": 2153,
      "ign": 2154,
      "pris": 2155,
      "frü": 2156,
      "socie": 2157,
      "veej": 2158,
      "strun": 2159,
      "finan": 2160,
      "stehen": 2161,
      "vají": 2162,
      "typ": 2163,
      "slut": 2164,
      "kultu": 2165,
      "slezsko": 2166,
      "eský": 2167,
      "italien": 2168,
      "största": 2169,
      "bat": 2170,
      "bou": 2171,
      "lle": 2172,
      "lus": 2173,
      "mid": 2174,
      "pau": 2175,
      "sal": 2176,
      "tá": 2177,
      "uro": 2178,
      "ují": 2179,
      "zes": 2180,
      "ersch": 2181,
      "alog": 2182,
      "see": 2183,
      "sehr": 2184,
      "ammen": 2185,
      "ivo": 2186,
      "cts": 2187,
      "voir": 2188,
      "sicht": 2189,
      "british": 2190,
      "william": 2191,
      "number": 2192,
      "cypern": 2193,
      "clo": 2194,
      "gi": 2195,
      "gov": 2196,
      "msto": 2197,
      "oz": 2198,
      "pè": 2199,
      "risk": 2200,
      "sent": 2201,
      "tant": 2202,
      "enda": 2203,
      "onom": 2204,
      "ities": 2205,
      "ilt": 2206,
      "poj": 2207,
      "inge": 2208,
      "dessen": 2209,
      "iker": 2210,
      "mos": 2211,
      "serv": 2212,
      "tiden": 2213,
      "cír": 2214,
      "spir": 2215,
      "pedag": 2216,
      "väte": 2217,
      "kraje": 2218,
      "halb": 2219,
      "organis": 2220,
      "burg": 2221,
      "kirchen": 2222,
      "high": 2223,
      "oblasti": 2224,
      "monark": 2225,
      "skulle": 2226,
      "az": 2227,
      "leb": 2228,
      "ato": 2229,
      "skot": 2230,
      "ovi": 2231,
      "ices": 2232,
      "uten": 2233,
      "imo": 2234,
      "usually": 2235,
      "trat": 2236,
      "wieder": 2237,
      "four": 2238,
      "sveriges": 2239,
      "studi": 2240,
      "pouze": 2241,
      "lempire": 2242,
      "pedagog": 2243,
      "ages": 2244,
      "völ": 2245,
      "íe": 2246,
      "chy": 2247,
      "stel": 2248,
      "olf": 2249,
      "endant": 2250,
      "pedia": 2251,
      "stedov": 2252,
      "ecké": 2253,
      "archite": 2254,
      "platon": 2255,
      "strings": 2256,
      "wenn": 2257,
      "mission": 2258,
      "également": 2259,
      "après": 2260,
      "fte": 2261,
      "mr": 2262,
      "mand": 2263,
      "rund": 2264,
      "sak": 2265,
      "åter": 2266,
      "anatom": 2267,
      "issu": 2268,
      "islam": 2269,
      "lage": 2270,
      "gew": 2271,
      "qual": 2272,
      "imed": 2273,
      "prote": 2274,
      "hrt": 2275,
      "phys": 2276,
      "gue": 2277,
      "stock": 2278,
      "eských": 2279,
      "social": 2280,
      "countr": 2281,
      "certains": 2282,
      "philosophie": 2283,
      "später": 2284,
      "ace": 2285,
      "fi": 2286,
      "jäm": 2287,
      "lom": 2288,
      "må": 2289,
      "nko": 2290,
      "rè": 2291,
      "zak": 2292,
      "ástí": 2293,
      "stin": 2294,
      "alli": 2295,
      "poli": 2296,
      "aspe": 2297,
      "tement": 2298,
      "mají": 2299,
      "pac": 2300,
      "page": 2301,
      "daher": 2302,
      "sons": 2303,
      "bow": 2304,
      "gesam": 2305,
      "geistes": 2306,
      "effect": 2307,
      "certain": 2308,
      "popular": 2309,
      "klär": 2310,
      "partei": 2311,
      "vzdlá": 2312,
      "ales": 2313,
      "bá": 2314,
      "bed": 2315,
      "gö": 2316,
      "jud": 2317,
      "ktr": 2318,
      "äre": 2319,
      "eno": 2320,
      "encore": 2321,
      "poz": 2322,
      "postup": 2323,
      "augu": 2324,
      "gehör": 2325,
      "using": 2326,
      "para": 2327,
      "formen": 2328,
      "uments": 2329,
      "pace": 2330,
      "moc": 2331,
      "exter": 2332,
      "kontro": 2333,
      "ností": 2334,
      "grie": 2335,
      "side": 2336,
      "posit": 2337,
      "evropské": 2338,
      "funk": 2339,
      "early": 2340,
      "ární": 2341,
      "specif": 2342,
      "särskil": 2343,
      "bö": 2344,
      "bzw": 2345,
      "him": 2346,
      "jus": 2347,
      "kes": 2348,
      "klar": 2349,
      "pam": 2350,
      "roj": 2351,
      "then": 2352,
      "ieurs": 2353,
      "polo": 2354,
      "termin": 2355,
      "howe": 2356,
      "cké": 2357,
      "krá": 2358,
      "kring": 2359,
      "krist": 2360,
      "samman": 2361,
      "poslan": 2362,
      "tidig": 2363,
      "dalích": 2364,
      "eského": 2365,
      "instrument": 2366,
      "présent": 2367,
      "example": 2368,
      "however": 2369,
      "asto": 2370,
      "dj": 2371,
      "eli": 2372,
      "each": 2373,
      "gam": 2374,
      "glie": 2375,
      "hans": 2376,
      "hous": 2377,
      "ihn": 2378,
      "ène": 2379,
      "ana": 2380,
      "arab": 2381,
      "reger": 2382,
      "atel": 2383,
      "rodu": 2384,
      "amment": 2385,
      "versch": 2386,
      "mach": 2387,
      "mez": 2388,
      "ike": 2389,
      "dabei": 2390,
      "prahy": 2391,
      "skap": 2392,
      "alex": 2393,
      "insbesondere": 2394,
      "colle": 2395,
      "artic": 2396,
      "andere": 2397,
      "morav": 2398,
      "svtové": 2399,
      "síd": 2400,
      "semble": 2401,
      "symbol": 2402,
      "europä": 2403,
      "account": 2404,
      "thomas": 2405,
      "byzant": 2406,
      "aby": 2407,
      "cro": 2408,
      "går": 2409,
      "sna": 2410,
      "tt": 2411,
      "lehre": 2412,
      "recht": 2413,
      "law": 2414,
      "sex": 2415,
      "poet": 2416,
      "quelle": 2417,
      "provi": 2418,
      "sound": 2419,
      "concer": 2420,
      "model": 2421,
      "lang": 2422,
      "exp": 2423,
      "konst": 2424,
      "jím": 2425,
      "výra": 2426,
      "této": 2427,
      "ätta": 2428,
      "fore": 2429,
      "ischer": 2430,
      "histoire": 2431,
      "väst": 2432,
      "nice": 2433,
      "ovali": 2434,
      "kallas": 2435,
      "renesan": 2436,
      "josef": 2437,
      "govern": 2438,
      "countries": 2439,
      "bau": 2440,
      "dict": 2441,
      "fle": 2442,
      "hlas": 2443,
      "kv": 2444,
      "kli": 2445,
      "nous": 2446,
      "pho": 2447,
      "sans": 2448,
      "enligt": 2449,
      "chil": 2450,
      "atta": 2451,
      "eln": 2452,
      "ovem": 2453,
      "ists": 2454,
      "forma": 2455,
      "très": 2456,
      "prav": 2457,
      "svob": 2458,
      "via": 2459,
      "elektr": 2460,
      "vání": 2461,
      "jedná": 2462,
      "plusieurs": 2463,
      "solen": 2464,
      "gött": 2465,
      "animal": 2466,
      "kunde": 2467,
      "británie": 2468,
      "school": 2469,
      "cka": 2470,
      "kové": 2471,
      "mimo": 2472,
      "nm": 2473,
      "spor": 2474,
      "smy": 2475,
      "isen": 2476,
      "unden": 2477,
      "ould": 2478,
      "genann": 2479,
      "ctions": 2480,
      "dagen": 2481,
      "konce": 2482,
      "commun": 2483,
      "souvent": 2484,
      "mili": 2485,
      "kommen": 2486,
      "minut": 2487,
      "bara": 2488,
      "vratis": 2489,
      "voda": 2490,
      "fils": 2491,
      "vatten": 2492,
      "tryck": 2493,
      "particular": 2494,
      "culture": 2495,
      "théor": 2496,
      "tänkan": 2497,
      "mindre": 2498,
      "dö": 2499,
      "ihm": 2500,
      "lí": 2501,
      "ore": 2502,
      "redu": 2503,
      "reform": 2504,
      "orient": 2505,
      "rok": 2506,
      "limit": 2507,
      "quent": 2508,
      "being": 2509,
      "forme": 2510,
      "langage": 2511,
      "ktur": 2512,
      "both": 2513,
      "souas": 2514,
      "treat": 2515,
      "prez": 2516,
      "pedstav": 2517,
      "found": 2518,
      "ließ": 2519,
      "följ": 2520,
      "speak": 2521,
      "petr": 2522,
      "spolenosti": 2523,
      "class": 2524,
      "dim": 2525,
      "hlen": 2526,
      "kö": 2527,
      "obec": 2528,
      "sho": 2529,
      "spar": 2530,
      "tum": 2531,
      "tvar": 2532,
      "uí": 2533,
      "eny": 2534,
      "ere": 2535,
      "alors": 2536,
      "unge": 2537,
      "liber": 2538,
      "proces": 2539,
      "umní": 2540,
      "hren": 2541,
      "gren": 2542,
      "jích": 2543,
      "great": 2544,
      "follow": 2545,
      "actors": 2546,
      "jahrhunderts": 2547,
      "války": 2548,
      "renesance": 2549,
      "människ": 2550,
      "prezident": 2551,
      "aire": 2552,
      "dc": 2553,
      "dne": 2554,
      "hoch": 2555,
      "hung": 2556,
      "ml": 2557,
      "mär": 2558,
      "nal": 2559,
      "nkteré": 2560,
      "put": 2561,
      "uel": 2562,
      "wör": 2563,
      "yt": 2564,
      "iná": 2565,
      "information": 2566,
      "stala": 2567,
      "ley": 2568,
      "lades": 2569,
      "verbre": 2570,
      "tain": 2571,
      "contre": 2572,
      "zahran": 2573,
      "krig": 2574,
      "hard": 2575,
      "ties": 2576,
      "nya": 2577,
      "volu": 2578,
      "jedno": 2579,
      "notamment": 2580,
      "trois": 2581,
      "halten": 2582,
      "tats": 2583,
      "because": 2584,
      "exempelvis": 2585,
      "größ": 2586,
      "násled": 2587,
      "problem": 2588,
      "tedy": 2589,
      "linguistique": 2590,
      "cov": 2591,
      "gung": 2592,
      "lån": 2593,
      "näm": 2594,
      "pil": 2595,
      "yor": 2596,
      "zam": 2597,
      "ersten": 2598,
      "roi": 2599,
      "edu": 2600,
      "usa": 2601,
      "obchod": 2602,
      "mann": 2603,
      "sad": 2604,
      "ickou": 2605,
      "ausge": 2606,
      "japan": 2607,
      "ostra": 2608,
      "méta": 2609,
      "appe": 2610,
      "long": 2611,
      "frage": 2612,
      "druhé": 2613,
      "holm": 2614,
      "effet": 2615,
      "definition": 2616,
      "können": 2617,
      "spolenost": 2618,
      "influ": 2619,
      "bus": 2620,
      "dautres": 2621,
      "jn": 2622,
      "kus": 2623,
      "keine": 2624,
      "ola": 2625,
      "pd": 2626,
      "ule": 2627,
      "vas": 2628,
      "zä": 2629,
      "itt": 2630,
      "deren": 2631,
      "urg": 2632,
      "audi": 2633,
      "neben": 2634,
      "ava": 2635,
      "top": 2636,
      "mains": 2637,
      "iken": 2638,
      "fri": 2639,
      "abil": 2640,
      "resul": 2641,
      "chez": 2642,
      "content": 2643,
      "concept": 2644,
      "sax": 2645,
      "soud": 2646,
      "harmon": 2647,
      "stech": 2648,
      "staat": 2649,
      "miljon": 2650,
      "notes": 2651,
      "znamen": 2652,
      "státu": 2653,
      "groß": 2654,
      "sprachen": 2655,
      "unionens": 2656,
      "sloven": 2657,
      "texte": 2658,
      "david": 2659,
      "andrej": 2660,
      "ått": 2661,
      "ulier": 2662,
      "francophon": 2663,
      "ades": 2664,
      "bot": 2665,
      "dva": 2666,
      "finger": 2667,
      "ière": 2668,
      "ric": 2669,
      "sar": 2670,
      "tous": 2671,
      "úad": 2672,
      "ani": 2673,
      "ink": 2674,
      "change": 2675,
      "ete": 2676,
      "edon": 2677,
      "quer": 2678,
      "began": 2679,
      "moins": 2680,
      "sure": 2681,
      "varit": 2682,
      "tique": 2683,
      "types": 2684,
      "fact": 2685,
      "nejvyí": 2686,
      "based": 2687,
      "states": 2688,
      "history": 2689,
      "instit": 2690,
      "själ": 2691,
      "grekiska": 2692,
      "främst": 2693,
      "univerz": 2694,
      "adu": 2695,
      "aga": 2696,
      "civ": 2697,
      "cord": 2698,
      "fli": 2699,
      "fick": 2700,
      "fäl": 2701,
      "ogen": 2702,
      "cham": 2703,
      "aro": 2704,
      "itá": 2705,
      "ismu": 2706,
      "espè": 2707,
      "geben": 2708,
      "nement": 2709,
      "bewe": 2710,
      "territ": 2711,
      "imes": 2712,
      "vertre": 2713,
      "provo": 2714,
      "tail": 2715,
      "parla": 2716,
      "los": 2717,
      "losti": 2718,
      "ctes": 2719,
      "hrá": 2720,
      "contra": 2721,
      "lighet": 2722,
      "hela": 2723,
      "phra": 2724,
      "vibr": 2725,
      "ture": 2726,
      "geset": 2727,
      "jednot": 2728,
      "juli": 2729,
      "jorden": 2730,
      "janu": 2731,
      "clear": 2732,
      "tvoí": 2733,
      "university": 2734,
      "områden": 2735,
      "peuvent": 2736,
      "zusammen": 2737,
      "different": 2738,
      "stellen": 2739,
      "fu": 2740,
      "fann": 2741,
      "nkter": 2742,
      "tch": 2743,
      "tam": 2744,
      "viv": 2745,
      "vud": 2746,
      "viel": 2747,
      "chst": 2748,
      "ison": 2749,
      "esku": 2750,
      "robert": 2751,
      "poát": 2752,
      "utom": 2753,
      "tage": 2754,
      "priv": 2755,
      "ird": 2756,
      "frie": 2757,
      "brid": 2758,
      "mitglie": 2759,
      "ategor": 2760,
      "podá": 2761,
      "norra": 2762,
      "posled": 2763,
      "ward": 2764,
      "grad": 2765,
      "temperatur": 2766,
      "cirka": 2767,
      "glauben": 2768,
      "kinesiska": 2769,
      "cin": 2770,
      "cause": 2771,
      "date": 2772,
      "dlou": 2773,
      "dnes": 2774,
      "kas": 2775,
      "lång": 2776,
      "sina": 2777,
      "sätt": 2778,
      "vs": 2779,
      "lehn": 2780,
      "beis": 2781,
      "befolk": 2782,
      "sow": 2783,
      "bern": 2784,
      "berlin": 2785,
      "saint": 2786,
      "vytvo": 2787,
      "monde": 2788,
      "tyska": 2789,
      "výro": 2790,
      "tude": 2791,
      "hnutí": 2792,
      "huvud": 2793,
      "wikimed": 2794,
      "slezsku": 2795,
      "christian": 2796,
      "polov": 2797,
      "ideolog": 2798,
      "systém": 2799,
      "stední": 2800,
      "význam": 2801,
      "träd": 2802,
      "ohne": 2803,
      "james": 2804,
      "wikimedia": 2805,
      "bul": 2806,
      "celle": 2807,
      "fal": 2808,
      "gån": 2809,
      "hled": 2810,
      "ider": 2811,
      "nent": 2812,
      "tier": 2813,
      "zte": 2814,
      "ází": 2815,
      "anna": 2816,
      "inför": 2817,
      "stre": 2818,
      "ath": 2819,
      "ités": 2820,
      "team": 2821,
      "ovy": 2822,
      "hob": 2823,
      "cker": 2824,
      "zeu": 2825,
      "medan": 2826,
      "compar": 2827,
      "frank": 2828,
      "ostro": 2829,
      "licher": 2830,
      "aca": 2831,
      "voll": 2832,
      "work": 2833,
      "besch": 2834,
      "cri": 2835,
      "tidigt": 2836,
      "kolon": 2837,
      "viele": 2838,
      "standen": 2839,
      "simil": 2840,
      "södra": 2841,
      "pépin": 2842,
      "utveckling": 2843,
      "vrchol": 2844,
      "zwei": 2845,
      "sowjet": 2846,
      "fot": 2847,
      "git": 2848,
      "jim": 2849,
      "jmen": 2850,
      "mist": 2851,
      "mans": 2852,
      "oise": 2853,
      "pav": 2854,
      "sport": 2855,
      "vre": 2856,
      "wide": 2857,
      "erste": 2858,
      "erklär": 2859,
      "rale": 2860,
      "teurs": 2861,
      "bem": 2862,
      "meisten": 2863,
      "ligger": 2864,
      "medlem": 2865,
      "come": 2866,
      "ierte": 2867,
      "frankr": 2868,
      "span": 2869,
      "possible": 2870,
      "partie": 2871,
      "introdu": 2872,
      "väder": 2873,
      "folgen": 2874,
      "patr": 2875,
      "ovalo": 2876,
      "rodní": 2877,
      "pouí": 2878,
      "kultury": 2879,
      "payments": 2880,
      "början": 2881,
      "religiö": 2882,
      "science": 2883,
      "avoir": 2884,
      "ursprung": 2885,
      "cus": 2886,
      "djin": 2887,
      "ey": 2888,
      "fs": 2889,
      "få": 2890,
      "ften": 2891,
      "ius": 2892,
      "någ": 2893,
      "vier": 2894,
      "win": 2895,
      "zie": 2896,
      "úsp": 2897,
      "ane": 2898,
      "legen": 2899,
      "real": 2900,
      "atre": 2901,
      "lais": 2902,
      "laire": 2903,
      "lic": 2904,
      "lika": 2905,
      "ový": 2906,
      "denen": 2907,
      "ican": 2908,
      "ically": 2909,
      "hodn": 2910,
      "mest": 2911,
      "schr": 2912,
      "absol": 2913,
      "nos": 2914,
      "phy": 2915,
      "souástí": 2916,
      "vice": 2917,
      "indung": 2918,
      "velmi": 2919,
      "gang": 2920,
      "jours": 2921,
      "jií": 2922,
      "britain": 2923,
      "ovaly": 2924,
      "hatte": 2925,
      "existenz": 2926,
      "eftersom": 2927,
      "struct": 2928,
      "rám": 2929,
      "simple": 2930,
      "makedon": 2931,
      "kinas": 2932,
      "fession": 2933,
      "aristote": 2934,
      "did": 2935,
      "eit": 2936,
      "even": 2937,
      "opak": 2938,
      "piel": 2939,
      "russ": 2940,
      "sett": 2941,
      "yp": 2942,
      "ära": 2943,
      "aní": 2944,
      "delen": 2945,
      "leit": 2946,
      "rech": 2947,
      "ata": 2948,
      "org": 2949,
      "ald": 2950,
      "thre": 2951,
      "dence": 2952,
      "utgör": 2953,
      "beau": 2954,
      "verw": 2955,
      "provin": 2956,
      "program": 2957,
      "jean": 2958,
      "antes": 2959,
      "pers": 2960,
      "conna": 2961,
      "dag": 2962,
      "day": 2963,
      "grän": 2964,
      "née": 2965,
      "martin": 2966,
      "normal": 2967,
      "dyna": 2968,
      "spolu": 2969,
      "wahr": 2970,
      "mort": 2971,
      "består": 2972,
      "subje": 2973,
      "direct": 2974,
      "framför": 2975,
      "population": 2976,
      "správní": 2977,
      "möglich": 2978,
      "royau": 2979,
      "röm": 2980,
      "äufig": 2981,
      "klass": 2982,
      "radio": 2983,
      "både": 2984,
      "tyskland": 2985,
      "haupt": 2986,
      "intelligen": 2987,
      "kvinnor": 2988,
      "särskilt": 2989,
      "wörter": 2990,
      "parlament": 2991,
      "bé": 2992,
      "fä": 2993,
      "gent": 2994,
      "hle": 2995,
      "kau": 2996,
      "kost": 2997,
      "lát": 2998,
      "okol": 2999,
      "pier": 3000,
      "ration": 3001,
      "sum": 3002,
      "ware": 3003,
      "writ": 3004,
      "územ": 3005,
      "ústav": 3006,
      "ená": 3007,
      "enbar": 3008,
      "state": 3009,
      "rome": 3010,
      "eter": 3011,
      "derna": 3012,
      "lidí": 3013,
      "nade": 3014,
      "autre": 3015,
      "teh": 3016,
      "iment": 3017,
      "ives": 3018,
      "ables": 3019,
      "anti": 3020,
      "litté": 3021,
      "same": 3022,
      "romer": 3023,
      "forms": 3024,
      "drich": 3025,
      "létude": 3026,
      "minst": 3027,
      "engel": 3028,
      "jedin": 3029,
      "motion": 3030,
      "lieu": 3031,
      "sinne": 3032,
      "fert": 3033,
      "christentum": 3034,
      "stark": 3035,
      "dings": 3036,
      "rovn": 3037,
      "býval": 3038,
      "spojené": 3039,
      "weitere": 3040,
      "geschichte": 3041,
      "micha": 3042,
      "trinität": 3043,
      "continu": 3044,
      "cognit": 3045,
      "svobod": 3046,
      "miljoner": 3047,
      "aka": 3048,
      "bär": 3049,
      "bhem": 3050,
      "cing": 3051,
      "ef": 3052,
      "ep": 3053,
      "gäl": 3054,
      "jord": 3055,
      "kní": 3056,
      "ply": 3057,
      "uved": 3058,
      "eras": 3059,
      "stån": 3060,
      "stop": 3061,
      "dek": 3062,
      "leib": 3063,
      "lac": 3064,
      "labor": 3065,
      "eten": 3066,
      "ras": 3067,
      "olym": 3068,
      "geogra": 3069,
      "verwen": 3070,
      "schon": 3071,
      "ford": 3072,
      "pev": 3073,
      "padu": 3074,
      "pays": 3075,
      "lettres": 3076,
      "krä": 3077,
      "tige": 3078,
      "podí": 3079,
      "áln": 3080,
      "north": 3081,
      "ibland": 3082,
      "back": 3083,
      "coll": 3084,
      "ielt": 3085,
      "emplo": 3086,
      "carol": 3087,
      "vlád": 3088,
      "testam": 3089,
      "satz": 3090,
      "bedeutung": 3091,
      "endast": 3092,
      "stockholm": 3093,
      "government": 3094,
      "clu": 3095,
      "eth": 3096,
      "gång": 3097,
      "kvt": 3098,
      "lze": 3099,
      "mein": 3100,
      "ring": 3101,
      "rät": 3102,
      "richt": 3103,
      "élé": 3104,
      "övr": 3105,
      "chur": 3106,
      "ieden": 3107,
      "pole": 3108,
      "name": 3109,
      "andid": 3110,
      "pru": 3111,
      "suiv": 3112,
      "monarch": 3113,
      "staaten": 3114,
      "rozí": 3115,
      "zemdl": 3116,
      "agro": 3117,
      "mít": 3118,
      "celé": 3119,
      "peter": 3120,
      "bestimm": 3121,
      "view": 3122,
      "ihren": 3123,
      "stále": 3124,
      "börja": 3125,
      "snmov": 3126,
      "cependant": 3127,
      "richard": 3128,
      "vlastní": 3129,
      "anglick": 3130,
      "those": 3131,
      "society": 3132,
      "völker": 3133,
      "appear": 3134,
      "around": 3135,
      "rámci": 3136,
      "egen": 3137,
      "fut": 3138,
      "fund": 3139,
      "ior": 3140,
      "kos": 3141,
      "låg": 3142,
      "mund": 3143,
      "mör": 3144,
      "mul": 3145,
      "nte": 3146,
      "sdc": 3147,
      "vill": 3148,
      "stie": 3149,
      "stam": 3150,
      "stod": 3151,
      "statt": 3152,
      "atmos": 3153,
      "espe": 3154,
      "esko": 3155,
      "lakt": 3156,
      "etc": 3157,
      "raum": 3158,
      "außer": 3159,
      "cela": 3160,
      "gele": 3161,
      "neg": 3162,
      "quà": 3163,
      "einz": 3164,
      "makt": 3165,
      "objet": 3166,
      "ligne": 3167,
      "note": 3168,
      "ném": 3169,
      "samarbet": 3170,
      "typic": 3171,
      "stage": 3172,
      "former": 3173,
      "faire": 3174,
      "norr": 3175,
      "iell": 3176,
      "pij": 3177,
      "turk": 3178,
      "styr": 3179,
      "vilka": 3180,
      "status": 3181,
      "historia": 3182,
      "ického": 3183,
      "just": 3184,
      "wohn": 3185,
      "discours": 3186,
      "organizace": 3187,
      "country": 3188,
      "vláda": 3189,
      "språket": 3190,
      "ministerst": 3191,
      "något": 3192,
      "några": 3193,
      "athén": 3194,
      "source": 3195,
      "prmysl": 3196,
      "gjorde": 3197,
      "architekt": 3198,
      "tidigare": 3199,
      "någon": 3200,
      "typically": 3201,
      "dý": 3202,
      "gau": 3203,
      "hon": 3204,
      "hro": 3205,
      "hip": 3206,
      "jou": 3207,
      "kil": 3208,
      "kten": 3209,
      "kval": 3210,
      "lun": 3211,
      "nun": 3212,
      "ow": 3213,
      "rzn": 3214,
      "sul": 3215,
      "ting": 3216,
      "would": 3217,
      "xi": 3218,
      "zvan": 3219,
      "inse": 3220,
      "ders": 3221,
      "pochá": 3222,
      "lii": 3223,
      "austr": 3224,
      "auff": 3225,
      "einige": 3226,
      "making": 3227,
      "meist": 3228,
      "method": 3229,
      "bero": 3230,
      "upph": 3231,
      "ström": 3232,
      "syd": 3233,
      "podnik": 3234,
      "elect": 3235,
      "milit": 3236,
      "diesem": 3237,
      "political": 3238,
      "folge": 3239,
      "mín": 3240,
      "jahren": 3241,
      "flor": 3242,
      "million": 3243,
      "pieux": 3244,
      "dolo": 3245,
      "palá": 3246,
      "psychologie": 3247,
      "heiligen": 3248,
      "changes": 3249,
      "bundes": 3250,
      "second": 3251,
      "intelligence": 3252,
      "bü": 3253,
      "cm": 3254,
      "flo": 3255,
      "fung": 3256,
      "gut": 3257,
      "hit": 3258,
      "hud": 3259,
      "häufig": 3260,
      "já": 3261,
      "kod": 3262,
      "krop": 3263,
      "ms": 3264,
      "nob": 3265,
      "rud": 3266,
      "sov": 3267,
      "tion": 3268,
      "ual": 3269,
      "zab": 3270,
      "zlat": 3271,
      "ený": 3272,
      "ených": 3273,
      "lea": 3274,
      "alten": 3275,
      "pova": 3276,
      "life": 3277,
      "kade": 3278,
      "ivot": 3279,
      "pape": 3280,
      "sowohl": 3281,
      "prakt": 3282,
      "suite": 3283,
      "grande": 3284,
      "ktive": 3285,
      "finland": 3286,
      "centr": 3287,
      "central": 3288,
      "ován": 3289,
      "ována": 3290,
      "latein": 3291,
      "slun": 3292,
      "myth": 3293,
      "spoj": 3294,
      "word": 3295,
      "ímské": 3296,
      "ánu": 3297,
      "hlt": 3298,
      "skými": 3299,
      "belg": 3300,
      "riks": 3301,
      "violins": 3302,
      "payment": 3303,
      "ované": 3304,
      "förekommer": 3305,
      "bezie": 3306,
      "toutes": 3307,
      "sources": 3308,
      "världen": 3309,
      "griech": 3310,
      "friedrich": 3311,
      "hobby": 3312,
      "aqu": 3313,
      "bak": 3314,
      "hes": 3315,
      "sav": 3316,
      "sid": 3317,
      "vnit": 3318,
      "wat": 3319,
      "ående": 3320,
      "ert": 3321,
      "dete": 3322,
      "roll": 3323,
      "omfatt": 3324,
      "theologie": 3325,
      "edit": 3326,
      "ingar": 3327,
      "geh": 3328,
      "icul": 3329,
      "begin": 3330,
      "ters": 3331,
      "total": 3332,
      "make": 3333,
      "obce": 3334,
      "byg": 3335,
      "loc": 3336,
      "permet": 3337,
      "cii": 3338,
      "respon": 3339,
      "doc": 3340,
      "svou": 3341,
      "svého": 3342,
      "web": 3343,
      "franz": 3344,
      "vient": 3345,
      "samhäl": 3346,
      "rég": 3347,
      "ifter": 3348,
      "slí": 3349,
      "beton": 3350,
      "velk": 3351,
      "lempereur": 3352,
      "blir": 3353,
      "britské": 3354,
      "státy": 3355,
      "seinen": 3356,
      "personer": 3357,
      "sprach": 3358,
      "relations": 3359,
      "fasst": 3360,
      "ancient": 3361,
      "alternat": 3362,
      "prendre": 3363,
      "nkterých": 3364,
      "frankrike": 3365,
      "dlen": 3366,
      "får": 3367,
      "nim": 3368,
      "own": 3369,
      "ples": 3370,
      "uz": 3371,
      "wig": 3372,
      "ître": 3373,
      "enne": 3374,
      "erken": 3375,
      "dest": 3376,
      "arbeit": 3377,
      "rove": 3378,
      "etimes": 3379,
      "race": 3380,
      "skar": 3381,
      "neut": 3382,
      "uto": 3383,
      "amts": 3384,
      "impér": 3385,
      "präg": 3386,
      "fréqu": 3387,
      "sometimes": 3388,
      "pade": 3389,
      "dosá": 3390,
      "návr": 3391,
      "sud": 3392,
      "konz": 3393,
      "weil": 3394,
      "plu": 3395,
      "lud": 3396,
      "samostat": 3397,
      "type": 3398,
      "fac": 3399,
      "trest": 3400,
      "velká": 3401,
      "vision": 3402,
      "siehe": 3403,
      "pass": 3404,
      "vtina": 3405,
      "bilda": 3406,
      "christlichen": 3407,
      "halt": 3408,
      "petit": 3409,
      "ized": 3410,
      "zvu": 3411,
      "relation": 3412,
      "direkt": 3413,
      "okres": 3414,
      "semb": 3415,
      "führte": 3416,
      "järn": 3417,
      "occ": 3418,
      "mnoho": 3419,
      "royal": 3420,
      "hält": 3421,
      "developed": 3422,
      "signif": 3423,
      "bereich": 3424,
      "wissen": 3425,
      "betracht": 3426,
      "vzdlání": 3427,
      "fanns": 3428,
      "either": 3429,
      "akadem": 3430,
      "dir": 3431,
      "ght": 3432,
      "hä": 3433,
      "run": 3434,
      "sha": 3435,
      "soft": 3436,
      "vd": 3437,
      "ête": 3438,
      "öd": 3439,
      "dec": 3440,
      "depuis": 3441,
      "requ": 3442,
      "seits": 3443,
      "deras": 3444,
      "ella": 3445,
      "skuten": 3446,
      "table": 3447,
      "einzel": 3448,
      "pron": 3449,
      "ctive": 3450,
      "hrs": 3451,
      "svat": 3452,
      "comp": 3453,
      "plé": 3454,
      "luft": 3455,
      "poru": 3456,
      "tyto": 3457,
      "maria": 3458,
      "trad": 3459,
      "much": 3460,
      "spol": 3461,
      "valu": 3462,
      "karel": 3463,
      "language": 3464,
      "rena": 3465,
      "vtí": 3466,
      "vidare": 3467,
      "slezské": 3468,
      "anderer": 3469,
      "techni": 3470,
      "weiten": 3471,
      "subst": 3472,
      "neuen": 3473,
      "general": 3474,
      "ictví": 3475,
      "glob": 3476,
      "higher": 3477,
      "ecka": 3478,
      "affen": 3479,
      "ständig": 3480,
      "hospodá": 3481,
      "tisíc": 3482,
      "body": 3483,
      "europäischen": 3484,
      "ungefär": 3485,
      "métapho": 3486,
      "espèces": 3487,
      "auffass": 3488,
      "bid": 3489,
      "gilt": 3490,
      "käl": 3491,
      "nn": 3492,
      "nel": 3493,
      "nive": 3494,
      "sr": 3495,
      "wan": 3496,
      "èle": 3497,
      "revolution": 3498,
      "ome": 3499,
      "search": 3500,
      "poté": 3501,
      "teor": 3502,
      "níku": 3503,
      "icích": 3504,
      "ofici": 3505,
      "ame": 3506,
      "amo": 3507,
      "majet": 3508,
      "pages": 3509,
      "now": 3510,
      "montr": 3511,
      "romant": 3512,
      "dann": 3513,
      "spé": 3514,
      "kommun": 3515,
      "médi": 3516,
      "links": 3517,
      "länd": 3518,
      "capac": 3519,
      "debates": 3520,
      "rych": 3521,
      "díl": 3522,
      "stalin": 3523,
      "buch": 3524,
      "identif": 3525,
      "tato": 3526,
      "zvlát": 3527,
      "riket": 3528,
      "standard": 3529,
      "struktur": 3530,
      "natural": 3531,
      "jesu": 3532,
      "commons": 3533,
      "distin": 3534,
      "disting": 3535,
      "cherche": 3536,
      "moderní": 3537,
      "andreje": 3538,
      "möj": 3539,
      "allerdings": 3540,
      "further": 3541,
      "vechny": 3542,
      "référ": 3543,
      "johann": 3544,
      "krieg": 3545,
      "verschieden": 3546,
      "royaume": 3547,
      "pierre": 3548,
      "aires": 3549,
      "bres": 3550,
      "clav": 3551,
      "dje": 3552,
      "hein": 3553,
      "kn": 3554,
      "kär": 3555,
      "kandid": 3556,
      "lär": 3557,
      "nní": 3558,
      "pneu": 3559,
      "sb": 3560,
      "soch": 3561,
      "sung": 3562,
      "tala": 3563,
      "tande": 3564,
      "áz": 3565,
      "erv": 3566,
      "invol": 3567,
      "leí": 3568,
      "leen": 3569,
      "rest": 3570,
      "though": 3571,
      "rait": 3572,
      "naz": 3573,
      "user": 3574,
      "schul": 3575,
      "fru": 3576,
      "loth": 3577,
      "tru": 3578,
      "lande": 3579,
      "super": 3580,
      "konfli": 3581,
      "comple": 3582,
      "iale": 3583,
      "face": 3584,
      "rozvoj": 3585,
      "engl": 3586,
      "wikis": 3587,
      "cast": 3588,
      "großen": 3589,
      "menschlichen": 3590,
      "deutschlands": 3591,
      "stalo": 3592,
      "vention": 3593,
      "därför": 3594,
      "katov": 3595,
      "göttern": 3596,
      "válce": 3597,
      "house": 3598,
      "farande": 3599,
      "development": 3600,
      "dleit": 3601,
      "demokrat": 3602,
      "entwicklung": 3603,
      "important": 3604,
      "years": 3605,
      "york": 3606,
      "bridge": 3607,
      "three": 3608,
      "laktin": 3609,
      "capacité": 3610,
      "pneuma": 3611,
      "bh": 3612,
      "däre": 3613,
      "east": 3614,
      "gd": 3615,
      "hund": 3616,
      "hang": 3617,
      "klo": 3618,
      "mla": 3619,
      "mou": 3620,
      "taut": 3621,
      "uch": 3622,
      "vdy": 3623,
      "ints": 3624,
      "dev": 3625,
      "level": 3626,
      "arg": 3627,
      "lavi": 3628,
      "poá": 3629,
      "auto": 3630,
      "ovu": 3631,
      "gest": 3632,
      "nex": 3633,
      "iste": 3634,
      "procé": 3635,
      "prolaktin": 3636,
      "einheit": 3637,
      "mean": 3638,
      "cken": 3639,
      "consi": 3640,
      "tri": 3641,
      "zev": 3642,
      "mande": 3643,
      "název": 3644,
      "grup": 3645,
      "grès": 3646,
      "grün": 3647,
      "bran": 3648,
      "ktor": 3649,
      "francs": 3650,
      "ateur": 3651,
      "element": 3652,
      "dande": 3653,
      "danska": 3654,
      "lée": 3655,
      "minor": 3656,
      "jeden": 3657,
      "partir": 3658,
      "wirk": 3659,
      "dieses": 3660,
      "politiska": 3661,
      "uppg": 3662,
      "melon": 3663,
      "autom": 3664,
      "tida": 3665,
      "pulsen": 3666,
      "frem": 3667,
      "moral": 3668,
      "wikipedia": 3669,
      "millions": 3670,
      "helm": 3671,
      "mass": 3672,
      "tento": 3673,
      "biolog": 3674,
      "hranice": 3675,
      "dopravy": 3676,
      "couron": 3677,
      "falls": 3678,
      "tohoto": 3679,
      "george": 3680,
      "dvou": 3681,
      "kejsare": 3682,
      "dráhy": 3683,
      "buddh": 3684,
      "výrazn": 3685,
      "renesanní": 3686,
      "tchto": 3687,
      "verwendet": 3688,
      "flu": 3689,
      "gn": 3690,
      "kvar": 3691,
      "kni": 3692,
      "mare": 3693,
      "rör": 3694,
      "runt": 3695,
      "vik": 3696,
      "zat": 3697,
      "äten": 3698,
      "ízení": 3699,
      "initi": 3700,
      "unie": 3701,
      "ros": 3702,
      "third": 3703,
      "poí": 3704,
      "naire": 3705,
      "ovní": 3706,
      "terme": 3707,
      "tog": 3708,
      "odka": 3709,
      "lost": 3710,
      "perfor": 3711,
      "pagne": 3712,
      "tend": 3713,
      "fören": 3714,
      "hru": 3715,
      "moy": 3716,
      "konci": 3717,
      "compan": 3718,
      "gré": 3719,
      "zuje": 3720,
      "ickým": 3721,
      "vítz": 3722,
      "påver": 3723,
      "dels": 3724,
      "delse": 3725,
      "jahre": 3726,
      "spoleen": 3727,
      "regel": 3728,
      "znan": 3729,
      "feat": 3730,
      "evro": 3731,
      "metro": 3732,
      "grow": 3733,
      "personen": 3734,
      "bestand": 3735,
      "jiní": 3736,
      "nouvel": 3737,
      "playing": 3738,
      "správa": 3739,
      "vzta": 3740,
      "sitt": 3741,
      "medeltiden": 3742,
      "various": 3743,
      "toute": 3744,
      "toujours": 3745,
      "rapport": 3746,
      "welche": 3747,
      "associated": 3748,
      "question": 3749,
      "diction": 3750,
      "mitglieder": 3751,
      "beroende": 3752,
      "software": 3753,
      "hrsg": 3754,
      "cra": 3755,
      "cés": 3756,
      "dm": 3757,
      "ee": 3758,
      "fab": 3759,
      "helt": 3760,
      "jüd": 3761,
      "kmen": 3762,
      "mett": 3763,
      "ois": 3764,
      "pend": 3765,
      "rar": 3766,
      "upe": 3767,
      "ák": 3768,
      "ání": 3769,
      "äß": 3770,
      "ös": 3771,
      "eren": 3772,
      "another": 3773,
      "stet": 3774,
      "death": 3775,
      "ator": 3776,
      "attrib": 3777,
      "eti": 3778,
      "potu": 3779,
      "naopak": 3780,
      "emot": 3781,
      "hobb": 3782,
      "oban": 3783,
      "iku": 3784,
      "iran": 3785,
      "antal": 3786,
      "zejm": 3787,
      "sage": 3788,
      "bok": 3789,
      "bohat": 3790,
      "varier": 3791,
      "health": 3792,
      "ostrov": 3793,
      "what": 3794,
      "ption": 3795,
      "wales": 3796,
      "graf": 3797,
      "actions": 3798,
      "celu": 3799,
      "psyche": 3800,
      "druck": 3801,
      "could": 3802,
      "führt": 3803,
      "wilhelm": 3804,
      "origine": 3805,
      "davon": 3806,
      "pyren": 3807,
      "vetn": 3808,
      "jazyk": 3809,
      "joseph": 3810,
      "senátu": 3811,
      "fortfarande": 3812,
      "première": 3813,
      "although": 3814,
      "bereits": 3815,
      "était": 3816,
      "kyrkan": 3817,
      "paul": 3818,
      "círke": 3819,
      "verbreitet": 3820,
      "beispiel": 3821,
      "similar": 3822,
      "började": 3823,
      "insectes": 3824,
      "techniques": 3825,
      "consider": 3826,
      "bt": 3827,
      "cart": 3828,
      "dlení": 3829,
      "epo": 3830,
      "fak": 3831,
      "gav": 3832,
      "ira": 3833,
      "iden": 3834,
      "kta": 3835,
      "late": 3836,
      "oce": 3837,
      "rus": 3838,
      "sob": 3839,
      "vaux": 3840,
      "ök": 3841,
      "erar": 3842,
      "inform": 3843,
      "online": 3844,
      "arr": 3845,
      "aren": 3846,
      "orche": 3847,
      "ordet": 3848,
      "role": 3849,
      "seu": 3850,
      "derar": 3851,
      "power": 3852,
      "popu": 3853,
      "naden": 3854,
      "quen": 3855,
      "igh": 3856,
      "imal": 3857,
      "immer": 3858,
      "schwe": 3859,
      "bygg": 3860,
      "forts": 3861,
      "genet": 3862,
      "tension": 3863,
      "conom": 3864,
      "suff": 3865,
      "konze": 3866,
      "kontin": 3867,
      "grupp": 3868,
      "heut": 3869,
      "iers": 3870,
      "sera": 3871,
      "voje": 3872,
      "jac": 3873,
      "slou": 3874,
      "érie": 3875,
      "kole": 3876,
      "václav": 3877,
      "doma": 3878,
      "sinn": 3879,
      "christus": 3880,
      "borg": 3881,
      "starí": 3882,
      "banks": 3883,
      "káz": 3884,
      "druh": 3885,
      "gemäß": 3886,
      "dlí": 3887,
      "generally": 3888,
      "several": 3889,
      "ception": 3890,
      "symbo": 3891,
      "östern": 3892,
      "doprav": 3893,
      "hlavním": 3894,
      "cepts": 3895,
      "american": 3896,
      "particulier": 3897,
      "ebenso": 3898,
      "study": 3899,
      "support": 3900,
      "nkolik": 3901,
      "oiseaux": 3902,
      "auffassung": 3903,
      "spéci": 3904,
      "hobbies": 3905,
      "bir": 3906,
      "disk": 3907,
      "font": 3908,
      "gän": 3909,
      "gment": 3910,
      "ls": 3911,
      "opol": 3912,
      "plo": 3913,
      "sau": 3914,
      "tas": 3915,
      "uen": 3916,
      "vad": 3917,
      "vala": 3918,
      "zp": 3919,
      "zz": 3920,
      "zun": 3921,
      "ír": 3922,
      "read": 3923,
      "roli": 3924,
      "omkring": 3925,
      "poque": 3926,
      "ceux": 3927,
      "denk": 3928,
      "beim": 3929,
      "tern": 3930,
      "oblast": 3931,
      "frant": 3932,
      "anton": 3933,
      "veau": 3934,
      "viz": 3935,
      "samtidigt": 3936,
      "pís": 3937,
      "traité": 3938,
      "tradin": 3939,
      "ledna": 3940,
      "kommt": 3941,
      "nato": 3942,
      "lichkeit": 3943,
      "accent": 3944,
      "preu": 3945,
      "vodu": 3946,
      "intelle": 3947,
      "activ": 3948,
      "zdroj": 3949,
      "novem": 3950,
      "eským": 3951,
      "vanligt": 3952,
      "kallade": 3953,
      "eckých": 3954,
      "právní": 3955,
      "european": 3956,
      "smr": 3957,
      "small": 3958,
      "coup": 3959,
      "struction": 3960,
      "became": 3961,
      "fond": 3962,
      "führung": 3963,
      "occur": 3964,
      "piem": 3965,
      "dopravní": 3966,
      "homme": 3967,
      "bezeichnung": 3968,
      "dialekter": 3969,
      "instruments": 3970,
      "largest": 3971,
      "räk": 3972,
      "invån": 3973,
      "üsse": 3974,
      "règne": 3975,
      "august": 3976,
      "himmel": 3977,
      "flesta": 3978,
      "théorie": 3979,
      "employ": 3980,
      "odkazy": 3981,
      "schweiz": 3982,
      "air": 3983,
      "ased": 3984,
      "care": 3985,
      "dot": 3986,
      "dál": 3987,
      "hil": 3988,
      "lds": 3989,
      "mlu": 3990,
      "nj": 3991,
      "sju": 3992,
      "tý": 3993,
      "tol": 3994,
      "zas": 3995,
      "çon": 3996,
      "écrit": 3997,
      "ît": 3998,
      "ennent": 3999,
      "deten": 4000,
      "ars": 4001,
      "arten": 4002,
      "ref": 4003,
      "rein": 4004,
      "ross": 4005,
      "illes": 4006,
      "separ": 4007,
      "seien": 4008,
      "rakou": 4009,
      "els": 4010,
      "theit": 4011,
      "nahm": 4012,
      "quils": 4013,
      "avant": 4014,
      "bevölker": 4015,
      "among": 4016,
      "toto": 4017,
      "toten": 4018,
      "mechan": 4019,
      "schö": 4020,
      "parti": 4021,
      "genes": 4022,
      "lower": 4023,
      "pesto": 4024,
      "connu": 4025,
      "congrès": 4026,
      "extens": 4027,
      "commen": 4028,
      "kron": 4029,
      "závis": 4030,
      "pípad": 4031,
      "eux": 4032,
      "ledde": 4033,
      "latina": 4034,
      "within": 4035,
      "worlds": 4036,
      "appro": 4037,
      "isches": 4038,
      "vorstellung": 4039,
      "soll": 4040,
      "annan": 4041,
      "christi": 4042,
      "fred": 4043,
      "díky": 4044,
      "religionen": 4045,
      "tomu": 4046,
      "klus": 4047,
      "played": 4048,
      "materie": 4049,
      "británii": 4050,
      "världens": 4051,
      "constitu": 4052,
      "success": 4053,
      "index": 4054,
      "member": 4055,
      "monarki": 4056,
      "postupn": 4057,
      "classical": 4058,
      "francophones": 4059,
      "against": 4060,
      "champ": 4061,
      "vertreten": 4062,
      "phrase": 4063,
      "michael": 4064,
      "church": 4065,
      "bevölkerung": 4066,
      "af": 4067,
      "bles": 4068,
      "gol": 4069,
      "hme": 4070,
      "site": 4071,
      "ws": 4072,
      "wicht": 4073,
      "zby": 4074,
      "ßt": 4075,
      "édition": 4076,
      "chal": 4077,
      "stär": 4078,
      "dex": 4079,
      "atte": 4080,
      "itiv": 4081,
      "order": 4082,
      "esse": 4083,
      "rot": 4084,
      "lagen": 4085,
      "skon": 4086,
      "teba": 4087,
      "ovliv": 4088,
      "verse": 4089,
      "verein": 4090,
      "usst": 4091,
      "ott": 4092,
      "parmi": 4093,
      "cially": 4094,
      "divers": 4095,
      "försvar": 4096,
      "cted": 4097,
      "light": 4098,
      "hei": 4099,
      "krát": 4100,
      "sia": 4101,
      "sence": 4102,
      "vide": 4103,
      "porte": 4104,
      "liter": 4105,
      "indic": 4106,
      "dry": 4107,
      "myké": 4108,
      "zemích": 4109,
      "chron": 4110,
      "nachází": 4111,
      "liegt": 4112,
      "místo": 4113,
      "untersch": 4114,
      "seinem": 4115,
      "wassers": 4116,
      "mellanöstern": 4117,
      "hindu": 4118,
      "ssr": 4119,
      "lebens": 4120,
      "zogen": 4121,
      "havet": 4122,
      "gebiet": 4123,
      "dort": 4124,
      "given": 4125,
      "bitv": 4126,
      "grands": 4127,
      "viktiga": 4128,
      "uropa": 4129,
      "housle": 4130,
      "människor": 4131,
      "multi": 4132,
      "kilom": 4133,
      "métaphore": 4134,
      "ay": 4135,
      "astr": 4136,
      "bav": 4137,
      "bund": 4138,
      "fla": 4139,
      "jäl": 4140,
      "kpd": 4141,
      "mam": 4142,
      "mik": 4143,
      "mals": 4144,
      "mlad": 4145,
      "nande": 4146,
      "sus": 4147,
      "tie": 4148,
      "tla": 4149,
      "ující": 4150,
      "vem": 4151,
      "vät": 4152,
      "women": 4153,
      "ähn": 4154,
      "ächst": 4155,
      "écr": 4156,
      "ances": 4157,
      "inou": 4158,
      "lech": 4159,
      "redan": 4160,
      "research": 4161,
      "isme": 4162,
      "islav": 4163,
      "ieux": 4164,
      "lava": 4165,
      "lidé": 4166,
      "listo": 4167,
      "theor": 4168,
      "namn": 4169,
      "auc": 4170,
      "ními": 4171,
      "nehmen": 4172,
      "quon": 4173,
      "ime": 4174,
      "vere": 4175,
      "tax": 4176,
      "ived": 4177,
      "obvy": 4178,
      "umle": 4179,
      "dokonce": 4180,
      "concepts": 4181,
      "dazu": 4182,
      "mení": 4183,
      "praské": 4184,
      "beru": 4185,
      "gran": 4186,
      "bron": 4187,
      "zaala": 4188,
      "syr": 4189,
      "server": 4190,
      "cím": 4191,
      "nejznám": 4192,
      "londý": 4193,
      "dramat": 4194,
      "hypo": 4195,
      "wood": 4196,
      "groupe": 4197,
      "livre": 4198,
      "bestäm": 4199,
      "zurück": 4200,
      "organiz": 4201,
      "vielen": 4202,
      "jiné": 4203,
      "milliar": 4204,
      "republik": 4205,
      "substan": 4206,
      "stanov": 4207,
      "considé": 4208,
      "tín": 4209,
      "broad": 4210,
      "divis": 4211,
      "divad": 4212,
      "western": 4213,
      "traditional": 4214,
      "brukar": 4215,
      "philosophen": 4216,
      "innehål": 4217,
      "cultures": 4218,
      "nmecké": 4219,
      "scient": 4220,
      "podobn": 4221,
      "gemensamma": 4222,
      "postavení": 4223,
      "anatomi": 4224,
      "göra": 4225,
      "kesan": 4226,
      "meziná": 4227,
      "poslední": 4228,
      "aristoteles": 4229,
      "gäller": 4230,
      "renaissance": 4231,
      "zunächst": 4232,
      "hlo": 4233,
      "lè": 4234,
      "ming": 4235,
      "nkdy": 4236,
      "oph": 4237,
      "pib": 4238,
      "sas": 4239,
      "spl": 4240,
      "tj": 4241,
      "vic": 4242,
      "wol": 4243,
      "yl": 4244,
      "zune": 4245,
      "étant": 4246,
      "ency": 4247,
      "inre": 4248,
      "stom": 4249,
      "onas": 4250,
      "lead": 4251,
      "rolle": 4252,
      "sezna": 4253,
      "polen": 4254,
      "asion": 4255,
      "theol": 4256,
      "skem": 4257,
      "andr": 4258,
      "anden": 4259,
      "gestellt": 4260,
      "níz": 4261,
      "neue": 4262,
      "avait": 4263,
      "behö": 4264,
      "before": 4265,
      "imper": 4266,
      "version": 4267,
      "usion": 4268,
      "prochen": 4269,
      "prosted": 4270,
      "schließ": 4271,
      "parts": 4272,
      "local": 4273,
      "cks": 4274,
      "duch": 4275,
      "contain": 4276,
      "prac": 4277,
      "ligare": 4278,
      "svých": 4279,
      "combin": 4280,
      "varie": 4281,
      "addition": 4282,
      "víc": 4283,
      "souvis": 4284,
      "miro": 4285,
      "císa": 4286,
      "álních": 4287,
      "zárove": 4288,
      "ired": 4289,
      "centrum": 4290,
      "gesprochen": 4291,
      "ováno": 4292,
      "later": 4293,
      "jedním": 4294,
      "motsvar": 4295,
      "hui": 4296,
      "draí": 4297,
      "vilken": 4298,
      "statist": 4299,
      "ländern": 4300,
      "christliche": 4301,
      "starov": 4302,
      "internet": 4303,
      "rike": 4304,
      "talas": 4305,
      "kulturen": 4306,
      "good": 4307,
      "certaines": 4308,
      "ekonomiska": 4309,
      "itaine": 4310,
      "kannt": 4311,
      "festkörper": 4312,
      "romantikens": 4313,
      "nejvtím": 4314,
      "nombreuses": 4315,
      "ebenfalls": 4316,
      "východní": 4317,
      "situation": 4318,
      "tänkandet": 4319,
      "treatment": 4320,
      "institut": 4321,
      "geograf": 4322,
      "especially": 4323,
      "verschiedene": 4324,
      "konflikt": 4325,
      "procédé": 4326,
      "aj": 4327,
      "blie": 4328,
      "cz": 4329,
      "evi": 4330,
      "einge": 4331,
      "fel": 4332,
      "jde": 4333,
      "kog": 4334,
      "läm": 4335,
      "phe": 4336,
      "pení": 4337,
      "pens": 4338,
      "rang": 4339,
      "spa": 4340,
      "spí": 4341,
      "süd": 4342,
      "vind": 4343,
      "yn": 4344,
      "áe": 4345,
      "èmes": 4346,
      "ét": 4347,
      "úda": 4348,
      "üt": 4349,
      "analy": 4350,
      "iner": 4351,
      "chim": 4352,
      "left": 4353,
      "arn": 4354,
      "arily": 4355,
      "ismen": 4356,
      "iek": 4357,
      "lab": 4358,
      "etym": 4359,
      "seen": 4360,
      "seul": 4361,
      "bek": 4362,
      "bew": 4363,
      "begre": 4364,
      "besteht": 4365,
      "ighet": 4366,
      "propos": 4367,
      "pri": 4368,
      "ively": 4369,
      "obil": 4370,
      "obsa": 4371,
      "perspe": 4372,
      "code": 4373,
      "strany": 4374,
      "boo": 4375,
      "boha": 4376,
      "varje": 4377,
      "kud": 4378,
      "south": 4379,
      "finden": 4380,
      "findet": 4381,
      "allmän": 4382,
      "façon": 4383,
      "ostí": 4384,
      "tés": 4385,
      "ologi": 4386,
      "must": 4387,
      "muze": 4388,
      "viss": 4389,
      "apy": 4390,
      "beschr": 4391,
      "spricht": 4392,
      "drag": 4393,
      "högre": 4394,
      "mír": 4395,
      "acting": 4396,
      "horní": 4397,
      "teils": 4398,
      "teilweise": 4399,
      "antiken": 4400,
      "mstské": 4401,
      "råd": 4402,
      "kamen": 4403,
      "related": 4404,
      "blod": 4405,
      "verbindung": 4406,
      "prinzi": 4407,
      "mnoha": 4408,
      "full": 4409,
      "besonders": 4410,
      "obyvatelst": 4411,
      "ograph": 4412,
      "významným": 4413,
      "högsta": 4414,
      "student": 4415,
      "literatura": 4416,
      "entwickel": 4417,
      "elezniní": 4418,
      "západní": 4419,
      "einfluss": 4420,
      "skillnad": 4421,
      "tropes": 4422,
      "slutet": 4423,
      "pedagogik": 4424,
      "lombar": 4425,
      "education": 4426,
      "januari": 4427,
      "befolkningen": 4428,
      "written": 4429,
      "testament": 4430,
      "austral": 4431,
      "kpdsu": 4432,
      "listopadu": 4433,
      "zunehmen": 4434,
      "ais": 4435,
      "ado": 4436,
      "ddr": 4437,
      "every": 4438,
      "econom": 4439,
      "gte": 4440,
      "ging": 4441,
      "kel": 4442,
      "läg": 4443,
      "nil": 4444,
      "pid": 4445,
      "she": 4446,
      "tät": 4447,
      "éra": 4448,
      "íku": 4449,
      "aner": 4450,
      "années": 4451,
      "armá": 4452,
      "lion": 4453,
      "lire": 4454,
      "ural": 4455,
      "ases": 4456,
      "entlichen": 4457,
      "namen": 4458,
      "gehen": 4459,
      "need": 4460,
      "avak": 4461,
      "desig": 4462,
      "ista": 4463,
      "igkeit": 4464,
      "usage": 4465,
      "prog": 4466,
      "take": 4467,
      "frå": 4468,
      "force": 4469,
      "sozi": 4470,
      "ändr": 4471,
      "nám": 4472,
      "sade": 4473,
      "sagit": 4474,
      "compos": 4475,
      "boj": 4476,
      "heim": 4477,
      "six": 4478,
      "voy": 4479,
      "stejn": 4480,
      "aufgrund": 4481,
      "kanon": 4482,
      "tredje": 4483,
      "trait": 4484,
      "léon": 4485,
      "ovány": 4486,
      "nejvíce": 4487,
      "myn": 4488,
      "acou": 4489,
      "partici": 4490,
      "feod": 4491,
      "höj": 4492,
      "stats": 4493,
      "solche": 4494,
      "artik": 4495,
      "eskou": 4496,
      "producer": 4497,
      "production": 4498,
      "animale": 4499,
      "jících": 4500,
      "commonly": 4501,
      "moderne": 4502,
      "titre": 4503,
      "zákona": 4504,
      "vznikla": 4505,
      "nombreux": 4506,
      "landets": 4507,
      "heilige": 4508,
      "svenskan": 4509,
      "ntnis": 4510,
      "étudi": 4511,
      "städ": 4512,
      "association": 4513,
      "betydelse": 4514,
      "namnet": 4515,
      "respektive": 4516,
      "punkt": 4517,
      "círk": 4518,
      "jusquà": 4519,
      "klimat": 4520,
      "vratislavi": 4521,
      "ostrav": 4522,
      "große": 4523,
      "itálii": 4524,
      "clearing": 4525,
      "romerska": 4526,
      "stånd": 4527,
      "caroling": 4528,
      "ministerstvo": 4529,
      "zatím": 4530,
      "milliarden": 4531,
      "afin": 4532,
      "dd": 4533,
      "dna": 4534,
      "dlu": 4535,
      "fat": 4536,
      "fern": 4537,
      "hlu": 4538,
      "hielt": 4539,
      "juni": 4540,
      "kro": 4541,
      "kategor": 4542,
      "lant": 4543,
      "nus": 4544,
      "není": 4545,
      "rück": 4546,
      "swe": 4547,
      "scre": 4548,
      "zwar": 4549,
      "étique": 4550,
      "ino": 4551,
      "står": 4552,
      "start": 4553,
      "ones": 4554,
      "arts": 4555,
      "atr": 4556,
      "alism": 4557,
      "entlich": 4558,
      "nava": 4559,
      "quant": 4560,
      "istan": 4561,
      "vert": 4562,
      "prov": 4563,
      "prosa": 4564,
      "tade": 4565,
      "tains": 4566,
      "iven": 4567,
      "observ": 4568,
      "forsch": 4569,
      "locu": 4570,
      "abhän": 4571,
      "dub": 4572,
      "dia": 4573,
      "nástup": 4574,
      "nádraí": 4575,
      "vyhlá": 4576,
      "lux": 4577,
      "skému": 4578,
      "francis": 4579,
      "portail": 4580,
      "haft": 4581,
      "deutscher": 4582,
      "dance": 4583,
      "milk": 4584,
      "lednu": 4585,
      "rozhodn": 4586,
      "accept": 4587,
      "ellt": 4588,
      "regist": 4589,
      "breast": 4590,
      "liebe": 4591,
      "höch": 4592,
      "president": 4593,
      "icial": 4594,
      "others": 4595,
      "issent": 4596,
      "kathol": 4597,
      "liksom": 4598,
      "payee": 4599,
      "begrün": 4600,
      "cases": 4601,
      "rather": 4602,
      "válka": 4603,
      "data": 4604,
      "relative": 4605,
      "severní": 4606,
      "parteien": 4607,
      "sépar": 4608,
      "innebär": 4609,
      "sekret": 4610,
      "special": 4611,
      "radiation": 4612,
      "viron": 4613,
      "nästan": 4614,
      "herrsch": 4615,
      "skupiny": 4616,
      "österreich": 4617,
      "gesamt": 4618,
      "specific": 4619,
      "památ": 4620,
      "djur": 4621,
      "regeringen": 4622,
      "article": 4623,
      "bernard": 4624,
      "academ": 4625,
      "enbart": 4626,
      "lothaire": 4627,
      "invånare": 4628,
      "blan": 4629,
      "bür": 4630,
      "cad": 4631,
      "caus": 4632,
      "dise": 4633,
      "fant": 4634,
      "ifrån": 4635,
      "jas": 4636,
      "kungen": 4637,
      "ller": 4638,
      "mala": 4639,
      "mål": 4640,
      "opo": 4641,
      "pem": 4642,
      "säl": 4643,
      "tuto": 4644,
      "vou": 4645,
      "zpsob": 4646,
      "zweiten": 4647,
      "ám": 4648,
      "íi": 4649,
      "enou": 4650,
      "erde": 4651,
      "anf": 4652,
      "inve": 4653,
      "chte": 4654,
      "stil": 4655,
      "stol": 4656,
      "stein": 4657,
      "stoff": 4658,
      "revolu": 4659,
      "along": 4660,
      "unes": 4661,
      "unser": 4662,
      "eska": 4663,
      "sep": 4664,
      "potent": 4665,
      "sklad": 4666,
      "ouvra": 4667,
      "ovlá": 4668,
      "gestal": 4669,
      "qué": 4670,
      "icí": 4671,
      "igheter": 4672,
      "amt": 4673,
      "takt": 4674,
      "kad": 4675,
      "obra": 4676,
      "abstra": 4677,
      "pair": 4678,
      "försö": 4679,
      "änder": 4680,
      "dota": 4681,
      "manche": 4682,
      "serait": 4683,
      "voleb": 4684,
      "guer": 4685,
      "opt": 4686,
      "sammans": 4687,
      "décou": 4688,
      "mars": 4689,
      "výjim": 4690,
      "témat": 4691,
      "trade": 4692,
      "norge": 4693,
      "lán": 4694,
      "ového": 4695,
      "ván": 4696,
      "jedna": 4697,
      "ielle": 4698,
      "feder": 4699,
      "folket": 4700,
      "empire": 4701,
      "henry": 4702,
      "stort": 4703,
      "speech": 4704,
      "menschliche": 4705,
      "celles": 4706,
      "frei": 4707,
      "produced": 4708,
      "butter": 4709,
      "aktion": 4710,
      "romanes": 4711,
      "pomo": 4712,
      "stände": 4713,
      "family": 4714,
      "området": 4715,
      "läs": 4716,
      "literatur": 4717,
      "pvodn": 4718,
      "chaque": 4719,
      "zahlreich": 4720,
      "säga": 4721,
      "définition": 4722,
      "urope": 4723,
      "ivota": 4724,
      "childr": 4725,
      "größte": 4726,
      "cording": 4727,
      "atmosfär": 4728,
      "omfattande": 4729,
      "niveau": 4730,
      "londýn": 4731,
      "theologen": 4732,
      "cô": 4733,
      "fé": 4734,
      "fan": 4735,
      "fit": 4736,
      "kala": 4737,
      "lord": 4738,
      "our": 4739,
      "piv": 4740,
      "père": 4741,
      "sant": 4742,
      "vlad": 4743,
      "wär": 4744,
      "ôt": 4745,
      "ôle": 4746,
      "enth": 4747,
      "erven": 4748,
      "andet": 4749,
      "analog": 4750,
      "iních": 4751,
      "stique": 4752,
      "rev": 4753,
      "rost": 4754,
      "skol": 4755,
      "neder": 4756,
      "become": 4757,
      "diet": 4758,
      "ems": 4759,
      "prve": 4760,
      "odmít": 4761,
      "ivå": 4762,
      "oba": 4763,
      "idag": 4764,
      "gend": 4765,
      "loi": 4766,
      "padn": 4767,
      "doit": 4768,
      "akter": 4769,
      "tren": 4770,
      "zeus": 4771,
      "moci": 4772,
      "pravi": 4773,
      "náz": 4774,
      "exper": 4775,
      "konung": 4776,
      "konfession": 4777,
      "bry": 4778,
      "brun": 4779,
      "varian": 4780,
      "zug": 4781,
      "zují": 4782,
      "letz": 4783,
      "krut": 4784,
      "money": 4785,
      "opposition": 4786,
      "portu": 4787,
      "allgem": 4788,
      "komun": 4789,
      "gabe": 4790,
      "lassen": 4791,
      "válen": 4792,
      "appar": 4793,
      "food": 4794,
      "politbü": 4795,
      "såsom": 4796,
      "sådan": 4797,
      "västra": 4798,
      "liegen": 4799,
      "psal": 4800,
      "wobei": 4801,
      "christen": 4802,
      "halv": 4803,
      "vanliga": 4804,
      "göttin": 4805,
      "create": 4806,
      "created": 4807,
      "interest": 4808,
      "právo": 4809,
      "psyk": 4810,
      "tomto": 4811,
      "lished": 4812,
      "zoologie": 4813,
      "glise": 4814,
      "pério": 4815,
      "sites": 4816,
      "ixe": 4817,
      "signific": 4818,
      "famil": 4819,
      "njím": 4820,
      "nicmén": 4821,
      "hjärtat": 4822,
      "zaved": 4823,
      "prägt": 4824,
      "funktionen": 4825,
      "tisíci": 4826,
      "båda": 4827,
      "trouve": 4828,
      "innerhalb": 4829,
      "frühen": 4830,
      "kultura": 4831,
      "schrift": 4832,
      "övriga": 4833,
      "rzných": 4834,
      "französ": 4835,
      "pléonas": 4836,
      "ländska": 4837,
      "nazý": 4838,
      "performan": 4839,
      "moyen": 4840,
      "piblin": 4841,
      "prinzip": 4842,
      "bürger": 4843,
      "ai": 4844,
      "dt": 4845,
      "dov": 4846,
      "gig": 4847,
      "ides": 4848,
      "jä": 4849,
      "ková": 4850,
      "lhomme": 4851,
      "mur": 4852,
      "mic": 4853,
      "mir": 4854,
      "mün": 4855,
      "sní": 4856,
      "sém": 4857,
      "zan": 4858,
      "zru": 4859,
      "anal": 4860,
      "inté": 4861,
      "ched": 4862,
      "leu": 4863,
      "lepí": 4864,
      "ara": 4865,
      "orthod": 4866,
      "aler": 4867,
      "iskan": 4868,
      "unded": 4869,
      "thing": 4870,
      "etwas": 4871,
      "raison": 4872,
      "asse": 4873,
      "theatre": 4874,
      "nader": 4875,
      "nalez": 4876,
      "ski": 4877,
      "geht": 4878,
      "gebra": 4879,
      "aver": 4880,
      "beeinfl": 4881,
      "isté": 4882,
      "imême": 4883,
      "impli": 4884,
      "how": 4885,
      "maß": 4886,
      "ivent": 4887,
      "umen": 4888,
      "persu": 4889,
      "cia": 4890,
      "dien": 4891,
      "pravid": 4892,
      "sacre": 4893,
      "comm": 4894,
      "sträck": 4895,
      "plán": 4896,
      "lenní": 4897,
      "gustav": 4898,
      "finans": 4899,
      "vila": 4900,
      "cessa": 4901,
      "kého": 4902,
      "venir": 4903,
      "ible": 4904,
      "white": 4905,
      "muse": 4906,
      "natür": 4907,
      "across": 4908,
      "barn": 4909,
      "colon": 4910,
      "appel": 4911,
      "muslim": 4912,
      "signe": 4913,
      "diesen": 4914,
      "politique": 4915,
      "beslut": 4916,
      "placer": 4917,
      "event": 4918,
      "höga": 4919,
      "juden": 4920,
      "disc": 4921,
      "disci": 4922,
      "offent": 4923,
      "free": 4924,
      "koly": 4925,
      "cret": 4926,
      "jana": 4927,
      "difficul": 4928,
      "siln": 4929,
      "institu": 4930,
      "allein": 4931,
      "variant": 4932,
      "singes": 4933,
      "projekt": 4934,
      "athény": 4935,
      "gaben": 4936,
      "michel": 4937,
      "georg": 4938,
      "nieder": 4939,
      "ställ": 4940,
      "získal": 4941,
      "cells": 4942,
      "sprechen": 4943,
      "bibel": 4944,
      "zaklad": 4945,
      "articles": 4946,
      "tänkande": 4947,
      "dimens": 4948,
      "následn": 4949,
      "själv": 4950,
      "jordbru": 4951,
      "agrofert": 4952,
      "région": 4953,
      "amount": 4954,
      "meaning": 4955,
      "dictionnaire": 4956,
      "pyrene": 4957,
      "considered": 4958,
      "seulement": 4959,
      "popula": 4960,
      "frantiek": 4961,
      "november": 4962,
      "pravidel": 4963,
      "orthodox": 4964,
      "ah": 4965,
      "acht": 4966,
      "bill": 4967,
      "cup": 4968,
      "dhui": 4969,
      "eig": 4970,
      "fid": 4971,
      "feu": 4972,
      "ios": 4973,
      "kup": 4974,
      "lis": 4975,
      "mm": 4976,
      "mlo": 4977,
      "ode": 4978,
      "ppet": 4979,
      "right": 4980,
      "sun": 4981,
      "vla": 4982,
      "vise": 4983,
      "whe": 4984,
      "zung": 4985,
      "èrent": 4986,
      "únor": 4987,
      "environ": 4988,
      "erad": 4989,
      "innan": 4990,
      "informa": 4991,
      "stim": 4992,
      "still": 4993,
      "report": 4994,
      "iten": 4995,
      "itten": 4996,
      "oru": 4997,
      "orna": 4998,
      "alan": 4999,
      "thor": 5000,
      "omou": 5001,
      "pode": 5002,
      "pois": 5003,
      "lier": 5004,
      "asing": 5005,
      "edward": 5006,
      "ovar": 5007,
      "ovým": 5008,
      "olomou": 5009,
      "denn": 5010,
      "verfü": 5011,
      "verfas": 5012,
      "verhält": 5013,
      "prozes": 5014,
      "kaiser": 5015,
      "odbor": 5016,
      "ober": 5017,
      "obrá": 5018,
      "somit": 5019,
      "lokal": 5020,
      "perform": 5021,
      "ciz": 5022,
      "cial": 5023,
      "resp": 5024,
      "contro": 5025,
      "condition": 5026,
      "veget": 5027,
      "sug": 5028,
      "svår": 5029,
      "konnte": 5030,
      "comes": 5031,
      "vydá": 5032,
      "book": 5033,
      "adam": 5034,
      "nécessa": 5035,
      "mitt": 5036,
      "guar": 5037,
      "vii": 5038,
      "opér": 5039,
      "tif": 5040,
      "zájem": 5041,
      "zájm": 5042,
      "oslav": 5043,
      "spis": 5044,
      "léglise": 5045,
      "ifs": 5046,
      "wards": 5047,
      "volb": 5048,
      "worden": 5049,
      "jedn": 5050,
      "dsled": 5051,
      "hlí": 5052,
      "britt": 5053,
      "ordnet": 5054,
      "meta": 5055,
      "historiska": 5056,
      "anderem": 5057,
      "caract": 5058,
      "puls": 5059,
      "panz": 5060,
      "self": 5061,
      "männis": 5062,
      "weltweit": 5063,
      "dnení": 5064,
      "republiken": 5065,
      "systems": 5066,
      "begrän": 5067,
      "bezpen": 5068,
      "könig": 5069,
      "tests": 5070,
      "správy": 5071,
      "länderna": 5072,
      "nordiska": 5073,
      "makten": 5074,
      "ectví": 5075,
      "bildung": 5076,
      "illeurs": 5077,
      "städer": 5078,
      "viktig": 5079,
      "dauph": 5080,
      "middle": 5081,
      "funkce": 5082,
      "ihnen": 5083,
      "collect": 5084,
      "schools": 5085,
      "speaker": 5086,
      "ytter": 5087,
      "civil": 5088,
      "polovin": 5089,
      "ostrovy": 5090,
      "sowjetunion": 5091,
      "mistrov": 5092,
      "djiny": 5093,
      "structure": 5094,
      "engelska": 5095,
      "palác": 5096,
      "nobel": 5097,
      "riksdagen": 5098,
      "company": 5099,
      "intellekt": 5100,
      "obvykle": 5101,
      "encyclo": 5102,
      "spíe": 5103,
      "significant": 5104,
      "discipl": 5105,
      "cli": 5106,
      "dil": 5107,
      "dès": 5108,
      "five": 5109,
      "fiel": 5110,
      "gick": 5111,
      "hlav": 5112,
      "jind": 5113,
      "ki": 5114,
      "kind": 5115,
      "mán": 5116,
      "msí": 5117,
      "nol": 5118,
      "oth": 5119,
      "ypt": 5120,
      "úast": 5121,
      "ank": 5122,
      "stelle": 5123,
      "deck": 5124,
      "arv": 5125,
      "rea": 5126,
      "recent": 5127,
      "itní": 5128,
      "itution": 5129,
      "isse": 5130,
      "ths": 5131,
      "thus": 5132,
      "oma": 5133,
      "sehen": 5134,
      "poly": 5135,
      "poser": 5136,
      "liver": 5137,
      "asia": 5138,
      "nac": 5139,
      "navíc": 5140,
      "nezávis": 5141,
      "beans": 5142,
      "emat": 5143,
      "users": 5144,
      "prom": 5145,
      "prostor": 5146,
      "tai": 5147,
      "maine": 5148,
      "prat": 5149,
      "parfois": 5150,
      "ids": 5151,
      "pale": 5152,
      "dipl": 5153,
      "diag": 5154,
      "förslag": 5155,
      "dok": 5156,
      "conqu": 5157,
      "akci": 5158,
      "tritt": 5159,
      "extre": 5160,
      "noter": 5161,
      "compl": 5162,
      "weis": 5163,
      "tillsammans": 5164,
      "strate": 5165,
      "zahr": 5166,
      "zuge": 5167,
      "luimême": 5168,
      "estab": 5169,
      "porter": 5170,
      "tée": 5171,
      "tradu": 5172,
      "werk": 5173,
      "base": 5174,
      "aveb": 5175,
      "humain": 5176,
      "anglie": 5177,
      "besit": 5178,
      "dobu": 5179,
      "ville": 5180,
      "solens": 5181,
      "bilden": 5182,
      "active": 5183,
      "nový": 5184,
      "hory": 5185,
      "hormon": 5186,
      "systé": 5187,
      "kallad": 5188,
      "staly": 5189,
      "produce": 5190,
      "ecko": 5191,
      "slovník": 5192,
      "rikt": 5193,
      "kulturní": 5194,
      "katoli": 5195,
      "rådet": 5196,
      "språken": 5197,
      "custom": 5198,
      "lauf": 5199,
      "gegensatz": 5200,
      "cash": 5201,
      "regional": 5202,
      "förekom": 5203,
      "houslí": 5204,
      "movement": 5205,
      "distr": 5206,
      "parteit": 5207,
      "söder": 5208,
      "materi": 5209,
      "jejím": 5210,
      "fyz": 5211,
      "fyra": 5212,
      "strana": 5213,
      "grammat": 5214,
      "planet": 5215,
      "sjö": 5216,
      "grekland": 5217,
      "oznaení": 5218,
      "africa": 5219,
      "pitch": 5220,
      "nära": 5221,
      "officiellt": 5222,
      "jourdhui": 5223,
      "vysoké": 5224,
      "belief": 5225,
      "eigene": 5226,
      "child": 5227,
      "sparta": 5228,
      "following": 5229,
      "vibrato": 5230,
      "beaucoup": 5231,
      "tehdy": 5232,
      "littéra": 5233,
      "cognitive": 5234,
      "samarbete": 5235,
      "argument": 5236,
      "evropa": 5237,
      "celui": 5238,
      "kontinent": 5239,
      "domaine": 5240,
      "considéré": 5241,
      "mezinárodní": 5242,
      "books": 5243,
      "children": 5244,
      "période": 5245,
      "sémant": 5246,
      "människan": 5247,
      "ae": 5248,
      "adel": 5249,
      "cles": 5250,
      "cum": 5251,
      "cení": 5252,
      "cens": 5253,
      "city": 5254,
      "fau": 5255,
      "hér": 5256,
      "lal": 5257,
      "mom": 5258,
      "mig": 5259,
      "nin": 5260,
      "oct": 5261,
      "oliv": 5262,
      "ping": 5263,
      "sw": 5264,
      "smo": 5265,
      "sät": 5266,
      "tic": 5267,
      "uzav": 5268,
      "vl": 5269,
      "vul": 5270,
      "vky": 5271,
      "won": 5272,
      "you": 5273,
      "zm": 5274,
      "öff": 5275,
      "enden": 5276,
      "inten": 5277,
      "intens": 5278,
      "stro": 5279,
      "ledu": 5280,
      "leurope": 5281,
      "rece": 5282,
      "attem": 5283,
      "ití": 5284,
      "ort": 5285,
      "rol": 5286,
      "rael": 5287,
      "rahmen": 5288,
      "points": 5289,
      "pokud": 5290,
      "else": 5291,
      "entes": 5292,
      "skin": 5293,
      "sked": 5294,
      "geprägt": 5295,
      "nez": 5296,
      "istic": 5297,
      "termes": 5298,
      "tober": 5299,
      "verstehen": 5300,
      "proposition": 5301,
      "profes": 5302,
      "prohlá": 5303,
      "holic": 5304,
      "einander": 5305,
      "prmr": 5306,
      "means": 5307,
      "irn": 5308,
      "fron": 5309,
      "forn": 5310,
      "forsk": 5311,
      "perman": 5312,
      "dog": 5313,
      "illu": 5314,
      "aktu": 5315,
      "cost": 5316,
      "commer": 5317,
      "weg": 5318,
      "vyuí": 5319,
      "uppr": 5320,
      "vars": 5321,
      "hebr": 5322,
      "plot": 5323,
      "zaal": 5324,
      "zudem": 5325,
      "lety": 5326,
      "phen": 5327,
      "synon": 5328,
      "franska": 5329,
      "deutlich": 5330,
      "fine": 5331,
      "tient": 5332,
      "dévelop": 5333,
      "zástup": 5334,
      "hervor": 5335,
      "äldre": 5336,
      "udssr": 5337,
      "píslun": 5338,
      "drück": 5339,
      "résul": 5340,
      "rozsá": 5341,
      "according": 5342,
      "wart": 5343,
      "barnet": 5344,
      "bay": 5345,
      "iesen": 5346,
      "vali": 5347,
      "humains": 5348,
      "politické": 5349,
      "link": 5350,
      "beiden": 5351,
      "vtví": 5352,
      "empir": 5353,
      "crib": 5354,
      "juda": 5355,
      "längre": 5356,
      "debat": 5357,
      "nových": 5358,
      "jetí": 5359,
      "genommen": 5360,
      "därmed": 5361,
      "antike": 5362,
      "mstem": 5363,
      "coura": 5364,
      "times": 5365,
      "kunna": 5366,
      "transport": 5367,
      "datab": 5368,
      "könne": 5369,
      "festival": 5370,
      "quelques": 5371,
      "medeltida": 5372,
      "dialekt": 5373,
      "oftast": 5374,
      "gemeinden": 5375,
      "reference": 5376,
      "utilisation": 5377,
      "indian": 5378,
      "officiella": 5379,
      "maxim": 5380,
      "increased": 5381,
      "struny": 5382,
      "kulturel": 5383,
      "lusage": 5384,
      "jämför": 5385,
      "miliar": 5386,
      "vratislav": 5387,
      "quently": 5388,
      "souasnosti": 5389,
      "provoz": 5390,
      "poátku": 5391,
      "cript": 5392,
      "römischen": 5393,
      "olympij": 5394,
      "militär": 5395,
      "cartes": 5396,
      "substanz": 5397,
      "seznam": 5398,
      "procédés": 5399,
      "kognit": 5400,
      "chimpanz": 5401,
      "screen": 5402,
      "pléonasme": 5403,
      "mistrovství": 5404,
      "bs": 5405,
      "ball": 5406,
      "blich": 5407,
      "bön": 5408,
      "dti": 5409,
      "dtí": 5410,
      "fér": 5411,
      "hli": 5412,
      "hinge": 5413,
      "hjäl": 5414,
      "klu": 5415,
      "kall": 5416,
      "là": 5417,
      "nová": 5418,
      "ole": 5419,
      "pala": 5420,
      "rz": 5421,
      "ris": 5422,
      "sma": 5423,
      "sän": 5424,
      "sled": 5425,
      "série": 5426,
      "tau": 5427,
      "tvor": 5428,
      "uer": 5429,
      "ukra": 5430,
      "ving": 5431,
      "wom": 5432,
      "wider": 5433,
      "àdire": 5434,
      "âge": 5435,
      "ète": 5436,
      "étr": 5437,
      "íj": 5438,
      "anges": 5439,
      "ined": 5440,
      "stöd": 5441,
      "legt": 5442,
      "represent": 5443,
      "iter": 5444,
      "alles": 5445,
      "alismus": 5446,
      "una": 5447,
      "rody": 5448,
      "etn": 5449,
      "etzt": 5450,
      "pokus": 5451,
      "liste": 5452,
      "elo": 5453,
      "entstanden": 5454,
      "augment": 5455,
      "cesty": 5456,
      "neur": 5457,
      "descartes": 5458,
      "terna": 5459,
      "igten": 5460,
      "igung": 5461,
      "verte": 5462,
      "promin": 5463,
      "obnov": 5464,
      "mek": 5465,
      "perç": 5466,
      "permett": 5467,
      "soli": 5468,
      "förändr": 5469,
      "contr": 5470,
      "anses": 5471,
      "zehn": 5472,
      "moe": 5473,
      "pracov": 5474,
      "nách": 5475,
      "sach": 5476,
      "express": 5477,
      "extension": 5478,
      "konec": 5479,
      "compor": 5480,
      "gru": 5481,
      "westen": 5482,
      "brés": 5483,
      "tillhör": 5484,
      "varor": 5485,
      "plate": 5486,
      "kru": 5487,
      "advan": 5488,
      "francou": 5489,
      "soudu": 5490,
      "montre": 5491,
      "gues": 5492,
      "átor": 5493,
      "samband": 5494,
      "aufge": 5495,
      "tyi": 5496,
      "déc": 5497,
      "dél": 5498,
      "álie": 5499,
      "fün": 5500,
      "tém": 5501,
      "pímo": 5502,
      "pírodní": 5503,
      "wert": 5504,
      "iften": 5505,
      "nejstarí": 5506,
      "hnen": 5507,
      "without": 5508,
      "velkou": 5509,
      "mémo": 5510,
      "charac": 5511,
      "musí": 5512,
      "surtout": 5513,
      "hudeb": 5514,
      "grec": 5515,
      "vtinu": 5516,
      "cry": 5517,
      "framst": 5518,
      "geistigen": 5519,
      "action": 5520,
      "born": 5521,
      "half": 5522,
      "itude": 5523,
      "panl": 5524,
      "credit": 5525,
      "studie": 5526,
      "slovan": 5527,
      "kách": 5528,
      "issant": 5529,
      "mstských": 5530,
      "republika": 5531,
      "budou": 5532,
      "använd": 5533,
      "iteten": 5534,
      "ågor": 5535,
      "gegenüber": 5536,
      "kunden": 5537,
      "ekonomi": 5538,
      "habs": 5539,
      "positions": 5540,
      "defined": 5541,
      "fassen": 5542,
      "cestàdire": 5543,
      "moderna": 5544,
      "quelles": 5545,
      "ancien": 5546,
      "material": 5547,
      "objevil": 5548,
      "innebar": 5549,
      "ronic": 5550,
      "håll": 5551,
      "klasické": 5552,
      "vlastn": 5553,
      "izaci": 5554,
      "until": 5555,
      "students": 5556,
      "základní": 5557,
      "cambridge": 5558,
      "größer": 5559,
      "india": 5560,
      "protoe": 5561,
      "spread": 5562,
      "kládá": 5563,
      "respect": 5564,
      "practices": 5565,
      "financí": 5566,
      "studier": 5567,
      "quality": 5568,
      "physical": 5569,
      "gehört": 5570,
      "gamla": 5571,
      "kvli": 5572,
      "genannt": 5573,
      "particularly": 5574,
      "zamst": 5575,
      "availa": 5576,
      "saxons": 5577,
      "territor": 5578,
      "gesetz": 5579,
      "electronic": 5580,
      "sovt": 5581,
      "heslo": 5582,
      "samhället": 5583,
      "konzil": 5584,
      "occident": 5585,
      "betrachtet": 5586,
      "socha": 5587,
      "complex": 5588,
      "církev": 5589,
      "verehrt": 5590,
      "victor": 5591,
      "zatímco": 5592,
      "rozhodnutí": 5593,
      "septem": 5594,
      "französisch": 5595,
      "pravidla": 5596,
      "verhältnis": 5597,
      "jindich": 5598,
      "parteitag": 5599,
      "comportement": 5600,
      "big": 5601,
      "categor": 5602,
      "dní": 5603,
      "dda": 5604,
      "dvo": 5605,
      "dikt": 5606,
      "eing": 5607,
      "hz": 5608,
      "haut": 5609,
      "jün": 5610,
      "ký": 5611,
      "knap": 5612,
      "mly": 5613,
      "nten": 5614,
      "nivå": 5615,
      "pist": 5616,
      "rup": 5617,
      "vig": 5618,
      "wich": 5619,
      "wend": 5620,
      "éd": 5621,
      "anteil": 5622,
      "invent": 5623,
      "stb": 5624,
      "deva": 5625,
      "reim": 5626,
      "reste": 5627,
      "rock": 5628,
      "roda": 5629,
      "ieu": 5630,
      "oms": 5631,
      "rady": 5632,
      "pote": 5633,
      "poví": 5634,
      "posed": 5635,
      "posky": 5636,
      "ought": 5637,
      "gewä": 5638,
      "quitaine": 5639,
      "istäl": 5640,
      "ochr": 5641,
      "verté": 5642,
      "vernun": 5643,
      "eint": 5644,
      "prise": 5645,
      "ivu": 5646,
      "front": 5647,
      "cký": 5648,
      "uly": 5649,
      "socker": 5650,
      "förde": 5651,
      "ctu": 5652,
      "construction": 5653,
      "ationen": 5654,
      "mole": 5655,
      "mohou": 5656,
      "sagen": 5657,
      "sujet": 5658,
      "area": 5659,
      "svát": 5660,
      "svém": 5661,
      "vyu": 5662,
      "mentale": 5663,
      "zahá": 5664,
      "kry": 5665,
      "krét": 5666,
      "phab": 5667,
      "phone": 5668,
      "service": 5669,
      "skapade": 5670,
      "vojen": 5671,
      "vokal": 5672,
      "delvis": 5673,
      "podstat": 5674,
      "bene": 5675,
      "rozví": 5676,
      "bete": 5677,
      "zemi": 5678,
      "matemat": 5679,
      "charakter": 5680,
      "vodství": 5681,
      "tural": 5682,
      "turist": 5683,
      "filip": 5684,
      "eském": 5685,
      "stedo": 5686,
      "garden": 5687,
      "práva": 5688,
      "jiných": 5689,
      "fonction": 5690,
      "consist": 5691,
      "setzte": 5692,
      "bývá": 5693,
      "verbunden": 5694,
      "ministr": 5695,
      "minister": 5696,
      "classe": 5697,
      "objev": 5698,
      "dialekte": 5699,
      "narod": 5700,
      "sekund": 5701,
      "sám": 5702,
      "mjölken": 5703,
      "oxford": 5704,
      "terms": 5705,
      "princip": 5706,
      "eleznic": 5707,
      "energie": 5708,
      "relativt": 5709,
      "klein": 5710,
      "milionu": 5711,
      "processus": 5712,
      "différents": 5713,
      "practice": 5714,
      "organisation": 5715,
      "miliard": 5716,
      "tumor": 5717,
      "zahraniní": 5718,
      "znamená": 5719,
      "ideologier": 5720,
      "pavel": 5721,
      "monarchie": 5722,
      "snmovny": 5723,
      "kroppen": 5724,
      "källor": 5725,
      "oficiální": 5726,
      "englisch": 5727,
      "mluví": 5728,
      "extensions": 5729,
      "souvislosti": 5730,
      "lombards": 5731,
      "whether": 5732,
      "strateg": 5733,
      "istället": 5734,
      "vernunft": 5735,
      "apo": 5736,
      "apí": 5737,
      "bare": 5738,
      "bad": 5739,
      "bhu": 5740,
      "dent": 5741,
      "dod": 5742,
      "dab": 5743,
      "ez": 5744,
      "eko": 5745,
      "fis": 5746,
      "ize": 5747,
      "ious": 5748,
      "jh": 5749,
      "jur": 5750,
      "kant": 5751,
      "kated": 5752,
      "lhistoire": 5753,
      "nant": 5754,
      "nými": 5755,
      "riv": 5756,
      "rát": 5757,
      "smí": 5758,
      "tud": 5759,
      "ues": 5760,
      "uvá": 5761,
      "ying": 5762,
      "zed": 5763,
      "zhru": 5764,
      "ádn": 5765,
      "én": 5766,
      "états": 5767,
      "eného": 5768,
      "ering": 5769,
      "andel": 5770,
      "chs": 5771,
      "stem": 5772,
      "stroj": 5773,
      "staveb": 5774,
      "leon": 5775,
      "lever": 5776,
      "rede": 5777,
      "représent": 5778,
      "reconna": 5779,
      "row": 5780,
      "illa": 5781,
      "ray": 5782,
      "pozem": 5783,
      "asien": 5784,
      "napole": 5785,
      "skall": 5786,
      "außen": 5787,
      "denken": 5788,
      "gebur": 5789,
      "quand": 5790,
      "uta": 5791,
      "beí": 5792,
      "immt": 5793,
      "verlag": 5794,
      "proved": 5795,
      "protest": 5796,
      "probl": 5797,
      "einigen": 5798,
      "einwohn": 5799,
      "kaz": 5800,
      "print": 5801,
      "ikan": 5802,
      "park": 5803,
      "parler": 5804,
      "parliam": 5805,
      "paid": 5806,
      "check": 5807,
      "änomen": 5808,
      "prache": 5809,
      "beror": 5810,
      "nález": 5811,
      "sages": 5812,
      "expli": 5813,
      "expression": 5814,
      "nour": 5815,
      "wehr": 5816,
      "boh": 5817,
      "varandra": 5818,
      "ierten": 5819,
      "ierung": 5820,
      "zach": 5821,
      "zugleich": 5822,
      "luther": 5823,
      "add": 5824,
      "phänomen": 5825,
      "leng": 5826,
      "mitte": 5827,
      "stej": 5828,
      "samot": 5829,
      "benäm": 5830,
      "début": 5831,
      "stag": 5832,
      "marks": 5833,
      "formes": 5834,
      "záí": 5835,
      "výtvar": 5836,
      "traf": 5837,
      "kej": 5838,
      "pub": 5839,
      "nejlepí": 5840,
      "åren": 5841,
      "zeman": 5842,
      "kola": 5843,
      "mée": 5844,
      "value": 5845,
      "musik": 5846,
      "regler": 5847,
      "foot": 5848,
      "febru": 5849,
      "donne": 5850,
      "uppstod": 5851,
      "gree": 5852,
      "publique": 5853,
      "staten": 5854,
      "zdro": 5855,
      "slezská": 5856,
      "spez": 5857,
      "malí": 5858,
      "celkem": 5859,
      "darstellung": 5860,
      "bude": 5861,
      "studies": 5862,
      "körpers": 5863,
      "textes": 5864,
      "plats": 5865,
      "smlou": 5866,
      "firmy": 5867,
      "hinsicht": 5868,
      "användes": 5869,
      "prvním": 5870,
      "zoolog": 5871,
      "zentral": 5872,
      "consid": 5873,
      "consum": 5874,
      "správ": 5875,
      "lexpression": 5876,
      "current": 5877,
      "home": 5878,
      "court": 5879,
      "egna": 5880,
      "egyp": 5881,
      "germanska": 5882,
      "sitz": 5883,
      "logie": 5884,
      "culturel": 5885,
      "lidové": 5886,
      "infly": 5887,
      "générale": 5888,
      "ostatní": 5889,
      "premiér": 5890,
      "présente": 5891,
      "aristo": 5892,
      "original": 5893,
      "energi": 5894,
      "industry": 5895,
      "black": 5896,
      "increasing": 5897,
      "rättigheter": 5898,
      "stedovku": 5899,
      "policy": 5900,
      "sídlem": 5901,
      "audience": 5902,
      "ability": 5903,
      "saxon": 5904,
      "tehde": 5905,
      "bestimmten": 5906,
      "turkiet": 5907,
      "amtssprache": 5908,
      "plupart": 5909,
      "spolku": 5910,
      "jüdischen": 5911,
      "heutigen": 5912,
      "räknas": 5913,
      "sjuk": 5914,
      "wichtig": 5915,
      "heißt": 5916,
      "innehåller": 5917,
      "acoustique": 5918,
      "particip": 5919,
      "luxem": 5920,
      "konfessionen": 5921,
      "nécessaire": 5922,
      "available": 5923,
      "vertébrés": 5924,
      "zhruba": 5925,
      "bind": 5926,
      "cler": 5927,
      "dik": 5928,
      "ew": 5929,
      "fro": 5930,
      "fav": 5931,
      "hníz": 5932,
      "jà": 5933,
      "kles": 5934,
      "lind": 5935,
      "ozná": 5936,
      "pti": 5937,
      "rys": 5938,
      "sab": 5939,
      "sser": 5940,
      "tul": 5941,
      "vgl": 5942,
      "wal": 5943,
      "wür": 5944,
      "zcela": 5945,
      "év": 5946,
      "östra": 5947,
      "údol": 5948,
      "chu": 5949,
      "ché": 5950,
      "dej": 5951,
      "leis": 5952,
      "ark": 5953,
      "repair": 5954,
      "ately": 5955,
      "ites": 5956,
      "itäten": 5957,
      "unster": 5958,
      "unabhän": 5959,
      "thought": 5960,
      "seig": 5961,
      "poad": 5962,
      "pohy": 5963,
      "potvr": 5964,
      "pobeí": 5965,
      "nahra": 5966,
      "naissance": 5967,
      "skog": 5968,
      "eds": 5969,
      "quune": 5970,
      "beg": 5971,
      "ofern": 5972,
      "ambas": 5973,
      "toi": 5974,
      "empereur": 5975,
      "profession": 5976,
      "hot": 5977,
      "odvtví": 5978,
      "obser": 5979,
      "obcí": 5980,
      "schw": 5981,
      "schol": 5982,
      "partage": 5983,
      "pap": 5984,
      "soient": 5985,
      "dila": 5986,
      "förutom": 5987,
      "ctor": 5988,
      "hrung": 5989,
      "condu": 5990,
      "contexte": 5991,
      "náklad": 5992,
      "landes": 5993,
      "wegen": 5994,
      "brn": 5995,
      "hegel": 5996,
      "zaalo": 5997,
      "zustände": 5998,
      "franc": 5999,
      "voc": 6000,
      "financi": 6001,
      "pora": 6002,
      "stead": 6003,
      "tidens": 6004,
      "germán": 6005,
      "benef": 6006,
      "déjà": 6007,
      "staats": 6008,
      "marx": 6009,
      "ience": 6010,
      "faith": 6011,
      "výkon": 6012,
      "výstav": 6013,
      "pírod": 6014,
      "daniel": 6015,
      "répon": 6016,
      "minu": 6017,
      "thern": 6018,
      "mys": 6019,
      "liches": 6020,
      "words": 6021,
      "chokla": 6022,
      "métho": 6023,
      "iellen": 6024,
      "regard": 6025,
      "huje": 6026,
      "founded": 6027,
      "agent": 6028,
      "dsprache": 6029,
      "politischen": 6030,
      "ernas": 6031,
      "donné": 6032,
      "donner": 6033,
      "green": 6034,
      "autonom": 6035,
      "drama": 6036,
      "figur": 6037,
      "nila": 6038,
      "ordnung": 6039,
      "geistige": 6040,
      "historik": 6041,
      "integr": 6042,
      "starkt": 6043,
      "polsku": 6044,
      "penham": 6045,
      "lagt": 6046,
      "stupo": 6047,
      "zuminde": 6048,
      "dret": 6049,
      "pouvoir": 6050,
      "includes": 6051,
      "budget": 6052,
      "hinaus": 6053,
      "basis": 6054,
      "cena": 6055,
      "effe": 6056,
      "weniger": 6057,
      "stellte": 6058,
      "börd": 6059,
      "regioner": 6060,
      "klí": 6061,
      "précis": 6062,
      "severu": 6063,
      "hlavního": 6064,
      "affir": 6065,
      "weiterhin": 6066,
      "ihrem": 6067,
      "films": 6068,
      "double": 6069,
      "know": 6070,
      "významnjí": 6071,
      "oblastí": 6072,
      "geschaffen": 6073,
      "kritik": 6074,
      "kreis": 6075,
      "oxid": 6076,
      "pvodní": 6077,
      "scot": 6078,
      "stadt": 6079,
      "glaube": 6080,
      "gemensam": 6081,
      "kláter": 6082,
      "mittelalter": 6083,
      "groups": 6084,
      "spiritu": 6085,
      "monarkier": 6086,
      "måste": 6087,
      "alliance": 6088,
      "poslanecké": 6089,
      "byzantin": 6090,
      "göttlichen": 6091,
      "köpenham": 6092,
      "show": 6093,
      "influence": 6094,
      "busines": 6095,
      "christianity": 6096,
      "frankfur": 6097,
      "fotbal": 6098,
      "dynastie": 6099,
      "substant": 6100,
      "global": 6101,
      "johannes": 6102,
      "grupper": 6103,
      "fremdsprache": 6104,
      "members": 6105,
      "astronom": 6106,
      "schließlich": 6107,
      "muzeum": 6108,
      "entwickelte": 6109,
      "myndig": 6110,
      "moment": 6111,
      "hingegen": 6112,
      "prominent": 6113,
      "francouz": 6114,
      "leisure": 6115,
      "zumindest": 6116,
      "bac": 6117,
      "bisch": 6118,
      "cc": 6119,
      "eas": 6120,
      "equ": 6121,
      "ehen": 6122,
      "fos": 6123,
      "fys": 6124,
      "fakt": 6125,
      "gå": 6126,
      "hd": 6127,
      "hib": 6128,
      "iro": 6129,
      "lý": 6130,
      "lund": 6131,
      "nations": 6132,
      "oires": 6133,
      "pia": 6134,
      "rid": 6135,
      "shor": 6136,
      "ukon": 6137,
      "wind": 6138,
      "zky": 6139,
      "ány": 6140,
      "året": 6141,
      "éti": 6142,
      "ící": 6143,
      "ïl": 6144,
      "ökar": 6145,
      "övers": 6146,
      "öarna": 6147,
      "ench": 6148,
      "enser": 6149,
      "erhe": 6150,
      "anz": 6151,
      "antalet": 6152,
      "anzahl": 6153,
      "ching": 6154,
      "ards": 6155,
      "rei": 6156,
      "remain": 6157,
      "recher": 6158,
      "itou": 6159,
      "aland": 6160,
      "lap": 6161,
      "rail": 6162,
      "poétique": 6163,
      "lila": 6164,
      "lima": 6165,
      "libr": 6166,
      "uries": 6167,
      "urban": 6168,
      "navr": 6169,
      "names": 6170,
      "editel": 6171,
      "auer": 6172,
      "teach": 6173,
      "ingt": 6174,
      "nek": 6175,
      "nebyl": 6176,
      "quatre": 6177,
      "avy": 6178,
      "utö": 6179,
      "utôt": 6180,
      "bezna": 6181,
      "tode": 6182,
      "topic": 6183,
      "ements": 6184,
      "verstanden": 6185,
      "prosl": 6186,
      "ichten": 6187,
      "maj": 6188,
      "prbhu": 6189,
      "odpoví": 6190,
      "obou": 6191,
      "otto": 6192,
      "umí": 6193,
      "perfe": 6194,
      "sogar": 6195,
      "dialog": 6196,
      "hry": 6197,
      "dap": 6198,
      "attent": 6199,
      "manière": 6200,
      "názv": 6201,
      "lanimal": 6202,
      "sais": 6203,
      "sacré": 6204,
      "areas": 6205,
      "svými": 6206,
      "konstru": 6207,
      "grenz": 6208,
      "wei": 6209,
      "vyrá": 6210,
      "bratis": 6211,
      "kty": 6212,
      "variet": 6213,
      "plutôt": 6214,
      "zaát": 6215,
      "lett": 6216,
      "phé": 6217,
      "nému": 6218,
      "estim": 6219,
      "atele": 6220,
      "mont": 6221,
      "ausdruck": 6222,
      "steuropa": 6223,
      "liten": 6224,
      "lital": 6225,
      "litter": 6226,
      "habe": 6227,
      "kterou": 6228,
      "álním": 6229,
      "allgemein": 6230,
      "format": 6231,
      "ologies": 6232,
      "travaux": 6233,
      "kehr": 6234,
      "norm": 6235,
      "lévolution": 6236,
      "milieu": 6237,
      "ibn": 6238,
      "komple": 6239,
      "kombin": 6240,
      "insgesamt": 6241,
      "nejslav": 6242,
      "licht": 6243,
      "baro": 6244,
      "matique": 6245,
      "mécan": 6246,
      "valo": 6247,
      "ways": 6248,
      "few": 6249,
      "françois": 6250,
      "grader": 6251,
      "väg": 6252,
      "linie": 6253,
      "meter": 6254,
      "bildas": 6255,
      "billion": 6256,
      "ferdin": 6257,
      "rug": 6258,
      "storben": 6259,
      "icient": 6260,
      "malé": 6261,
      "carl": 6262,
      "dalím": 6263,
      "ness": 6264,
      "díla": 6265,
      "díve": 6266,
      "hatten": 6267,
      "slova": 6268,
      "existence": 6269,
      "rikes": 6270,
      "ålder": 6271,
      "värld": 6272,
      "shrom": 6273,
      "små": 6274,
      "nationella": 6275,
      "naturalist": 6276,
      "kunft": 6277,
      "instance": 6278,
      "führen": 6279,
      "regionen": 6280,
      "kami": 6281,
      "daten": 6282,
      "sympt": 6283,
      "spojeného": 6284,
      "pomr": 6285,
      "legal": 6286,
      "nmecka": 6287,
      "affect": 6288,
      "weiteren": 6289,
      "developing": 6290,
      "lösa": 6291,
      "lösung": 6292,
      "stranu": 6293,
      "senátor": 6294,
      "tetí": 6295,
      "skrifter": 6296,
      "zerstör": 6297,
      "referred": 6298,
      "jaroslav": 6299,
      "kladem": 6300,
      "général": 6301,
      "modèle": 6302,
      "georges": 6303,
      "kakao": 6304,
      "stadion": 6305,
      "prmyslu": 6306,
      "handeln": 6307,
      "target": 6308,
      "povstá": 6309,
      "définit": 6310,
      "television": 6311,
      "services": 6312,
      "issue": 6313,
      "gehören": 6314,
      "långa": 6315,
      "zählt": 6316,
      "francophonie": 6317,
      "dlouho": 6318,
      "schriften": 6319,
      "fähig": 6320,
      "christentums": 6321,
      "kníectví": 6322,
      "funds": 6323,
      "negativ": 6324,
      "upphov": 6325,
      "league": 6326,
      "tradici": 6327,
      "ervna": 6328,
      "buddhismus": 6329,
      "faktor": 6330,
      "konzept": 6331,
      "písmen": 6332,
      "zbyt": 6333,
      "unterschied": 6334,
      "kesanství": 6335,
      "prostedí": 6336,
      "evidence": 6337,
      "beschrie": 6338,
      "forschung": 6339,
      "locuteurs": 6340,
      "performance": 6341,
      "assez": 6342,
      "encyclopedia": 6343,
      "hebrä": 6344,
      "habsbur": 6345,
      "parliament": 6346,
      "proslul": 6347,
      "aer": 6348,
      "agen": 6349,
      "bly": 6350,
      "bät": 6351,
      "bisk": 6352,
      "cau": 6353,
      "gü": 6354,
      "gos": 6355,
      "hed": 6356,
      "hly": 6357,
      "hlé": 6358,
      "iver": 6359,
      "kých": 6360,
      "koby": 6361,
      "oe": 6362,
      "ota": 6363,
      "oret": 6364,
      "pir": 6365,
      "tl": 6366,
      "uvre": 6367,
      "wand": 6368,
      "xis": 6369,
      "zvol": 6370,
      "zmn": 6371,
      "áze": 6372,
      "énon": 6373,
      "úadu": 6374,
      "ût": 6375,
      "ensemble": 6376,
      "antag": 6377,
      "init": 6378,
      "inva": 6379,
      "inspir": 6380,
      "chov": 6381,
      "chines": 6382,
      "depart": 6383,
      "devient": 6384,
      "lehr": 6385,
      "reli": 6386,
      "reas": 6387,
      "atz": 6388,
      "ature": 6389,
      "atoire": 6390,
      "lay": 6391,
      "etab": 6392,
      "sest": 6393,
      "rag": 6394,
      "rapi": 6395,
      "popr": 6396,
      "lista": 6397,
      "theolog": 6398,
      "nahmen": 6399,
      "aujourdhui": 6400,
      "teile": 6401,
      "níky": 6402,
      "befo": 6403,
      "behand": 6404,
      "ochran": 6405,
      "versuch": 6406,
      "hodu": 6407,
      "jeli": 6408,
      "prit": 6409,
      "obvod": 6410,
      "frågor": 6411,
      "french": 6412,
      "umon": 6413,
      "umes": 6414,
      "peup": 6415,
      "perception": 6416,
      "pacit": 6417,
      "tenden": 6418,
      "cile": 6419,
      "försv": 6420,
      "författ": 6421,
      "down": 6422,
      "doïl": 6423,
      "dají": 6424,
      "dadurch": 6425,
      "mens": 6426,
      "mani": 6427,
      "manel": 6428,
      "nání": 6429,
      "saw": 6430,
      "medic": 6431,
      "vyhrá": 6432,
      "head": 6433,
      "zace": 6434,
      "zustand": 6435,
      "zufolge": 6436,
      "sique": 6437,
      "mitten": 6438,
      "skaff": 6439,
      "voit": 6440,
      "ports": 6441,
      "germany": 6442,
      "ält": 6443,
      "norman": 6444,
      "centuries": 6445,
      "létat": 6446,
      "nejsou": 6447,
      "rození": 6448,
      "beteck": 6449,
      "accep": 6450,
      "durant": 6451,
      "gande": 6452,
      "prezent": 6453,
      "matka": 6454,
      "motor": 6455,
      "jih": 6456,
      "stice": 6457,
      "regular": 6458,
      "pila": 6459,
      "pipo": 6460,
      "piroz": 6461,
      "outils": 6462,
      "graph": 6463,
      "done": 6464,
      "hlou": 6465,
      "patri": 6466,
      "drawer": 6467,
      "metod": 6468,
      "historie": 6469,
      "hydro": 6470,
      "spec": 6471,
      "polis": 6472,
      "vedení": 6473,
      "mäng": 6474,
      "garna": 6475,
      "achie": 6476,
      "práci": 6477,
      "italie": 6478,
      "använde": 6479,
      "användas": 6480,
      "holding": 6481,
      "calcul": 6482,
      "news": 6483,
      "consci": 6484,
      "habit": 6485,
      "populární": 6486,
      "primarily": 6487,
      "wäre": 6488,
      "kova": 6489,
      "dolní": 6490,
      "westlichen": 6491,
      "hommes": 6492,
      "having": 6493,
      "skiljer": 6494,
      "numer": 6495,
      "gebie": 6496,
      "capables": 6497,
      "monarken": 6498,
      "psobil": 6499,
      "blood": 6500,
      "block": 6501,
      "kända": 6502,
      "stoupil": 6503,
      "kungar": 6504,
      "nichts": 6505,
      "individual": 6506,
      "stället": 6507,
      "tourna": 6508,
      "beliefs": 6509,
      "flyg": 6510,
      "succes": 6511,
      "ursprün": 6512,
      "eigenen": 6513,
      "issues": 6514,
      "nkolika": 6515,
      "effects": 6516,
      "augustin": 6517,
      "krále": 6518,
      "alexander": 6519,
      "alexandr": 6520,
      "langlais": 6521,
      "explo": 6522,
      "obecn": 6523,
      "människans": 6524,
      "zahranií": 6525,
      "frihet": 6526,
      "harmonics": 6527,
      "begann": 6528,
      "univerzita": 6529,
      "jednotliv": 6530,
      "befolkning": 6531,
      "frankreich": 6532,
      "introduced": 6533,
      "russland": 6534,
      "okolo": 6535,
      "mundarten": 6536,
      "pochází": 6537,
      "electric": 6538,
      "hitler": 6539,
      "centrala": 6540,
      "griechischen": 6541,
      "water": 6542,
      "ludwig": 6543,
      "semblée": 6544,
      "required": 6545,
      "distinction": 6546,
      "heinrich": 6547,
      "kandidaten": 6548,
      "schulen": 6549,
      "tautologie": 6550,
      "nouvelle": 6551,
      "varierar": 6552,
      "diskut": 6553,
      "dálnice": 6554,
      "ayant": 6555,
      "aucune": 6556,
      "begreppet": 6557,
      "disease": 6558,
      "gestalt": 6559,
      "tématu": 6560,
      "zahlreiche": 6561,
      "nederbörd": 6562,
      "ytterligare": 6563,
      "miliardy": 6564,
      "length": 6565,
      "shromád": 6566,
      "poprvé": 6567,
      "befogen": 6568,
      "aig": 6569,
      "aci": 6570,
      "apost": 6571,
      "bie": 6572,
      "cod": 6573,
      "clus": 6574,
      "caca": 6575,
      "dung": 6576,
      "ela": 6577,
      "fet": 6578,
      "fing": 6579,
      "fkr": 6580,
      "faut": 6581,
      "fatta": 6582,
      "fått": 6583,
      "greg": 6584,
      "hs": 6585,
      "hill": 6586,
      "hind": 6587,
      "jat": 6588,
      "jské": 6589,
      "kelt": 6590,
      "lobjet": 6591,
      "lorigine": 6592,
      "pum": 6593,
      "pfer": 6594,
      "rant": 6595,
      "rhein": 6596,
      "sü": 6597,
      "sand": 6598,
      "sik": 6599,
      "tauf": 6600,
      "yta": 6601,
      "zpravidla": 6602,
      "álen": 6603,
      "ásten": 6604,
      "ède": 6605,
      "êt": 6606,
      "ína": 6607,
      "íman": 6608,
      "íky": 6609,
      "ene": 6610,
      "enfin": 6611,
      "erie": 6612,
      "erhalten": 6613,
      "anto": 6614,
      "anta": 6615,
      "innov": 6616,
      "stic": 6617,
      "stál": 6618,
      "depend": 6619,
      "armen": 6620,
      "rec": 6621,
      "rek": 6622,
      "atic": 6623,
      "isent": 6624,
      "roles": 6625,
      "roky": 6626,
      "romain": 6627,
      "sea": 6628,
      "seins": 6629,
      "sept": 6630,
      "seule": 6631,
      "poh": 6632,
      "pojem": 6633,
      "asis": 6634,
      "enter": 6635,
      "nadále": 6636,
      "oldest": 6637,
      "describ": 6638,
      "istické": 6639,
      "emeller": 6640,
      "verstän": 6641,
      "vermut": 6642,
      "hop": 6643,
      "odvo": 6644,
      "ivní": 6645,
      "oblig": 6646,
      "irska": 6647,
      "ums": 6648,
      "cká": 6649,
      "ckého": 6650,
      "tenir": 6651,
      "förhål": 6652,
      "does": 6653,
      "conse": 6654,
      "contains": 6655,
      "velik": 6656,
      "prahu": 6657,
      "pravom": 6658,
      "sait": 6659,
      "sva": 6660,
      "svo": 6661,
      "konkur": 6662,
      "competit": 6663,
      "sonore": 6664,
      "wealth": 6665,
      "weisen": 6666,
      "tillba": 6667,
      "zaaly": 6668,
      "added": 6669,
      "ickými": 6670,
      "sice": 6671,
      "kust": 6672,
      "syft": 6673,
      "francie": 6674,
      "souver": 6675,
      "sená": 6676,
      "mono": 6677,
      "monast": 6678,
      "voire": 6679,
      "aussagen": 6680,
      "opon": 6681,
      "podpo": 6682,
      "décrit": 6683,
      "allts": 6684,
      "zámek": 6685,
      "fair": 6686,
      "pístup": 6687,
      "tram": 6688,
      "daneben": 6689,
      "réti": 6690,
      "gesell": 6691,
      "ováním": 6692,
      "minder": 6693,
      "minsk": 6694,
      "rozlo": 6695,
      "acqu": 6696,
      "nyní": 6697,
      "pted": 6698,
      "colin": 6699,
      "motiv": 6700,
      "surv": 6701,
      "partiet": 6702,
      "fokus": 6703,
      "karol": 6704,
      "intres": 6705,
      "såväl": 6706,
      "vädret": 6707,
      "greek": 6708,
      "placed": 6709,
      "domy": 6710,
      "domá": 6711,
      "largel": 6712,
      "patili": 6713,
      "tempor": 6714,
      "drah": 6715,
      "filoz": 6716,
      "incie": 6717,
      "míru": 6718,
      "länkar": 6719,
      "case": 6720,
      "capacit": 6721,
      "nomin": 6722,
      "koran": 6723,
      "polska": 6724,
      "frequently": 6725,
      "evropských": 6726,
      "teilen": 6727,
      "product": 6728,
      "existe": 6729,
      "práce": 6730,
      "cultural": 6731,
      "reichen": 6732,
      "dnis": 6733,
      "katol": 6734,
      "sídlí": 6735,
      "pesun": 6736,
      "tomá": 6737,
      "známé": 6738,
      "cenu": 6739,
      "kunst": 6740,
      "rature": 6741,
      "börjar": 6742,
      "setzt": 6743,
      "primary": 6744,
      "atome": 6745,
      "mehrere": 6746,
      "gläu": 6747,
      "vojvodství": 6748,
      "doprava": 6749,
      "gorbat": 6750,
      "veten": 6751,
      "bolsche": 6752,
      "bedeutet": 6753,
      "område": 6754,
      "lägre": 6755,
      "généra": 6756,
      "pfung": 6757,
      "utanför": 6758,
      "modif": 6759,
      "demokra": 6760,
      "études": 6761,
      "kraftigt": 6762,
      "catholic": 6763,
      "majority": 6764,
      "étaient": 6765,
      "continent": 6766,
      "flyt": 6767,
      "hodnot": 6768,
      "betrakt": 6769,
      "tuned": 6770,
      "intellig": 6771,
      "judentum": 6772,
      "pozor": 6773,
      "externí": 6774,
      "regering": 6775,
      "provide": 6776,
      "genannten": 6777,
      "factors": 6778,
      "institution": 6779,
      "själva": 6780,
      "civili": 6781,
      "zusammenhang": 6782,
      "spanien": 6783,
      "folgenden": 6784,
      "nosis": 6785,
      "béné": 6786,
      "littérature": 6787,
      "podíl": 6788,
      "kvtna": 6789,
      "rätts": 6790,
      "zemdlství": 6791,
      "negative": 6792,
      "objets": 6793,
      "koda": 6794,
      "gehend": 6795,
      "gehirn": 6796,
      "impérial": 6797,
      "zvuky": 6798,
      "signifie": 6799,
      "majetku": 6800,
      "montré": 6801,
      "rychle": 6802,
      "däremot": 6803,
      "toutefois": 6804,
      "jacques": 6805,
      "successful": 6806,
      "lightly": 6807,
      "lidée": 6808,
      "nejznámjí": 6809,
      "institutions": 6810,
      "námstí": 6811,
      "provincie": 6812,
      "anfang": 6813,
      "revoluce": 6814,
      "münchen": 6815,
      "analys": 6816,
      "beeinflusst": 6817,
      "populace": 6818,
      "control": 6819,
      "dokument": 6820,
      "established": 6821,
      "illustr": 6822,
      "katedrá": 6823,
      "napoleon": 6824,
      "inflytande": 6825,
      "financial": 6826,
      "phénom": 6827,
      "ferdinand": 6828,
      "department": 6829,
      "emellertid": 6830,
      "tillbaka": 6831,
      "alltså": 6832,
      "gesellschaft": 6833,
      "largely": 6834,
      "filozof": 6835,
      "gorbatscho": 6836,
      "bä": 6837,
      "bom": 6838,
      "bury": 6839,
      "dic": 6840,
      "ddict": 6841,
      "ever": 6842,
      "fic": 6843,
      "fix": 6844,
      "fusion": 6845,
      "gten": 6846,
      "glas": 6847,
      "hut": 6848,
      "hmat": 6849,
      "lot": 6850,
      "lune": 6851,
      "mät": 6852,
      "oec": 6853,
      "rig": 6854,
      "sve": 6855,
      "säg": 6856,
      "tsch": 6857,
      "uv": 6858,
      "uelle": 6859,
      "uzná": 6860,
      "vér": 6861,
      "zda": 6862,
      "ós": 6863,
      "üb": 6864,
      "enci": 6865,
      "anhän": 6866,
      "instead": 6867,
      "chin": 6868,
      "chant": 6869,
      "chten": 6870,
      "stig": 6871,
      "stid": 6872,
      "stift": 6873,
      "leich": 6874,
      "lect": 6875,
      "leda": 6876,
      "lehren": 6877,
      "arter": 6878,
      "reaktion": 6879,
      "athe": 6880,
      "itut": 6881,
      "itele": 6882,
      "ese": 6883,
      "espace": 6884,
      "sekunden": 6885,
      "pout": 6886,
      "poho": 6887,
      "theod": 6888,
      "theismus": 6889,
      "sker": 6890,
      "skan": 6891,
      "andor": 6892,
      "inga": 6893,
      "nehm": 6894,
      "offer": 6895,
      "emph": 6896,
      "imag": 6897,
      "usnes": 6898,
      "propre": 6899,
      "tait": 6900,
      "lespace": 6901,
      "einführung": 6902,
      "kap": 6903,
      "maur": 6904,
      "maje": 6905,
      "parties": 6906,
      "irène": 6907,
      "abra": 6908,
      "abge": 6909,
      "antické": 6910,
      "perio": 6911,
      "ulation": 6912,
      "dige": 6913,
      "dokon": 6914,
      "dostup": 6915,
      "ansåg": 6916,
      "trn": 6917,
      "veli": 6918,
      "praského": 6919,
      "lange": 6920,
      "compet": 6921,
      "griff": 6922,
      "grunden": 6923,
      "brän": 6924,
      "stritten": 6925,
      "box": 6926,
      "bour": 6927,
      "syna": 6928,
      "demon": 6929,
      "servat": 6930,
      "soukrom": 6931,
      "souvise": 6932,
      "sense": 6933,
      "moné": 6934,
      "oppos": 6935,
      "liturg": 6936,
      "gere": 6937,
      "delning": 6938,
      "podmín": 6939,
      "jazz": 6940,
      "kande": 6941,
      "défen": 6942,
      "marie": 6943,
      "marqu": 6944,
      "álního": 6945,
      "fahren": 6946,
      "vývoj": 6947,
      "älter": 6948,
      "udá": 6949,
      "pípadn": 6950,
      "trava": 6951,
      "drig": 6952,
      "ätten": 6953,
      "norden": 6954,
      "réal": 6955,
      "lépoque": 6956,
      "kommit": 6957,
      "nejvýznamnjí": 6958,
      "volumes": 6959,
      "pedpo": 6960,
      "notion": 6961,
      "appli": 6962,
      "stavby": 6963,
      "beskr": 6964,
      "plays": 6965,
      "folgte": 6966,
      "longer": 6967,
      "pati": 6968,
      "drawn": 6969,
      "ordin": 6970,
      "trotz": 6971,
      "bilder": 6972,
      "orsak": 6973,
      "hyper": 6974,
      "státního": 6975,
      "darunter": 6976,
      "dargestellt": 6977,
      "offenbar": 6978,
      "vanligen": 6979,
      "freud": 6980,
      "personal": 6981,
      "mängd": 6982,
      "émie": 6983,
      "pagnol": 6984,
      "viet": 6985,
      "endete": 6986,
      "värden": 6987,
      "brah": 6988,
      "nitt": 6989,
      "held": 6990,
      "helsing": 6991,
      "liknande": 6992,
      "ceny": 6993,
      "gegenwart": 6994,
      "ägg": 6995,
      "conséqu": 6996,
      "itaire": 6997,
      "setzen": 6998,
      "occas": 6999,
      "národního": 7000,
      "národnosti": 7001,
      "prime": 7002,
      "wesens": 7003,
      "homo": 7004,
      "philosophy": 7005,
      "pédition": 7006,
      "erades": 7007,
      "mnoství": 7008,
      "whose": 7009,
      "bonne": 7010,
      "ographe": 7011,
      "ovýchod": 7012,
      "capitu": 7013,
      "projev": 7014,
      "lovníku": 7015,
      "europas": 7016,
      "osobní": 7017,
      "referenser": 7018,
      "throughout": 7019,
      "mutations": 7020,
      "zaloena": 7021,
      "pitom": 7022,
      "indien": 7023,
      "étudie": 7024,
      "städerna": 7025,
      "následu": 7026,
      "kakaos": 7027,
      "officielle": 7028,
      "energy": 7029,
      "ivalent": 7030,
      "známý": 7031,
      "rieb": 7032,
      "förstå": 7033,
      "levde": 7034,
      "différentes": 7035,
      "zkum": 7036,
      "technique": 7037,
      "ification": 7038,
      "finanní": 7039,
      "spirit": 7040,
      "aspekte": 7041,
      "paraître": 7042,
      "externa": 7043,
      "jednání": 7044,
      "dagens": 7045,
      "théories": 7046,
      "märz": 7047,
      "inklu": 7048,
      "annales": 7049,
      "teams": 7050,
      "makedonie": 7051,
      "parlamentu": 7052,
      "kostel": 7053,
      "éléments": 7054,
      "zabý": 7055,
      "beginn": 7056,
      "bildades": 7057,
      "einzelnen": 7058,
      "distingue": 7059,
      "fruit": 7060,
      "wikislovníku": 7061,
      "därefter": 7062,
      "hundra": 7063,
      "wirklichkeit": 7064,
      "orchestra": 7065,
      "gruppen": 7066,
      "videa": 7067,
      "divadlo": 7068,
      "variety": 7069,
      "zunehmend": 7070,
      "artikel": 7071,
      "katholischen": 7072,
      "unesco": 7073,
      "pivovar": 7074,
      "vladim": 7075,
      "halvön": 7076,
      "offentliga": 7077,
      "dimension": 7078,
      "poissons": 7079,
      "obrázky": 7080,
      "suggest": 7081,
      "volbách": 7082,
      "brittiska": 7083,
      "field": 7084,
      "knapp": 7085,
      "nourrit": 7086,
      "minulosti": 7087,
      "frankfurt": 7088,
      "názvem": 7089,
      "povstání": 7090,
      "rapide": 7091,
      "minderheit": 7092,
      "capacités": 7093,
      "bolschewiki": 7094,
      "oecd": 7095,
      "cès": 7096,
      "dut": 7097,
      "fett": 7098,
      "golf": 7099,
      "jel": 7100,
      "kern": 7101,
      "lå": 7102,
      "lent": 7103,
      "mill": 7104,
      "nition": 7105,
      "pte": 7106,
      "pendant": 7107,
      "ror": 7108,
      "ril": 7109,
      "rien": 7110,
      "range": 7111,
      "shar": 7112,
      "spart": 7113,
      "smal": 7114,
      "scé": 7115,
      "tle": 7116,
      "tig": 7117,
      "tvá": 7118,
      "tón": 7119,
      "ub": 7120,
      "vue": 7121,
      "vstup": 7122,
      "wander": 7123,
      "xixe": 7124,
      "zü": 7125,
      "zal": 7126,
      "zim": 7127,
      "äd": 7128,
      "êtres": 7129,
      "indem": 7130,
      "inklus": 7131,
      "chi": 7132,
      "chau": 7133,
      "china": 7134,
      "stur": 7135,
      "strom": 7136,
      "stabil": 7137,
      "dech": 7138,
      "lel": 7139,
      "lebe": 7140,
      "armé": 7141,
      "recommen": 7142,
      "atem": 7143,
      "athen": 7144,
      "itung": 7145,
      "almost": 7146,
      "island": 7147,
      "israel": 7148,
      "ilit": 7149,
      "ilien": 7150,
      "section": 7151,
      "raft": 7152,
      "povin": 7153,
      "potom": 7154,
      "theory": 7155,
      "nahme": 7156,
      "nakonec": 7157,
      "ouver": 7158,
      "autour": 7159,
      "ovci": 7160,
      "geg": 7161,
      "nevy": 7162,
      "quun": 7163,
      "quement": 7164,
      "avskaff": 7165,
      "utöver": 7166,
      "utzt": 7167,
      "uttryck": 7168,
      "beck": 7169,
      "bekann": 7170,
      "behav": 7171,
      "desát": 7172,
      "ister": 7173,
      "istes": 7174,
      "totala": 7175,
      "ema": 7176,
      "emig": 7177,
      "probab": 7178,
      "jezer": 7179,
      "kadé": 7180,
      "mad": 7181,
      "male": 7182,
      "machen": 7183,
      "prkop": 7184,
      "odvol": 7185,
      "pare": 7186,
      "party": 7187,
      "iron": 7188,
      "ida": 7189,
      "formed": 7190,
      "pek": 7191,
      "paper": 7192,
      "förs": 7193,
      "fördra": 7194,
      "förmå": 7195,
      "dosud": 7196,
      "contrib": 7197,
      "ansion": 7198,
      "trit": 7199,
      "vede": 7200,
      "pravo": 7201,
      "sah": 7202,
      "sucht": 7203,
      "expo": 7204,
      "expér": 7205,
      "koná": 7206,
      "koncer": 7207,
      "koncent": 7208,
      "vye": 7209,
      "brand": 7210,
      "tilläm": 7211,
      "board": 7212,
      "varav": 7213,
      "varande": 7214,
      "hest": 7215,
      "ierna": 7216,
      "adémie": 7217,
      "syra": 7218,
      "mongol": 7219,
      "ffe": 7220,
      "mif": 7221,
      "valeur": 7222,
      "podpor": 7223,
      "staden": 7224,
      "mary": 7225,
      "market": 7226,
      "northern": 7227,
      "léze": 7228,
      "posléze": 7229,
      "gottheit": 7230,
      "rozdlen": 7231,
      "endre": 7232,
      "bach": 7233,
      "bliche": 7234,
      "worth": 7235,
      "jednou": 7236,
      "pedse": 7237,
      "muss": 7238,
      "regar": 7239,
      "nachdem": 7240,
      "karla": 7241,
      "melons": 7242,
      "beide": 7243,
      "lart": 7244,
      "nií": 7245,
      "högt": 7246,
      "stater": 7247,
      "metall": 7248,
      "historické": 7249,
      "actor": 7250,
      "kult": 7251,
      "heten": 7252,
      "caes": 7253,
      "gros": 7254,
      "dernier": 7255,
      "daraus": 7256,
      "seines": 7257,
      "polské": 7258,
      "ideal": 7259,
      "plement": 7260,
      "mänsk": 7261,
      "ecku": 7262,
      "correspon": 7263,
      "relse": 7264,
      "nouveau": 7265,
      "prvních": 7266,
      "nationale": 7267,
      "oktober": 7268,
      "významu": 7269,
      "primates": 7270,
      "movements": 7271,
      "player": 7272,
      "utilise": 7273,
      "trycket": 7274,
      "vzhle": 7275,
      "pelom": 7276,
      "variation": 7277,
      "äußer": 7278,
      "utvecklades": 7279,
      "zelo": 7280,
      "pisy": 7281,
      "capita": 7282,
      "grekiskan": 7283,
      "hjärt": 7284,
      "anglii": 7285,
      "världs": 7286,
      "afrika": 7287,
      "examples": 7288,
      "individuals": 7289,
      "accounts": 7290,
      "flytande": 7291,
      "kurz": 7292,
      "universel": 7293,
      "tuning": 7294,
      "constant": 7295,
      "increase": 7296,
      "buddha": 7297,
      "moln": 7298,
      "bibl": 7299,
      "griechen": 7300,
      "bönor": 7301,
      "göttliche": 7302,
      "död": 7303,
      "obchodní": 7304,
      "influen": 7305,
      "bewegung": 7306,
      "julius": 7307,
      "huvudsak": 7308,
      "trädde": 7309,
      "gången": 7310,
      "gånger": 7311,
      "hlediska": 7312,
      "widely": 7313,
      "rechts": 7314,
      "subject": 7315,
      "subjekt": 7316,
      "okolí": 7317,
      "antiqu": 7318,
      "éléph": 7319,
      "agrofer": 7320,
      "mörk": 7321,
      "stammar": 7322,
      "außerdem": 7323,
      "hrob": 7324,
      "rudolf": 7325,
      "sprachraum": 7326,
      "erkenntnis": 7327,
      "fréquences": 7328,
      "srp": 7329,
      "chercheurs": 7330,
      "référence": 7331,
      "devant": 7332,
      "levels": 7333,
      "feature": 7334,
      "growth": 7335,
      "genetic": 7336,
      "mykén": 7337,
      "mammif": 7338,
      "grandes": 7339,
      "blieb": 7340,
      "obyvatelstva": 7341,
      "cadre": 7342,
      "guerre": 7343,
      "lässt": 7344,
      "politbüro": 7345,
      "sådana": 7346,
      "persuasion": 7347,
      "dauphins": 7348,
      "hlavn": 7349,
      "slovníkové": 7350,
      "skedde": 7351,
      "commercial": 7352,
      "screening": 7353,
      "expressions": 7354,
      "fünf": 7355,
      "september": 7356,
      "reconnaître": 7357,
      "trafik": 7358,
      "favor": 7359,
      "hnízdo": 7360,
      "unabhängig": 7361,
      "professional": 7362,
      "köpenhamn": 7363,
      "symptoms": 7364,
      "fähigkeit": 7365,
      "ursprünglich": 7366,
      "augustinus": 7367,
      "verständnis": 7368,
      "competitive": 7369,
      "gläub": 7370,
      "nourriture": 7371,
      "aster": 7372,
      "ailleurs": 7373,
      "bia": 7374,
      "bindung": 7375,
      "dligt": 7376,
      "eher": 7377,
      "gis": 7378,
      "gles": 7379,
      "gall": 7380,
      "hi": 7381,
      "hmot": 7382,
      "iant": 7383,
      "iální": 7384,
      "jun": 7385,
      "jut": 7386,
      "jup": 7387,
      "jön": 7388,
      "ked": 7389,
      "kün": 7390,
      "mologie": 7391,
      "oku": 7392,
      "rer": 7393,
      "rand": 7394,
      "satt": 7395,
      "slan": 7396,
      "tiv": 7397,
      "tina": 7398,
      "tête": 7399,
      "vda": 7400,
      "vux": 7401,
      "wolf": 7402,
      "ya": 7403,
      "yo": 7404,
      "yme": 7405,
      "zdenk": 7406,
      "ána": 7407,
      "âce": 7408,
      "enant": 7409,
      "anier": 7410,
      "indo": 7411,
      "chor": 7412,
      "stå": 7413,
      "lei": 7414,
      "lete": 7415,
      "artif": 7416,
      "atus": 7417,
      "itz": 7418,
      "itar": 7419,
      "itálie": 7420,
      "alfred": 7421,
      "isation": 7422,
      "ismes": 7423,
      "unions": 7424,
      "rog": 7425,
      "rout": 7426,
      "ieval": 7427,
      "etic": 7428,
      "ursa": 7429,
      "assa": 7430,
      "enten": 7431,
      "entliche": 7432,
      "entspricht": 7433,
      "skal": 7434,
      "skand": 7435,
      "auteurs": 7436,
      "ove": 7437,
      "ovo": 7438,
      "ovými": 7439,
      "ingår": 7440,
      "olja": 7441,
      "nebyla": 7442,
      "utz": 7443,
      "deseti": 7444,
      "amb": 7445,
      "emper": 7446,
      "verkar": 7447,
      "propres": 7448,
      "tades": 7449,
      "hohen": 7450,
      "jewe": 7451,
      "jeweil": 7452,
      "mex": 7453,
      "fried": 7454,
      "idov": 7455,
      "genre": 7456,
      "logo": 7457,
      "antig": 7458,
      "peván": 7459,
      "pagan": 7460,
      "solid": 7461,
      "cií": 7462,
      "dice": 7463,
      "äng": 7464,
      "ända": 7465,
      "ctif": 7466,
      "concile": 7467,
      "lys": 7468,
      "days": 7469,
      "traten": 7470,
      "mohl": 7471,
      "námon": 7472,
      "cole": 7473,
      "said": 7474,
      "suit": 7475,
      "medieval": 7476,
      "svj": 7477,
      "export": 7478,
      "grön": 7479,
      "grâce": 7480,
      "weder": 7481,
      "weist": 7482,
      "vyd": 7483,
      "jít": 7484,
      "strict": 7485,
      "strong": 7486,
      "bourg": 7487,
      "zaí": 7488,
      "zaji": 7489,
      "phili": 7490,
      "size": 7491,
      "demand": 7492,
      "serna": 7493,
      "skapa": 7494,
      "atelem": 7495,
      "deuter": 7496,
      "sena": 7497,
      "ffen": 7498,
      "átu": 7499,
      "poraz": 7500,
      "tio": 7501,
      "gery": 7502,
      "auferste": 7503,
      "typer": 7504,
      "formulier": 7505,
      "puissance": 7506,
      "canada": 7507,
      "centre": 7508,
      "miljar": 7509,
      "itions": 7510,
      "nejen": 7511,
      "rozhod": 7512,
      "gaz": 7513,
      "better": 7514,
      "válek": 7515,
      "visar": 7516,
      "bapt": 7517,
      "volk": 7518,
      "prevent": 7519,
      "precis": 7520,
      "works": 7521,
      "vrát": 7522,
      "vodní": 7523,
      "anglo": 7524,
      "languages": 7525,
      "väster": 7526,
      "bnp": 7527,
      "domar": 7528,
      "domest": 7529,
      "rené": 7530,
      "henri": 7531,
      "metal": 7532,
      "metoder": 7533,
      "metast": 7534,
      "historien": 7535,
      "disse": 7536,
      "malá": 7537,
      "christoph": 7538,
      "anders": 7539,
      "cycle": 7540,
      "personnes": 7541,
      "technik": 7542,
      "vedle": 7543,
      "získá": 7544,
      "sociala": 7545,
      "produkt": 7546,
      "existuje": 7547,
      "flüs": 7548,
      "ekonomisk": 7549,
      "ovaný": 7550,
      "gelten": 7551,
      "regionala": 7552,
      "ponctu": 7553,
      "samtliga": 7554,
      "definier": 7555,
      "biologie": 7556,
      "nikdy": 7557,
      "préc": 7558,
      "mehrheit": 7559,
      "blí": 7560,
      "dollar": 7561,
      "quelque": 7562,
      "titel": 7563,
      "titul": 7564,
      "titeln": 7565,
      "zákonem": 7566,
      "siècles": 7567,
      "germanique": 7568,
      "pelopon": 7569,
      "hälfte": 7570,
      "vzdlan": 7571,
      "utvecklas": 7572,
      "signal": 7573,
      "sekunder": 7574,
      "izací": 7575,
      "famille": 7576,
      "gramma": 7577,
      "vitesse": 7578,
      "oznail": 7579,
      "oteven": 7580,
      "droit": 7581,
      "skrig": 7582,
      "skriv": 7583,
      "verkas": 7584,
      "mutter": 7585,
      "étude": 7586,
      "ljus": 7587,
      "clava": 7588,
      "lautre": 7589,
      "prises": 7590,
      "societies": 7591,
      "erscheint": 7592,
      "vzdlávání": 7593,
      "funkci": 7594,
      "konstant": 7595,
      "följande": 7596,
      "followed": 7597,
      "größten": 7598,
      "långt": 7599,
      "result": 7600,
      "botan": 7601,
      "territoires": 7602,
      "phrases": 7603,
      "temperaturen": 7604,
      "zeugung": 7605,
      "beschre": 7606,
      "utvecklingen": 7607,
      "folgende": 7608,
      "patrn": 7609,
      "pouívá": 7610,
      "absolut": 7611,
      "wahrnehm": 7612,
      "anglicky": 7613,
      "einzige": 7614,
      "turkiska": 7615,
      "hudby": 7616,
      "mythology": 7617,
      "spojení": 7618,
      "belgien": 7619,
      "sidan": 7620,
      "svatého": 7621,
      "revolutionen": 7622,
      "références": 7623,
      "vítzství": 7624,
      "nouvelles": 7625,
      "deaths": 7626,
      "ökumen": 7627,
      "fontanier": 7628,
      "zpvá": 7629,
      "viktigaste": 7630,
      "theories": 7631,
      "miroir": 7632,
      "designed": 7633,
      "städte": 7634,
      "carolingien": 7635,
      "sweet": 7636,
      "causes": 7637,
      "folkets": 7638,
      "pomocí": 7639,
      "skolan": 7640,
      "zakladatel": 7641,
      "orthodoxen": 7642,
      "distrib": 7643,
      "judaism": 7644,
      "chimpanzés": 7645,
      "hjälp": 7646,
      "étrang": 7647,
      "mémoire": 7648,
      "framstäl": 7649,
      "dabord": 7650,
      "jhwh": 7651,
      "chokladen": 7652,
      "beschrieben": 7653,
      "kobyl": 7654,
      "gorbatschow": 7655,
      "ddictví": 7656,
      "abraham": 7657,
      "patients": 7658,
      "inklusive": 7659,
      "agrofertu": 7660,
      "mammifères": 7661,
      "jeweils": 7662,
      "auferstehung": 7663,
      "miljarder": 7664,
      "batt": 7665,
      "bale": 7666,
      "cil": 7667,
      "cic": 7668,
      "cident": 7669,
      "dum": 7670,
      "dres": 7671,
      "dvoj": 7672,
      "dorigine": 7673,
      "ei": 7674,
      "ewig": 7675,
      "fand": 7676,
      "gla": 7677,
      "ghan": 7678,
      "hoff": 7679,
      "ième": 7680,
      "jist": 7681,
      "kit": 7682,
      "kein": 7683,
      "lla": 7684,
      "lod": 7685,
      "mau": 7686,
      "misch": 7687,
      "miss": 7688,
      "pion": 7689,
      "ritu": 7690,
      "rôle": 7691,
      "squ": 7692,
      "sod": 7693,
      "sland": 7694,
      "spå": 7695,
      "slow": 7696,
      "tw": 7697,
      "tung": 7698,
      "ula": 7699,
      "vall": 7700,
      "vår": 7701,
      "wien": 7702,
      "yer": 7703,
      "zku": 7704,
      "ziel": 7705,
      "ály": 7706,
      "égor": 7707,
      "époque": 7708,
      "úed": 7709,
      "útvar": 7710,
      "ener": 7711,
      "eným": 7712,
      "encoura": 7713,
      "erd": 7714,
      "erster": 7715,
      "ansch": 7716,
      "ini": 7717,
      "chréti": 7718,
      "devra": 7719,
      "determin": 7720,
      "ona": 7721,
      "leto": 7722,
      "lequel": 7723,
      "realis": 7724,
      "reforma": 7725,
      "reprezent": 7726,
      "ati": 7727,
      "atu": 7728,
      "ater": 7729,
      "atlant": 7730,
      "alfab": 7731,
      "iso": 7732,
      "ropo": 7733,
      "round": 7734,
      "roma": 7735,
      "things": 7736,
      "etí": 7737,
      "sektor": 7738,
      "pop": 7739,
      "poko": 7740,
      "popis": 7741,
      "pojetí": 7742,
      "lip": 7743,
      "liqu": 7744,
      "urité": 7745,
      "eldva": 7746,
      "asie": 7747,
      "entste": 7748,
      "skt": 7749,
      "aurait": 7750,
      "cestu": 7751,
      "dennoch": 7752,
      "gemon": 7753,
      "necess": 7754,
      "nefes": 7755,
      "utgiv": 7756,
      "emes": 7757,
      "emerg": 7758,
      "implement": 7759,
      "verdun": 7760,
      "vergleich": 7761,
      "promot": 7762,
      "prosince": 7763,
      "hoe": 7764,
      "jede": 7765,
      "maar": 7766,
      "ivan": 7767,
      "ären": 7768,
      "oty": 7769,
      "parlé": 7770,
      "parag": 7771,
      "irsko": 7772,
      "gens": 7773,
      "lokala": 7774,
      "förklar": 7775,
      "ännu": 7776,
      "dost": 7777,
      "doho": 7778,
      "convention": 7779,
      "akce": 7780,
      "true": 7781,
      "pramen": 7782,
      "manu": 7783,
      "nále": 7784,
      "sap": 7785,
      "sue": 7786,
      "svým": 7787,
      "exchange": 7788,
      "expédition": 7789,
      "kong": 7790,
      "konsum": 7791,
      "notable": 7792,
      "vyet": 7793,
      "vykoná": 7794,
      "strat": 7795,
      "lettre": 7796,
      "vít": 7797,
      "lenin": 7798,
      "demnach": 7799,
      "sert": 7800,
      "francii": 7801,
      "mond": 7802,
      "ffet": 7803,
      "kyn": 7804,
      "opul": 7805,
      "tibet": 7806,
      "gericht": 7807,
      "román": 7808,
      "indre": 7809,
      "iences": 7810,
      "výi": 7811,
      "vým": 7812,
      "výcar": 7813,
      "ireland": 7814,
      "key": 7815,
      "ätz": 7816,
      "pure": 7817,
      "danmarks": 7818,
      "ledov": 7819,
      "minus": 7820,
      "therapy": 7821,
      "rozvin": 7822,
      "rozdíl": 7823,
      "myt": 7824,
      "mylen": 7825,
      "spolek": 7826,
      "volby": 7827,
      "chose": 7828,
      "iella": 7829,
      "valy": 7830,
      "musul": 7831,
      "jiho": 7832,
      "pipad": 7833,
      "bref": 7834,
      "politische": 7835,
      "données": 7836,
      "sprid": 7837,
      "ordför": 7838,
      "mettre": 7839,
      "ished": 7840,
      "bildeten": 7841,
      "actress": 7842,
      "föl": 7843,
      "föres": 7844,
      "föreg": 7845,
      "läng": 7846,
      "tidiga": 7847,
      "debit": 7848,
      "malgré": 7849,
      "messen": 7850,
      "mesure": 7851,
      "cards": 7852,
      "office": 7853,
      "offiz": 7854,
      "official": 7855,
      "zeno": 7856,
      "françaises": 7857,
      "sociální": 7858,
      "produktion": 7859,
      "identisch": 7860,
      "garde": 7861,
      "slovo": 7862,
      "flä": 7863,
      "talar": 7864,
      "issn": 7865,
      "babiovi": 7866,
      "hrady": 7867,
      "druhou": 7868,
      "druhá": 7869,
      "vládu": 7870,
      "corpor": 7871,
      "budov": 7872,
      "hinzu": 7873,
      "dampf": 7874,
      "strukt": 7875,
      "zoaires": 7876,
      "masary": 7877,
      "rats": 7878,
      "ovatel": 7879,
      "mehreren": 7880,
      "highest": 7881,
      "tels": 7882,
      "balt": 7883,
      "traditionen": 7884,
      "quels": 7885,
      "verbot": 7886,
      "echách": 7887,
      "erstmals": 7888,
      "zákony": 7889,
      "renesanci": 7890,
      "träger": 7891,
      "bíl": 7892,
      "vzniku": 7893,
      "skilda": 7894,
      "görs": 7895,
      "dessutom": 7896,
      "hjärtats": 7897,
      "bitter": 7898,
      "pvodu": 7899,
      "bezeichnete": 7900,
      "importance": 7901,
      "kejsar": 7902,
      "prmyslov": 7903,
      "premiers": 7904,
      "ádné": 7905,
      "limate": 7906,
      "allows": 7907,
      "bunde": 7908,
      "purpose": 7909,
      "kriegs": 7910,
      "presented": 7911,
      "erscheinen": 7912,
      "close": 7913,
      "pedagogiska": 7914,
      "aspects": 7915,
      "pozici": 7916,
      "provides": 7917,
      "community": 7918,
      "minutes": 7919,
      "foundation": 7920,
      "följd": 7921,
      "grenze": 7922,
      "grenzen": 7923,
      "volume": 7924,
      "jednoho": 7925,
      "nämn": 7926,
      "harmonic": 7927,
      "trädare": 7928,
      "medlems": 7929,
      "realität": 7930,
      "persön": 7931,
      "uvedl": 7932,
      "pevn": 7933,
      "rätten": 7934,
      "gelegt": 7935,
      "methods": 7936,
      "velký": 7937,
      "pronik": 7938,
      "compte": 7939,
      "romantiska": 7940,
      "médié": 7941,
      "ervnu": 7942,
      "uppgifter": 7943,
      "couronnement": 7944,
      "features": 7945,
      "vztah": 7946,
      "orchestr": 7947,
      "antonín": 7948,
      "champions": 7949,
      "kilometer": 7950,
      "mladí": 7951,
      "vätgas": 7952,
      "ähnlich": 7953,
      "scientific": 7954,
      "additional": 7955,
      "höchsten": 7956,
      "côté": 7957,
      "allgemeinen": 7958,
      "average": 7959,
      "sacred": 7960,
      "difficult": 7961,
      "ställning": 7962,
      "podezení": 7963,
      "conditions": 7964,
      "diplom": 7965,
      "zahrnu": 7966,
      "sémantique": 7967,
      "hudební": 7968,
      "ochrán": 7969,
      "narodil": 7970,
      "geburt": 7971,
      "hinsichtlich": 7972,
      "údolí": 7973,
      "scotland": 7974,
      "business": 7975,
      "varietäten": 7976,
      "zaátku": 7977,
      "caused": 7978,
      "cacao": 7979,
      "fingers": 7980,
      "anhänger": 7981,
      "pohoí": 7982,
      "perioden": 7983,
      "související": 7984,
      "défense": 7985,
      "travail": 7986,
      "vzhledem": 7987,
      "nefesch": 7988,
      "ao": 7989,
      "ax": 7990,
      "abe": 7991,
      "apr": 7992,
      "aient": 7993,
      "brou": 7994,
      "dä": 7995,
      "dhar": 7996,
      "dvr": 7997,
      "dite": 7998,
      "eis": 7999,
      "flag": 8000,
      "flam": 8001,
      "gil": 8002,
      "gär": 8003,
      "gold": 8004,
      "hun": 8005,
      "hors": 8006,
      "ije": 8007,
      "lunivers": 8008,
      "lutilisation": 8009,
      "mê": 8010,
      "mant": 8011,
      "oi": 8012,
      "oil": 8013,
      "pent": 8014,
      "pund": 8015,
      "pus": 8016,
      "pines": 8017,
      "rate": 8018,
      "rise": 8019,
      "sist": 8020,
      "sbor": 8021,
      "silo": 8022,
      "srov": 8023,
      "slightly": 8024,
      "tm": 8025,
      "tó": 8026,
      "tone": 8027,
      "täck": 8028,
      "vå": 8029,
      "vot": 8030,
      "wic": 8031,
      "xvi": 8032,
      "xxe": 8033,
      "álu": 8034,
      "äk": 8035,
      "éc": 8036,
      "ökat": 8037,
      "ústí": 8038,
      "chans": 8039,
      "chud": 8040,
      "ston": 8041,
      "stov": 8042,
      "stäm": 8043,
      "deposit": 8044,
      "once": 8045,
      "leh": 8046,
      "least": 8047,
      "reformen": 8048,
      "itage": 8049,
      "isant": 8050,
      "unced": 8051,
      "essent": 8052,
      "roger": 8053,
      "thographe": 8054,
      "iede": 8055,
      "ieuse": 8056,
      "sebe": 8057,
      "seven": 8058,
      "rac": 8059,
      "povrch": 8060,
      "posvát": 8061,
      "named": 8062,
      "skans": 8063,
      "olo": 8064,
      "olit": 8065,
      "gefü": 8066,
      "neme": 8067,
      "iced": 8068,
      "icism": 8069,
      "utt": 8070,
      "utbild": 8071,
      "utrikes": 8072,
      "behaupt": 8073,
      "bezug": 8074,
      "offe": 8075,
      "design": 8076,
      "tos": 8077,
      "imman": 8078,
      "verstorben": 8079,
      "uspoá": 8080,
      "proper": 8081,
      "probí": 8082,
      "tad": 8083,
      "kazuje": 8084,
      "obr": 8085,
      "obvody": 8086,
      "meant": 8087,
      "otáz": 8088,
      "fré": 8089,
      "idata": 8090,
      "forder": 8091,
      "uml": 8092,
      "above": 8093,
      "soz": 8094,
      "dian": 8095,
      "diver": 8096,
      "dokáz": 8097,
      "iller": 8098,
      "ansvar": 8099,
      "zek": 8100,
      "praxis": 8101,
      "mana": 8102,
      "coast": 8103,
      "koncem": 8104,
      "konservat": 8105,
      "vytvá": 8106,
      "upper": 8107,
      "jího": 8108,
      "strål": 8109,
      "boles": 8110,
      "heli": 8111,
      "heben": 8112,
      "pln": 8113,
      "plant": 8114,
      "zaps": 8115,
      "zastá": 8116,
      "adní": 8117,
      "phes": 8118,
      "phil": 8119,
      "lensemble": 8120,
      "estet": 8121,
      "monte": 8122,
      "monost": 8123,
      "ausdrück": 8124,
      "steg": 8125,
      "delarna": 8126,
      "indigen": 8127,
      "déta": 8128,
      "fach": 8129,
      "vývoje": 8130,
      "travers": 8131,
      "norska": 8132,
      "danger": 8133,
      "centrem": 8134,
      "ledge": 8135,
      "ledning": 8136,
      "rozdlení": 8137,
      "rozvoje": 8138,
      "hnt": 8139,
      "mylení": 8140,
      "beträ": 8141,
      "nytt": 8142,
      "ptation": 8143,
      "visat": 8144,
      "bacon": 8145,
      "working": 8146,
      "jednu": 8147,
      "mera": 8148,
      "mathem": 8149,
      "partier": 8150,
      "partner": 8151,
      "wiegend": 8152,
      "wach": 8153,
      "ously": 8154,
      "wirken": 8155,
      "breton": 8156,
      "feel": 8157,
      "kraji": 8158,
      "ämnen": 8159,
      "folgt": 8160,
      "larna": 8161,
      "vtiny": 8162,
      "britann": 8163,
      "frame": 8164,
      "styles": 8165,
      "höger": 8166,
      "höher": 8167,
      "wikidata": 8168,
      "bildet": 8169,
      "föra": 8170,
      "slezských": 8171,
      "celého": 8172,
      "darauf": 8173,
      "ardö": 8174,
      "kort": 8175,
      "polsko": 8176,
      "hora": 8177,
      "horse": 8178,
      "eskými": 8179,
      "ided": 8180,
      "vedl": 8181,
      "vedou": 8182,
      "stíhá": 8183,
      "jordens": 8184,
      "produit": 8185,
      "ecký": 8186,
      "dání": 8187,
      "weitgehend": 8188,
      "grundlage": 8189,
      "weltkrieg": 8190,
      "mostly": 8191,
      "platser": 8192,
      "shiva": 8193,
      "italy": 8194,
      "help": 8195,
      "systemet": 8196,
      "státem": 8197,
      "králové": 8198,
      "certaine": 8199,
      "latiny": 8200,
      "kammare": 8201,
      "romane": 8202,
      "válku": 8203,
      "definitiv": 8204,
      "distance": 8205,
      "månen": 8206,
      "makes": 8207,
      "classes": 8208,
      "egypt": 8209,
      "ovací": 8210,
      "cities": 8211,
      "nmecku": 8212,
      "významnou": 8213,
      "kinder": 8214,
      "begriffe": 8215,
      "lovk": 8216,
      "lovka": 8217,
      "europé": 8218,
      "utilisés": 8219,
      "utilisée": 8220,
      "mutation": 8221,
      "mäß": 8222,
      "mächt": 8223,
      "entwickelt": 8224,
      "principal": 8225,
      "kejsardö": 8226,
      "journal": 8227,
      "handelt": 8228,
      "filosofi": 8229,
      "gods": 8230,
      "skupina": 8231,
      "kyrk": 8232,
      "trouver": 8233,
      "seconde": 8234,
      "cognition": 8235,
      "österrike": 8236,
      "härsk": 8237,
      "nového": 8238,
      "tání": 8239,
      "highly": 8240,
      "gesamten": 8241,
      "external": 8242,
      "kristna": 8243,
      "kristend": 8244,
      "sammanhang": 8245,
      "arabiska": 8246,
      "machte": 8247,
      "svtového": 8248,
      "europäische": 8249,
      "provided": 8250,
      "modell": 8251,
      "výraz": 8252,
      "reduce": 8253,
      "souasn": 8254,
      "liberal": 8255,
      "prezidenta": 8256,
      "kriget": 8257,
      "zählen": 8258,
      "ideologi": 8259,
      "zeugt": 8260,
      "introduction": 8261,
      "religiösen": 8262,
      "normalt": 8263,
      "jediným": 8264,
      "stopped": 8265,
      "documents": 8266,
      "alternative": 8267,
      "neutral": 8268,
      "andererseits": 8269,
      "wandel": 8270,
      "zvlátní": 8271,
      "gruppe": 8272,
      "buddhism": 8273,
      "growing": 8274,
      "jacob": 8275,
      "smrti": 8276,
      "diverses": 8277,
      "hinduismus": 8278,
      "multiple": 8279,
      "mikul": 8280,
      "division": 8281,
      "leading": 8282,
      "údajn": 8283,
      "bewusst": 8284,
      "frågan": 8285,
      "höjd": 8286,
      "dubna": 8287,
      "ouvrages": 8288,
      "atmosfären": 8289,
      "variante": 8290,
      "letzten": 8291,
      "vanligaste": 8292,
      "psykolog": 8293,
      "communi": 8294,
      "jordbruket": 8295,
      "informace": 8296,
      "mittler": 8297,
      "viiie": 8298,
      "opérations": 8299,
      "dsledku": 8300,
      "zástupce": 8301,
      "rzné": 8302,
      "íjna": 8303,
      "phabet": 8304,
      "matematik": 8305,
      "printed": 8306,
      "football": 8307,
      "ryssland": 8308,
      "ambassade": 8309,
      "scholars": 8310,
      "méthode": 8311,
      "bratislav": 8312,
      "jeliko": 8313,
      "pipojen": 8314,
      "syftar": 8315,
      "katedrála": 8316,
      "usnesení": 8317,
      "inkluderar": 8318,
      "pelomu": 8319,
      "jeweiligen": 8320,
      "antigon": 8321,
      "deuterium": 8322,
      "alfabet": 8323,
      "mathemat": 8324,
      "agr": 8325,
      "cové": 8326,
      "clar": 8327,
      "dus": 8328,
      "dür": 8329,
      "eb": 8330,
      "eky": 8331,
      "evolution": 8332,
      "fou": 8333,
      "fisk": 8334,
      "fåg": 8335,
      "gy": 8336,
      "gul": 8337,
      "hc": 8338,
      "iber": 8339,
      "jö": 8340,
      "jul": 8341,
      "kce": 8342,
      "mü": 8343,
      "mý": 8344,
      "mieux": 8345,
      "nier": 8346,
      "nelle": 8347,
      "nkde": 8348,
      "oden": 8349,
      "pê": 8350,
      "pát": 8351,
      "pts": 8352,
      "pán": 8353,
      "pelle": 8354,
      "rare": 8355,
      "rätta": 8356,
      "smit": 8357,
      "sjedno": 8358,
      "telle": 8359,
      "ulaire": 8360,
      "vement": 8361,
      "vlt": 8362,
      "zor": 8363,
      "zet": 8364,
      "zní": 8365,
      "zvy": 8366,
      "zvý": 8367,
      "ztrat": 8368,
      "áci": 8369,
      "ázelo": 8370,
      "èse": 8371,
      "ít": 8372,
      "ól": 8373,
      "ów": 8374,
      "ensuite": 8375,
      "erb": 8376,
      "erande": 8377,
      "anie": 8378,
      "inav": 8379,
      "innen": 8380,
      "chap": 8381,
      "challen": 8382,
      "stern": 8383,
      "stammen": 8384,
      "deta": 8385,
      "leder": 8386,
      "arf": 8387,
      "arme": 8388,
      "argu": 8389,
      "armand": 8390,
      "reag": 8391,
      "revs": 8392,
      "atl": 8393,
      "itation": 8394,
      "itself": 8395,
      "alb": 8396,
      "albert": 8397,
      "isi": 8398,
      "isons": 8399,
      "essa": 8400,
      "roland": 8401,
      "etr": 8402,
      "seur": 8403,
      "ram": 8404,
      "pot": 8405,
      "poda": 8406,
      "pokra": 8407,
      "lidu": 8408,
      "liens": 8409,
      "uran": 8410,
      "asii": 8411,
      "andis": 8412,
      "ovice": 8413,
      "gether": 8414,
      "ney": 8415,
      "near": 8416,
      "never": 8417,
      "nemá": 8418,
      "nebylo": 8419,
      "avan": 8420,
      "bestehen": 8421,
      "bekannt": 8422,
      "terre": 8423,
      "amin": 8424,
      "ament": 8425,
      "amateur": 8426,
      "tool": 8427,
      "tours": 8428,
      "together": 8429,
      "emon": 8430,
      "verkan": 8431,
      "verlor": 8432,
      "vertrat": 8433,
      "usale": 8434,
      "proph": 8435,
      "propose": 8436,
      "hokej": 8437,
      "prun": 8438,
      "prennent": 8439,
      "prenant": 8440,
      "odpov": 8441,
      "schop": 8442,
      "schrieb": 8443,
      "umstritten": 8444,
      "loin": 8445,
      "lois": 8446,
      "abs": 8447,
      "absor": 8448,
      "antika": 8449,
      "permit": 8450,
      "pertin": 8451,
      "ull": 8452,
      "tenu": 8453,
      "tenis": 8454,
      "cien": 8455,
      "dosa": 8456,
      "dostal": 8457,
      "dosav": 8458,
      "conclu": 8459,
      "consacré": 8460,
      "lym": 8461,
      "praský": 8462,
      "prague": 8463,
      "bergen": 8464,
      "saxe": 8465,
      "sugar": 8466,
      "sví": 8467,
      "extra": 8468,
      "kontra": 8469,
      "comprendre": 8470,
      "vyme": 8471,
      "upon": 8472,
      "ploch": 8473,
      "plural": 8474,
      "letzte": 8475,
      "krim": 8476,
      "lue": 8477,
      "adver": 8478,
      "adje": 8479,
      "leny": 8480,
      "skaper": 8481,
      "påverkas": 8482,
      "soustav": 8483,
      "ateurs": 8484,
      "vodem": 8485,
      "hart": 8486,
      "optim": 8487,
      "átní": 8488,
      "auflage": 8489,
      "aufgabe": 8490,
      "typo": 8491,
      "herz": 8492,
      "téma": 8493,
      "sicher": 8494,
      "normand": 8495,
      "osí": 8496,
      "spielt": 8497,
      "lés": 8498,
      "lécrit": 8499,
      "kommission": 8500,
      "poss": 8501,
      "nejprve": 8502,
      "slä": 8503,
      "dynam": 8504,
      "års": 8505,
      "myst": 8506,
      "access": 8507,
      "ganz": 8508,
      "volks": 8509,
      "blivit": 8510,
      "engine": 8511,
      "pedtím": 8512,
      "joy": 8513,
      "johan": 8514,
      "regn": 8515,
      "regierung": 8516,
      "pige": 8517,
      "pijí": 8518,
      "pizz": 8519,
      "zni": 8520,
      "znovu": 8521,
      "besky": 8522,
      "plain": 8523,
      "liest": 8524,
      "ließen": 8525,
      "vtinou": 8526,
      "ersatt": 8527,
      "ersetzt": 8528,
      "jenigen": 8529,
      "frauen": 8530,
      "stylu": 8531,
      "statut": 8532,
      "sollen": 8533,
      "trots": 8534,
      "historiens": 8535,
      "bildar": 8536,
      "rusko": 8537,
      "längs": 8538,
      "messages": 8539,
      "ground": 8540,
      "nova": 8541,
      "noviná": 8542,
      "celkové": 8543,
      "bort": 8544,
      "noms": 8545,
      "dark": 8546,
      "darüber": 8547,
      "otherapy": 8548,
      "staré": 8549,
      "horn": 8550,
      "horním": 8551,
      "evropskou": 8552,
      "lagstift": 8553,
      "ilian": 8554,
      "selves": 8555,
      "zízení": 8556,
      "buil": 8557,
      "buje": 8558,
      "teilt": 8559,
      "ecká": 8560,
      "existiert": 8561,
      "zvuk": 8562,
      "reiches": 8563,
      "flü": 8564,
      "texts": 8565,
      "jinak": 8566,
      "värme": 8567,
      "jícím": 8568,
      "kulturu": 8569,
      "hraje": 8570,
      "hradu": 8571,
      "ship": 8572,
      "republice": 8573,
      "braz": 8574,
      "direc": 8575,
      "znání": 8576,
      "använda": 8577,
      "neuro": 8578,
      "cules": 8579,
      "náboenské": 8580,
      "ägyp": 8581,
      "fonde": 8582,
      "rates": 8583,
      "ovaných": 8584,
      "führten": 8585,
      "positionen": 8586,
      "earliest": 8587,
      "fenomen": 8588,
      "worldwide": 8589,
      "piele": 8590,
      "players": 8591,
      "satta": 8592,
      "utiliser": 8593,
      "ymie": 8594,
      "curren": 8595,
      "legis": 8596,
      "materiell": 8597,
      "nedost": 8598,
      "universities": 8599,
      "classique": 8600,
      "violinists": 8601,
      "vznikl": 8602,
      "vzniklo": 8603,
      "germanischen": 8604,
      "hålla": 8605,
      "river": 8606,
      "vlastnosti": 8607,
      "gemeinschaft": 8608,
      "högst": 8609,
      "kritiz": 8610,
      "fattar": 8611,
      "kreuz": 8612,
      "references": 8613,
      "allemand": 8614,
      "campagne": 8615,
      "ostatních": 8616,
      "blodet": 8617,
      "premié": 8618,
      "virtu": 8619,
      "lingua": 8620,
      "elezniních": 8621,
      "themselves": 8622,
      "cyperns": 8623,
      "získala": 8624,
      "získali": 8625,
      "originally": 8626,
      "femin": 8627,
      "skupin": 8628,
      "allowing": 8629,
      "gemensamt": 8630,
      "gjort": 8631,
      "francophone": 8632,
      "fourth": 8633,
      "règles": 8634,
      "paraît": 8635,
      "cross": 8636,
      "concerne": 8637,
      "genannte": 8638,
      "minuter": 8639,
      "processed": 8640,
      "hochdeutsch": 8641,
      "verbreitung": 8642,
      "nämlich": 8643,
      "obchodu": 8644,
      "januar": 8645,
      "beispiele": 8646,
      "výrob": 8647,
      "cussion": 8648,
      "framförallt": 8649,
      "územní": 8650,
      "stieg": 8651,
      "architektura": 8652,
      "lateinisch": 8653,
      "beziehung": 8654,
      "griechische": 8655,
      "trestní": 8656,
      "mariage": 8657,
      "hospodáství": 8658,
      "distingu": 8659,
      "möjlighet": 8660,
      "knü": 8661,
      "minoritet": 8662,
      "förenade": 8663,
      "metropolit": 8664,
      "stetu": 8665,
      "emotion": 8666,
      "irak": 8667,
      "ights": 8668,
      "birth": 8669,
      "accents": 8670,
      "preuß": 8671,
      "activity": 8672,
      "schöpfer": 8673,
      "pestoe": 8674,
      "éditions": 8675,
      "indicated": 8676,
      "chronique": 8677,
      "bavière": 8678,
      "broadcast": 8679,
      "behövs": 8680,
      "perspektiv": 8681,
      "ographie": 8682,
      "kanoner": 8683,
      "církve": 8684,
      "begründet": 8685,
      "ouvrage": 8686,
      "výjimkou": 8687,
      "lánky": 8688,
      "jednak": 8689,
      "portugal": 8690,
      "micr": 8691,
      "discover": 8692,
      "feuer": 8693,
      "cizinc": 8694,
      "taiwan": 8695,
      "prohlásil": 8696,
      "permanent": 8697,
      "olympijských": 8698,
      "kruh": 8699,
      "respectively": 8700,
      "zamstnan": 8701,
      "ekosystém": 8702,
      "protestant": 8703,
      "phänomene": 8704,
      "wichtigsten": 8705,
      "vocab": 8706,
      "recherches": 8707,
      "manipul": 8708,
      "succession": 8709,
      "senátoi": 8710,
      "survival": 8711,
      "demokracie": 8712,
      "dostupné": 8713,
      "vladimír": 8714,
      "smaller": 8715,
      "regarded": 8716,
      "mänskliga": 8717,
      "senaste": 8718,
      "entstehung": 8719,
      "medlemsstat": 8720,
      "bc": 8721,
      "bell": 8722,
      "bure": 8723,
      "climate": 8724,
      "dish": 8725,
      "eus": 8726,
      "fie": 8727,
      "fire": 8728,
      "gia": 8729,
      "give": 8730,
      "gouver": 8731,
      "hres": 8732,
      "hinter": 8733,
      "jmy": 8734,
      "lum": 8735,
      "mra": 8736,
      "mise": 8737,
      "mobil": 8738,
      "nmu": 8739,
      "njak": 8740,
      "når": 8741,
      "noval": 8742,
      "nont": 8743,
      "oí": 8744,
      "oit": 8745,
      "obe": 8746,
      "opráv": 8747,
      "pdy": 8748,
      "pite": 8749,
      "rêt": 8750,
      "sbí": 8751,
      "til": 8752,
      "ust": 8753,
      "uení": 8754,
      "uhlí": 8755,
      "vand": 8756,
      "vog": 8757,
      "vital": 8758,
      "wr": 8759,
      "wy": 8760,
      "wiesen": 8761,
      "xii": 8762,
      "yr": 8763,
      "zau": 8764,
      "zstá": 8765,
      "zkrat": 8766,
      "ále": 8767,
      "ège": 8768,
      "èdent": 8769,
      "émotion": 8770,
      "enheter": 8771,
      "enseig": 8772,
      "erfa": 8773,
      "anth": 8774,
      "anne": 8775,
      "insp": 8776,
      "infe": 8777,
      "inhard": 8778,
      "chop": 8779,
      "stö": 8780,
      "def": 8781,
      "devel": 8782,
      "decre": 8783,
      "deleg": 8784,
      "learn": 8785,
      "leffet": 8786,
      "arm": 8787,
      "arth": 8788,
      "aries": 8789,
      "rele": 8790,
      "redon": 8791,
      "rezer": 8792,
      "atd": 8793,
      "athan": 8794,
      "items": 8795,
      "rous": 8796,
      "laur": 8797,
      "laide": 8798,
      "laquelle": 8799,
      "secur": 8800,
      "sequent": 8801,
      "sechs": 8802,
      "derived": 8803,
      "rain": 8804,
      "poas": 8805,
      "povol": 8806,
      "lien": 8807,
      "assimil": 8808,
      "nazi": 8809,
      "sklá": 8810,
      "skraft": 8811,
      "oured": 8812,
      "auth": 8813,
      "teprve": 8814,
      "ovic": 8815,
      "dení": 8816,
      "níkem": 8817,
      "neck": 8818,
      "quint": 8819,
      "icato": 8820,
      "uted": 8821,
      "bever": 8822,
      "descri": 8823,
      "amér": 8824,
      "imig": 8825,
      "immen": 8826,
      "verka": 8827,
      "proven": 8828,
      "prová": 8829,
      "holi": 8830,
      "lespagnol": 8831,
      "jeu": 8832,
      "kale": 8833,
      "prå": 8834,
      "prior": 8835,
      "odhad": 8836,
      "ivt": 8837,
      "obvin": 8838,
      "mesta": 8839,
      "schen": 8840,
      "fria": 8841,
      "byt": 8842,
      "fors": 8843,
      "umfasst": 8844,
      "gene": 8845,
      "look": 8846,
      "antingen": 8847,
      "persi": 8848,
      "past": 8849,
      "sobem": 8850,
      "diam": 8851,
      "ändra": 8852,
      "doivent": 8853,
      "ctr": 8854,
      "ctal": 8855,
      "context": 8856,
      "dafr": 8857,
      "vek": 8858,
      "mode": 8859,
      "prag": 8860,
      "pravy": 8861,
      "praských": 8862,
      "názvu": 8863,
      "medical": 8864,
      "wech": 8865,
      "vystav": 8866,
      "uppt": 8867,
      "brut": 8868,
      "brno": 8869,
      "tillstånd": 8870,
      "boje": 8871,
      "mentalen": 8872,
      "leté": 8873,
      "letit": 8874,
      "ady": 8875,
      "phase": 8876,
      "lenem": 8877,
      "sibil": 8878,
      "skapet": 8879,
      "skapen": 8880,
      "mona": 8881,
      "monet": 8882,
      "ånga": 8883,
      "final": 8884,
      "viii": 8885,
      "opav": 8886,
      "mio": 8887,
      "mix": 8888,
      "porten": 8889,
      "litr": 8890,
      "samling": 8891,
      "romans": 8892,
      "tymologie": 8893,
      "cerveau": 8894,
      "détermin": 8895,
      "faite": 8896,
      "fauna": 8897,
      "výzkum": 8898,
      "térie": 8899,
      "píli": 8900,
      "pítom": 8901,
      "pírody": 8902,
      "stojí": 8903,
      "république": 8904,
      "spie": 8905,
      "ladislav": 8906,
      "tuje": 8907,
      "ifique": 8908,
      "milan": 8909,
      "komise": 8910,
      "posí": 8911,
      "insofern": 8912,
      "minim": 8913,
      "nejmén": 8914,
      "nejdleit": 8915,
      "éry": 8916,
      "koal": 8917,
      "václava": 8918,
      "visa": 8919,
      "visade": 8920,
      "volun": 8921,
      "prefer": 8922,
      "merk": 8923,
      "mers": 8924,
      "stige": 8925,
      "wahl": 8926,
      "hust": 8927,
      "humaine": 8928,
      "pipom": 8929,
      "pihlá": 8930,
      "vrst": 8931,
      "znal": 8932,
      "angel": 8933,
      "bred": 8934,
      "politisk": 8935,
      "ernst": 8936,
      "uppsk": 8937,
      "linné": 8938,
      "kenntnis": 8939,
      "folger": 8940,
      "patil": 8941,
      "britský": 8942,
      "template": 8943,
      "draw": 8944,
      "wikic": 8945,
      "ötter": 8946,
      "stated": 8947,
      "statsche": 8948,
      "historiskt": 8949,
      "annt": 8950,
      "ruska": 8951,
      "ickém": 8952,
      "státním": 8953,
      "státních": 8954,
      "discussion": 8955,
      "spect": 8956,
      "celá": 8957,
      "celou": 8958,
      "carlom": 8959,
      "livs": 8960,
      "horno": 8961,
      "vané": 8962,
      "vaný": 8963,
      "penz": 8964,
      "pense": 8965,
      "personne": 8966,
      "aded": 8967,
      "lagförslag": 8968,
      "kolství": 8969,
      "rym": 8970,
      "talets": 8971,
      "sell": 8972,
      "ligaste": 8973,
      "built": 8974,
      "teilung": 8975,
      "exemples": 8976,
      "lingar": 8977,
      "stuart": 8978,
      "englands": 8979,
      "dreie": 8980,
      "svtová": 8981,
      "weltseele": 8982,
      "flot": 8983,
      "textu": 8984,
      "takto": 8985,
      "ättning": 8986,
      "shak": 8987,
      "should": 8988,
      "obyv": 8989,
      "corre": 8990,
      "padl": 8991,
      "lebenden": 8992,
      "getren": 8993,
      "marknaden": 8994,
      "zentrale": 8995,
      "zeitig": 8996,
      "národnost": 8997,
      "företrädare": 8998,
      "wesentlichen": 8999,
      "wild": 9000,
      "précé": 9001,
      "présence": 9002,
      "hranici": 9003,
      "brown": 9004,
      "hamburg": 9005,
      "tvoili": 9006,
      "universum": 9007,
      "courant": 9008,
      "medeltid": 9009,
      "medeltidens": 9010,
      "psychology": 9011,
      "jménem": 9012,
      "vzdálen": 9013,
      "fully": 9014,
      "geblich": 9015,
      "gebunden": 9016,
      "particuli": 9017,
      "významný": 9018,
      "svenskans": 9019,
      "éginhard": 9020,
      "drott": 9021,
      "utilisent": 9022,
      "literatury": 9023,
      "základy": 9024,
      "zaloeno": 9025,
      "premiéra": 9026,
      "chemotherapy": 9027,
      "mächte": 9028,
      "stoupení": 9029,
      "stoupila": 9030,
      "rumän": 9031,
      "individuelle": 9032,
      "problé": 9033,
      "kakaom": 9034,
      "majoritet": 9035,
      "herrn": 9036,
      "ariat": 9037,
      "främsta": 9038,
      "claim": 9039,
      "invasion": 9040,
      "jamais": 9041,
      "betydande": 9042,
      "relativn": 9043,
      "växt": 9044,
      "levant": 9045,
      "groupes": 9046,
      "kvinn": 9047,
      "bibli": 9048,
      "veejn": 9049,
      "veejné": 9050,
      "azte": 9051,
      "lebt": 9052,
      "späteren": 9053,
      "règle": 9054,
      "kontroll": 9055,
      "elimin": 9056,
      "collection": 9057,
      "byzantine": 9058,
      "pravd": 9059,
      "nmc": 9060,
      "smyslu": 9061,
      "avaient": 9062,
      "contraire": 9063,
      "vielmehr": 9064,
      "poátkem": 9065,
      "private": 9066,
      "privile": 9067,
      "významné": 9068,
      "tiere": 9069,
      "annahme": 9070,
      "infördes": 9071,
      "bemü": 9072,
      "religiöse": 9073,
      "connaissance": 9074,
      "gräns": 9075,
      "directors": 9076,
      "continued": 9077,
      "lacadémie": 9078,
      "kräfte": 9079,
      "ethn": 9080,
      "kvtnu": 9081,
      "außerhalb": 9082,
      "editing": 9083,
      "doccident": 9084,
      "nimmt": 9085,
      "fréquence": 9086,
      "dosáhl": 9087,
      "návrh": 9088,
      "konzul": 9089,
      "facto": 9090,
      "facilit": 9091,
      "trestního": 9092,
      "automobil": 9093,
      "knihov": 9094,
      "viktor": 9095,
      "påverkar": 9096,
      "spoleenství": 9097,
      "církevní": 9098,
      "zpsobem": 9099,
      "activities": 9100,
      "unterschiede": 9101,
      "aucun": 9102,
      "umlecké": 9103,
      "nejznámjím": 9104,
      "scientifique": 9105,
      "lèves": 9106,
      "combined": 9107,
      "údaj": 9108,
      "perspective": 9109,
      "obyvatelstvo": 9110,
      "fråga": 9111,
      "carolingiens": 9112,
      "observations": 9113,
      "trennung": 9114,
      "gebracht": 9115,
      "fiddle": 9116,
      "verfassung": 9117,
      "svårt": 9118,
      "spisov": 9119,
      "caractères": 9120,
      "nacist": 9121,
      "customers": 9122,
      "öffentlichen": 9123,
      "résultats": 9124,
      "database": 9125,
      "bönder": 9126,
      "permettent": 9127,
      "förändringar": 9128,
      "characters": 9129,
      "wichtige": 9130,
      "leonar": 9131,
      "einwohner": 9132,
      "luxemburg": 9133,
      "évê": 9134,
      "myndigheter": 9135,
      "short": 9136,
      "limage": 9137,
      "komplex": 9138,
      "rugby": 9139,
      "världskrig": 9140,
      "pomrn": 9141,
      "dlouhodob": 9142,
      "énoncé": 9143,
      "etabler": 9144,
      "gebiete": 9145,
      "described": 9146,
      "tramva": 9147,
      "généralement": 9148,
      "phénomène": 9149,
      "demonstra": 9150,
      "occasion": 9151,
      "kakaosmör": 9152,
      "rapidement": 9153,
      "lebewesen": 9154,
      "behavior": 9155,
      "förmåga": 9156,
      "éléphants": 9157,
      "young": 9158,
      "ponctuation": 9159,
      "peloponé": 9160,
      "emerged": 9161,
      "april": 9162,
      "strålning": 9163,
      "beträgt": 9164,
      "stíhání": 9165,
      "pizzicato": 9166,
      "developer": 9167,
      "security": 9168,
      "poasí": 9169,
      "carloman": 9170,
      "världskriget": 9171,
      "apol": 9172,
      "dde": 9173,
      "dich": 9174,
      "dän": 9175,
      "dvod": 9176,
      "dán": 9177,
      "ege": 9178,
      "ehem": 9179,
      "fjär": 9180,
      "gon": 9181,
      "gat": 9182,
      "gnost": 9183,
      "haus": 9184,
      "kü": 9185,
      "kým": 9186,
      "keinen": 9187,
      "lde": 9188,
      "lín": 9189,
      "mru": 9190,
      "niska": 9191,
      "nkteí": 9192,
      "oste": 9193,
      "olas": 9194,
      "osvob": 9195,
      "pfen": 9196,
      "sco": 9197,
      "scen": 9198,
      "savoir": 9199,
      "tles": 9200,
      "tisk": 9201,
      "tard": 9202,
      "tandis": 9203,
      "vze": 9204,
      "vita": 9205,
      "wall": 9206,
      "wish": 9207,
      "zit": 9208,
      "ziv": 9209,
      "zdra": 9210,
      "zone": 9211,
      "ziert": 9212,
      "zmín": 9213,
      "áka": 9214,
      "átek": 9215,
      "éma": 9216,
      "ény": 9217,
      "ímany": 9218,
      "ökad": 9219,
      "úz": 9220,
      "erné": 9221,
      "erkän": 9222,
      "anno": 9223,
      "anism": 9224,
      "année": 9225,
      "angenommen": 9226,
      "inen": 9227,
      "inher": 9228,
      "intu": 9229,
      "inking": 9230,
      "instan": 9231,
      "innosti": 9232,
      "inhalt": 9233,
      "chiff": 9234,
      "stick": 9235,
      "stone": 9236,
      "delas": 9237,
      "decem": 9238,
      "ony": 9239,
      "reis": 9240,
      "rely": 9241,
      "remov": 9242,
      "alte": 9243,
      "alco": 9244,
      "isa": 9245,
      "isiert": 9246,
      "unde": 9247,
      "romains": 9248,
      "thcentury": 9249,
      "lair": 9250,
      "etiny": 9251,
      "oman": 9252,
      "secret": 9253,
      "polá": 9254,
      "urer": 9255,
      "entire": 9256,
      "entstand": 9257,
      "nami": 9258,
      "skå": 9259,
      "skrevs": 9260,
      "edom": 9261,
      "teplot": 9262,
      "ovský": 9263,
      "ingre": 9264,
      "geolog": 9265,
      "gebet": 9266,
      "geleg": 9267,
      "geführt": 9268,
      "níci": 9269,
      "neja": 9270,
      "quence": 9271,
      "avse": 9272,
      "utgjorde": 9273,
      "utländska": 9274,
      "befin": 9275,
      "deset": 9276,
      "deshalb": 9277,
      "igte": 9278,
      "ama": 9279,
      "tok": 9280,
      "imon": 9281,
      "impro": 9282,
      "impa": 9283,
      "images": 9284,
      "versteht": 9285,
      "prof": 9286,
      "prou": 9287,
      "prosla": 9288,
      "taire": 9289,
      "taking": 9290,
      "hoc": 9291,
      "hole": 9292,
      "jev": 9293,
      "mac": 9294,
      "odlin": 9295,
      "ärt": 9296,
      "obdre": 9297,
      "obrození": 9298,
      "schutz": 9299,
      "ikon": 9300,
      "paralle": 9301,
      "forum": 9302,
      "genau": 9303,
      "genres": 9304,
      "genutzt": 9305,
      "peking": 9306,
      "pevodu": 9307,
      "dualismus": 9308,
      "ultim": 9309,
      "tenant": 9310,
      "tenue": 9311,
      "ression": 9312,
      "dient": 9313,
      "lyrik": 9314,
      "dagar": 9315,
      "trie": 9316,
      "mosk": 9317,
      "berätt": 9318,
      "beräk": 9319,
      "manchen": 9320,
      "lanatom": 9321,
      "sain": 9322,
      "sacr": 9323,
      "sudet": 9324,
      "svaz": 9325,
      "weib": 9326,
      "vypu": 9327,
      "vynález": 9328,
      "strá": 9329,
      "bohus": 9330,
      "mental": 9331,
      "vary": 9332,
      "plor": 9333,
      "zastav": 9334,
      "syfte": 9335,
      "franque": 9336,
      "påven": 9337,
      "soused": 9338,
      "send": 9339,
      "guil": 9340,
      "kyslí": 9341,
      "mique": 9342,
      "stev": 9343,
      "little": 9344,
      "geringer": 9345,
      "samos": 9346,
      "vale": 9347,
      "vající": 9348,
      "delat": 9349,
      "podne": 9350,
      "podporu": 9351,
      "ceremon": 9352,
      "décr": 9353,
      "désigne": 9354,
      "alltid": 9355,
      "elekt": 9356,
      "formy": 9357,
      "formal": 9358,
      "formellt": 9359,
      "záleit": 9360,
      "facul": 9361,
      "výbor": 9362,
      "výslov": 9363,
      "äld": 9364,
      "tragen": 9365,
      "tradice": 9366,
      "store": 9367,
      "osn": 9368,
      "osse": 9369,
      "dandet": 9370,
      "rédig": 9371,
      "réalis": 9372,
      "cents": 9373,
      "spät": 9374,
      "tures": 9375,
      "lét": 9376,
      "milo": 9377,
      "ibles": 9378,
      "komma": 9379,
      "lats": 9380,
      "miner": 9381,
      "minska": 9382,
      "minute": 9383,
      "nejvy": 9384,
      "hnung": 9385,
      "lass": 9386,
      "acid": 9387,
      "érer": 9388,
      "korea": 9389,
      "barbar": 9390,
      "barthes": 9391,
      "váno": 9392,
      "bahn": 9393,
      "méton": 9394,
      "musical": 9395,
      "jihu": 9396,
      "surgery": 9397,
      "stiques": 9398,
      "regul": 9399,
      "signa": 9400,
      "pipra": 9401,
      "vorgän": 9402,
      "ago": 9403,
      "agt": 9404,
      "agor": 9405,
      "fear": 9406,
      "politických": 9407,
      "intent": 9408,
      "såg": 9409,
      "vägar": 9410,
      "krajin": 9411,
      "krajích": 9412,
      "bese": 9413,
      "melod": 9414,
      "igenom": 9415,
      "domu": 9416,
      "patron": 9417,
      "templat": 9418,
      "fili": 9419,
      "nizo": 9420,
      "cru": 9421,
      "dobro": 9422,
      "frau": 9423,
      "höll": 9424,
      "místa": 9425,
      "metz": 9426,
      "zila": 9427,
      "tros": 9428,
      "historii": 9429,
      "portion": 9430,
      "artists": 9431,
      "dispon": 9432,
      "novým": 9433,
      "dali": 9434,
      "darin": 9435,
      "darwin": 9436,
      "horního": 9437,
      "cypr": 9438,
      "système": 9439,
      "zena": 9440,
      "vedlo": 9441,
      "bestimmt": 9442,
      "tiny": 9443,
      "société": 9444,
      "creation": 9445,
      "produces": 9446,
      "ksh": 9447,
      "takové": 9448,
      "functions": 9449,
      "platí": 9450,
      "rové": 9451,
      "neuzeit": 9452,
      "ssd": 9453,
      "lauteur": 9454,
      "kunskap": 9455,
      "sembla": 9456,
      "translat": 9457,
      "handlar": 9458,
      "zeiten": 9459,
      "mainly": 9460,
      "könnte": 9461,
      "severo": 9462,
      "hraní": 9463,
      "brott": 9464,
      "nýbr": 9465,
      "symfon": 9466,
      "správu": 9467,
      "traditions": 9468,
      "quellen": 9469,
      "bruk": 9470,
      "verbind": 9471,
      "echy": 9472,
      "ministra": 9473,
      "vznikly": 9474,
      "ergibt": 9475,
      "amerika": 9476,
      "obyvatelé": 9477,
      "heiliger": 9478,
      "jazyka": 9479,
      "famous": 9480,
      "single": 9481,
      "capable": 9482,
      "ebene": 9483,
      "oblastech": 9484,
      "gemeint": 9485,
      "gemeinde": 9486,
      "literature": 9487,
      "came": 9488,
      "campa": 9489,
      "stoupen": 9490,
      "scott": 9491,
      "zweite": 9492,
      "povau": 9493,
      "originated": 9494,
      "magnet": 9495,
      "magnus": 9496,
      "limport": 9497,
      "radik": 9498,
      "betyder": 9499,
      "naturelle": 9500,
      "placement": 9501,
      "avoid": 9502,
      "industrial": 9503,
      "dochází": 9504,
      "vlivem": 9505,
      "krieges": 9506,
      "landsbyg": 9507,
      "typické": 9508,
      "aspekt": 9509,
      "specifically": 9510,
      "terminologie": 9511,
      "sammanlagt": 9512,
      "klima": 9513,
      "speaking": 9514,
      "sparty": 9515,
      "hochdeutsche": 9516,
      "zähl": 9517,
      "slovensko": 9518,
      "úady": 9519,
      "univerzit": 9520,
      "fällen": 9521,
      "itátech": 9522,
      "espèce": 9523,
      "territoire": 9524,
      "vertreter": 9525,
      "gesetzt": 9526,
      "výroba": 9527,
      "poloviny": 9528,
      "comparative": 9529,
      "mistr": 9530,
      "spanish": 9531,
      "patrick": 9532,
      "religiösa": 9533,
      "physi": 9534,
      "jiího": 9535,
      "kaum": 9536,
      "cognitives": 9537,
      "testaments": 9538,
      "meinte": 9539,
      "richtung": 9540,
      "bestimmte": 9541,
      "einzigen": 9542,
      "samarbetet": 9543,
      "gaule": 9544,
      "floren": 9545,
      "zabr": 9546,
      "lateinische": 9547,
      "omfattar": 9548,
      "editele": 9549,
      "responsible": 9550,
      "document": 9551,
      "arbeiten": 9552,
[...]
